{
  "version": "1.0",
  "truncation": null,
  "padding": null,
  "added_tokens": [
    {
      "id": 0,
      "content": "<unk>",
      "single_word": false,
      "lstrip": false,
      "rstrip": false,
      "normalized": false,
      "special": true
    },
    {
      "id": 1,
      "content": "<pad>",
      "single_word": false,
      "lstrip": false,
      "rstrip": false,
      "normalized": false,
      "special": true
    },
    {
      "id": 2,
      "content": "<mask>",
      "single_word": false,
      "lstrip": false,
      "rstrip": false,
      "normalized": false,
      "special": true
    },
    {
      "id": 3,
      "content": "<s>",
      "single_word": false,
      "lstrip": false,
      "rstrip": false,
      "normalized": false,
      "special": true
    },
    {
      "id": 4,
      "content": "</s>",
      "single_word": false,
      "lstrip": false,
      "rstrip": false,
      "normalized": false,
      "special": true
    }
  ],
  "normalizer": null,
  "pre_tokenizer": {
    "type": "Whitespace"
  },
  "post_processor": null,
  "decoder": null,
  "model": {
    "type": "BPE",
    "dropout": null,
    "unk_token": "<unk>",
    "continuing_subword_prefix": null,
    "end_of_word_suffix": null,
    "fuse_unk": false,
    "vocab": {
      "<unk>": 0,
      "<pad>": 1,
      "<mask>": 2,
      "<s>": 3,
      "</s>": 4,
      "!": 5,
      "#": 6,
      "$": 7,
      "%": 8,
      "&": 9,
      "(": 10,
      ")": 11,
      "+": 12,
      ",": 13,
      "-": 14,
      ".": 15,
      "/": 16,
      "0": 17,
      "1": 18,
      "2": 19,
      "3": 20,
      "4": 21,
      "5": 22,
      "6": 23,
      "7": 24,
      "8": 25,
      "9": 26,
      ":": 27,
      ";": 28,
      "=": 29,
      "?": 30,
      "A": 31,
      "B": 32,
      "C": 33,
      "D": 34,
      "E": 35,
      "F": 36,
      "G": 37,
      "H": 38,
      "I": 39,
      "J": 40,
      "K": 41,
      "L": 42,
      "M": 43,
      "N": 44,
      "O": 45,
      "P": 46,
      "Q": 47,
      "R": 48,
      "S": 49,
      "T": 50,
      "U": 51,
      "V": 52,
      "W": 53,
      "X": 54,
      "Y": 55,
      "Z": 56,
      "\\": 57,
      "^": 58,
      "a": 59,
      "b": 60,
      "c": 61,
      "d": 62,
      "e": 63,
      "f": 64,
      "g": 65,
      "h": 66,
      "i": 67,
      "j": 68,
      "k": 69,
      "l": 70,
      "m": 71,
      "n": 72,
      "o": 73,
      "p": 74,
      "q": 75,
      "r": 76,
      "s": 77,
      "t": 78,
      "u": 79,
      "v": 80,
      "w": 81,
      "x": 82,
      "y": 83,
      "z": 84,
      "{": 85,
      "}": 86,
      "~": 87,
      "": 88,
      "": 89,
      "": 90,
      "": 91,
      "": 92,
      "": 93,
      "": 94,
      "": 95,
      "": 96,
      "": 97,
      "": 98,
      "": 99,
      "": 100,
      "": 101,
      "": 102,
      "": 103,
      "": 104,
      "": 105,
      "": 106,
      "": 107,
      "": 108,
      "": 109,
      "": 110,
      "": 111,
      "": 112,
      "¡": 113,
      "¢": 114,
      "£": 115,
      "¤": 116,
      "¥": 117,
      "¦": 118,
      "§": 119,
      "¨": 120,
      "©": 121,
      "ª": 122,
      "«": 123,
      "¬": 124,
      "­": 125,
      "®": 126,
      "¯": 127,
      "°": 128,
      "±": 129,
      "²": 130,
      "³": 131,
      "´": 132,
      "µ": 133,
      "¶": 134,
      "·": 135,
      "¸": 136,
      "¹": 137,
      "º": 138,
      "»": 139,
      "¼": 140,
      "½": 141,
      "¾": 142,
      "¿": 143,
      "À": 144,
      "Á": 145,
      "Â": 146,
      "Ã": 147,
      "Ä": 148,
      "Å": 149,
      "Æ": 150,
      "Ç": 151,
      "È": 152,
      "É": 153,
      "Ê": 154,
      "Ë": 155,
      "Ì": 156,
      "Í": 157,
      "Î": 158,
      "Ï": 159,
      "Ð": 160,
      "Ñ": 161,
      "Ò": 162,
      "Ó": 163,
      "Ô": 164,
      "Õ": 165,
      "Ö": 166,
      "×": 167,
      "Ø": 168,
      "Ù": 169,
      "Ú": 170,
      "Û": 171,
      "Ü": 172,
      "Ý": 173,
      "Þ": 174,
      "ß": 175,
      "à": 176,
      "á": 177,
      "â": 178,
      "ã": 179,
      "ä": 180,
      "å": 181,
      "æ": 182,
      "ç": 183,
      "è": 184,
      "é": 185,
      "ê": 186,
      "ë": 187,
      "ì": 188,
      "í": 189,
      "î": 190,
      "ï": 191,
      "ð": 192,
      "ñ": 193,
      "ò": 194,
      "ó": 195,
      "ô": 196,
      "õ": 197,
      "ö": 198,
      "÷": 199,
      "ø": 200,
      "ù": 201,
      "ú": 202,
      "û": 203,
      "ü": 204,
      "ý": 205,
      "þ": 206,
      "ÿ": 207,
      "Ā": 208,
      "ā": 209,
      "Ă": 210,
      "ă": 211,
      "Ą": 212,
      "ą": 213,
      "Ć": 214,
      "ć": 215,
      "Ĉ": 216,
      "ĉ": 217,
      "Ċ": 218,
      "Č": 219,
      "č": 220,
      "Ď": 221,
      "ď": 222,
      "Đ": 223,
      "đ": 224,
      "Ē": 225,
      "ē": 226,
      "ĕ": 227,
      "Ė": 228,
      "ė": 229,
      "Ę": 230,
      "ę": 231,
      "Ě": 232,
      "ě": 233,
      "ĝ": 234,
      "Ğ": 235,
      "ğ": 236,
      "Ġ": 237,
      "ġ": 238,
      "ģ": 239,
      "ĥ": 240,
      "Ħ": 241,
      "ħ": 242,
      "ĩ": 243,
      "Ī": 244,
      "ī": 245,
      "ĭ": 246,
      "į": 247,
      "İ": 248,
      "ı": 249,
      "ĵ": 250,
      "ķ": 251,
      "ĸ": 252,
      "ĺ": 253,
      "Ļ": 254,
      "ļ": 255,
      "Ľ": 256,
      "ľ": 257,
      "Ł": 258,
      "ł": 259,
      "Ń": 260,
      "ń": 261,
      "Ņ": 262,
      "ņ": 263,
      "Ň": 264,
      "ň": 265,
      "ŋ": 266,
      "Ō": 267,
      "ō": 268,
      "ŏ": 269,
      "Ő": 270,
      "ő": 271,
      "Œ": 272,
      "œ": 273,
      "ŕ": 274,
      "Ř": 275,
      "ř": 276,
      "Ś": 277,
      "ś": 278,
      "ŝ": 279,
      "Ş": 280,
      "ş": 281,
      "Š": 282,
      "š": 283,
      "Ţ": 284,
      "ţ": 285,
      "Ť": 286,
      "ť": 287,
      "ũ": 288,
      "Ū": 289,
      "ū": 290,
      "ŭ": 291,
      "Ů": 292,
      "ů": 293,
      "Ű": 294,
      "ű": 295,
      "ų": 296,
      "ŵ": 297,
      "ŷ": 298,
      "Ÿ": 299,
      "Ź": 300,
      "ź": 301,
      "Ż": 302,
      "ż": 303,
      "Ž": 304,
      "ž": 305,
      "ſ": 306,
      "Ɔ": 307,
      "Ƒ": 308,
      "ƒ": 309,
      "Ɠ": 310,
      "Ɩ": 311,
      "Ƙ": 312,
      "ƛ": 313,
      "Ɲ": 314,
      "Ơ": 315,
      "ơ": 316,
      "Ʀ": 317,
      "Ƭ": 318,
      "ư": 319,
      "ǎ": 320,
      "ǐ": 321,
      "ǒ": 322,
      "ǔ": 323,
      "ǟ": 324,
      "ǫ": 325,
      "Ǵ": 326,
      "ǵ": 327,
      "Ǻ": 328,
      "ș": 329,
      "ț": 330,
      "Ȥ": 331,
      "ɐ": 332,
      "ɑ": 333,
      "ɒ": 334,
      "ɔ": 335,
      "ɕ": 336,
      "ə": 337,
      "ɚ": 338,
      "ɛ": 339,
      "ɡ": 340,
      "ɣ": 341,
      "ɤ": 342,
      "ɨ": 343,
      "ɪ": 344,
      "ɫ": 345,
      "ɬ": 346,
      "ɴ": 347,
      "ɵ": 348,
      "ɹ": 349,
      "ɾ": 350,
      "ʀ": 351,
      "ʁ": 352,
      "ʃ": 353,
      "ʊ": 354,
      "ʋ": 355,
      "ʌ": 356,
      "ʐ": 357,
      "ʒ": 358,
      "ʔ": 359,
      "ʦ": 360,
      "ʲ": 361,
      "ʻ": 362,
      "ʼ": 363,
      "ʾ": 364,
      "ʿ": 365,
      "ˆ": 366,
      "ˈ": 367,
      "ˌ": 368,
      "ː": 369,
      "ˑ": 370,
      "˙": 371,
      "˚": 372,
      "˛": 373,
      "˜": 374,
      "˝": 375,
      "ˤ": 376,
      "̀": 377,
      "́": 378,
      "̂": 379,
      "̃": 380,
      "̄": 381,
      "̆": 382,
      "̇": 383,
      "̈": 384,
      "̍": 385,
      "̡": 386,
      "̣": 387,
      "̤": 388,
      "̧": 389,
      "̱": 390,
      "͘": 391,
      "͡": 392,
      "΄": 393,
      "Ά": 394,
      "Έ": 395,
      "Ό": 396,
      "Ώ": 397,
      "ΐ": 398,
      "Α": 399,
      "Β": 400,
      "Γ": 401,
      "Δ": 402,
      "Ε": 403,
      "Ζ": 404,
      "Η": 405,
      "Θ": 406,
      "Ι": 407,
      "Κ": 408,
      "Λ": 409,
      "Μ": 410,
      "Ν": 411,
      "Ο": 412,
      "Π": 413,
      "Ρ": 414,
      "Σ": 415,
      "Τ": 416,
      "Υ": 417,
      "Φ": 418,
      "Χ": 419,
      "Ω": 420,
      "ά": 421,
      "έ": 422,
      "ή": 423,
      "ί": 424,
      "α": 425,
      "β": 426,
      "γ": 427,
      "δ": 428,
      "ε": 429,
      "ζ": 430,
      "η": 431,
      "θ": 432,
      "ι": 433,
      "κ": 434,
      "λ": 435,
      "μ": 436,
      "ν": 437,
      "ξ": 438,
      "ο": 439,
      "π": 440,
      "ρ": 441,
      "ς": 442,
      "σ": 443,
      "τ": 444,
      "υ": 445,
      "φ": 446,
      "χ": 447,
      "ψ": 448,
      "ω": 449,
      "ϊ": 450,
      "ό": 451,
      "ύ": 452,
      "ώ": 453,
      "Ё": 454,
      "Ђ": 455,
      "Ѓ": 456,
      "Є": 457,
      "Ѕ": 458,
      "І": 459,
      "Ј": 460,
      "Љ": 461,
      "Њ": 462,
      "Ћ": 463,
      "Ќ": 464,
      "Ў": 465,
      "Џ": 466,
      "А": 467,
      "Б": 468,
      "В": 469,
      "Г": 470,
      "Д": 471,
      "Е": 472,
      "Ж": 473,
      "З": 474,
      "И": 475,
      "Й": 476,
      "К": 477,
      "Л": 478,
      "М": 479,
      "Н": 480,
      "О": 481,
      "П": 482,
      "Р": 483,
      "С": 484,
      "Т": 485,
      "У": 486,
      "Ф": 487,
      "Х": 488,
      "Ц": 489,
      "Ч": 490,
      "Ш": 491,
      "Щ": 492,
      "Ы": 493,
      "Ь": 494,
      "Э": 495,
      "Ю": 496,
      "Я": 497,
      "а": 498,
      "б": 499,
      "в": 500,
      "г": 501,
      "д": 502,
      "е": 503,
      "ж": 504,
      "з": 505,
      "и": 506,
      "й": 507,
      "к": 508,
      "л": 509,
      "м": 510,
      "н": 511,
      "о": 512,
      "п": 513,
      "р": 514,
      "с": 515,
      "т": 516,
      "у": 517,
      "ф": 518,
      "х": 519,
      "ц": 520,
      "ч": 521,
      "ш": 522,
      "щ": 523,
      "ъ": 524,
      "ы": 525,
      "ь": 526,
      "э": 527,
      "ю": 528,
      "я": 529,
      "ё": 530,
      "ђ": 531,
      "ѓ": 532,
      "є": 533,
      "ѕ": 534,
      "і": 535,
      "ї": 536,
      "ј": 537,
      "љ": 538,
      "њ": 539,
      "ћ": 540,
      "ќ": 541,
      "ў": 542,
      "Ѳ": 543,
      "ѳ": 544,
      "Ґ": 545,
      "ґ": 546,
      "ғ": 547,
      "ҙ": 548,
      "қ": 549,
      "Ҡ": 550,
      "ҡ": 551,
      "ң": 552,
      "ү": 553,
      "ұ": 554,
      "Ҳ": 555,
      "ҳ": 556,
      "һ": 557,
      "ә": 558,
      "ө": 559,
      "ְ": 560,
      "ֲ": 561,
      "ִ": 562,
      "ֵ": 563,
      "ֶ": 564,
      "ַ": 565,
      "ָ": 566,
      "ֹ": 567,
      "ּ": 568,
      "ֿ": 569,
      "ׁ": 570,
      "א": 571,
      "ב": 572,
      "ג": 573,
      "ד": 574,
      "ה": 575,
      "ו": 576,
      "ז": 577,
      "ח": 578,
      "ט": 579,
      "י": 580,
      "כ": 581,
      "ל": 582,
      "ם": 583,
      "מ": 584,
      "ן": 585,
      "נ": 586,
      "ס": 587,
      "ע": 588,
      "פ": 589,
      "ץ": 590,
      "צ": 591,
      "ק": 592,
      "ר": 593,
      "ש": 594,
      "ת": 595,
      "،": 596,
      "؛": 597,
      "ء": 598,
      "آ": 599,
      "أ": 600,
      "إ": 601,
      "ئ": 602,
      "ا": 603,
      "ب": 604,
      "ة": 605,
      "ت": 606,
      "ث": 607,
      "ج": 608,
      "ح": 609,
      "خ": 610,
      "د": 611,
      "ذ": 612,
      "ر": 613,
      "ز": 614,
      "س": 615,
      "ش": 616,
      "ص": 617,
      "ض": 618,
      "ط": 619,
      "ظ": 620,
      "ع": 621,
      "غ": 622,
      "ف": 623,
      "ق": 624,
      "ك": 625,
      "ل": 626,
      "م": 627,
      "ن": 628,
      "ه": 629,
      "و": 630,
      "ى": 631,
      "ي": 632,
      "ً": 633,
      "ٍ": 634,
      "َ": 635,
      "ُ": 636,
      "ِ": 637,
      "ّ": 638,
      "ْ": 639,
      "ٹ": 640,
      "ټ": 641,
      "پ": 642,
      "ځ": 643,
      "چ": 644,
      "ڠ": 645,
      "ڤ": 646,
      "ک": 647,
      "ڬ": 648,
      "ڭ": 649,
      "گ": 650,
      "ھ": 651,
      "ہ": 652,
      "ۂ": 653,
      "ۇ": 654,
      "ی": 655,
      "ې": 656,
      "ە": 657,
      "۞": 658,
      "۩": 659,
      "۰": 660,
      "۱": 661,
      "۲": 662,
      "۴": 663,
      "۵": 664,
      "۷": 665,
      "۸": 666,
      "۹": 667,
      "ߧ": 668,
      "अ": 669,
      "आ": 670,
      "ई": 671,
      "क": 672,
      "च": 673,
      "छ": 674,
      "ञ": 675,
      "ट": 676,
      "ण": 677,
      "त": 678,
      "थ": 679,
      "द": 680,
      "ध": 681,
      "न": 682,
      "प": 683,
      "ब": 684,
      "म": 685,
      "य": 686,
      "र": 687,
      "ल": 688,
      "व": 689,
      "श": 690,
      "ष": 691,
      "स": 692,
      "ह": 693,
      "ा": 694,
      "ि": 695,
      "ी": 696,
      "ु": 697,
      "े": 698,
      "ो": 699,
      "्": 700,
      "ॐ": 701,
      "०": 702,
      "१": 703,
      "५": 704,
      "९": 705,
      "ই": 706,
      "ক": 707,
      "গ": 708,
      "চ": 709,
      "ট": 710,
      "ত": 711,
      "ন": 712,
      "প": 713,
      "ব": 714,
      "ম": 715,
      "য": 716,
      "র": 717,
      "ল": 718,
      "হ": 719,
      "়": 720,
      "া": 721,
      "ি": 722,
      "ু": 723,
      "ো": 724,
      "্": 725,
      "ৰ": 726,
      "க": 727,
      "ங": 728,
      "ச": 729,
      "ட": 730,
      "த": 731,
      "ன": 732,
      "ப": 733,
      "ம": 734,
      "ய": 735,
      "ர": 736,
      "ல": 737,
      "வ": 738,
      "ஷ": 739,
      "ா": 740,
      "ி": 741,
      "ு": 742,
      "ூ": 743,
      "ெ": 744,
      "ை": 745,
      "ோ": 746,
      "்": 747,
      "ం": 748,
      "ఆ": 749,
      "క": 750,
      "గ": 751,
      "జ": 752,
      "డ": 753,
      "ద": 754,
      "ధ": 755,
      "న": 756,
      "ప": 757,
      "ర": 758,
      "శ": 759,
      "ా": 760,
      "ు": 761,
      "ే": 762,
      "ొ": 763,
      "్": 764,
      "ಐ": 765,
      "ಯ": 766,
      "ರ": 767,
      "ವ": 768,
      "ಶ": 769,
      "ಾ": 770,
      "ೈ": 771,
      "್": 772,
      "അ": 773,
      "ക": 774,
      "ത": 775,
      "ദ": 776,
      "ന": 777,
      "പ": 778,
      "മ": 779,
      "യ": 780,
      "ല": 781,
      "വ": 782,
      "ഷ": 783,
      "ി": 784,
      "ീ": 785,
      "ോ": 786,
      "്": 787,
      "ก": 788,
      "ข": 789,
      "ค": 790,
      "ง": 791,
      "จ": 792,
      "ช": 793,
      "ซ": 794,
      "ญ": 795,
      "ฎ": 796,
      "ฐ": 797,
      "ฑ": 798,
      "ฒ": 799,
      "ณ": 800,
      "ด": 801,
      "ต": 802,
      "ถ": 803,
      "ท": 804,
      "ธ": 805,
      "น": 806,
      "บ": 807,
      "ป": 808,
      "ผ": 809,
      "ฝ": 810,
      "พ": 811,
      "ฟ": 812,
      "ภ": 813,
      "ม": 814,
      "ย": 815,
      "ร": 816,
      "ฤ": 817,
      "ล": 818,
      "ว": 819,
      "ศ": 820,
      "ษ": 821,
      "ส": 822,
      "ห": 823,
      "อ": 824,
      "ะ": 825,
      "ั": 826,
      "า": 827,
      "ำ": 828,
      "ิ": 829,
      "ี": 830,
      "ึ": 831,
      "ื": 832,
      "ุ": 833,
      "ู": 834,
      "฿": 835,
      "เ": 836,
      "แ": 837,
      "โ": 838,
      "ใ": 839,
      "ไ": 840,
      "ๆ": 841,
      "็": 842,
      "่": 843,
      "้": 844,
      "๊": 845,
      "๋": 846,
      "์": 847,
      "๑": 848,
      "ຂ": 849,
      "ຄ": 850,
      "ງ": 851,
      "ຈ": 852,
      "ດ": 853,
      "ຖ": 854,
      "ນ": 855,
      "ບ": 856,
      "ມ": 857,
      "ລ": 858,
      "ວ": 859,
      "ັ": 860,
      "າ": 861,
      "ຸ": 862,
      "ົ": 863,
      "ຽ": 864,
      "ເ": 865,
      "້": 866,
      "ໜ": 867,
      "་": 868,
      "ཏ": 869,
      "ད": 870,
      "ན": 871,
      "བ": 872,
      "མ": 873,
      "ཚ": 874,
      "འ": 875,
      "ལ": 876,
      "ས": 877,
      "ཱ": 878,
      "ི": 879,
      "ོ": 880,
      "ྔ": 881,
      "ླ": 882,
      "န": 883,
      "ရ": 884,
      "ဝ": 885,
      "သ": 886,
      "ဟ": 887,
      "ေ": 888,
      "္": 889,
      "ა": 890,
      "ბ": 891,
      "გ": 892,
      "დ": 893,
      "ე": 894,
      "ვ": 895,
      "ზ": 896,
      "თ": 897,
      "ი": 898,
      "კ": 899,
      "ლ": 900,
      "მ": 901,
      "ნ": 902,
      "ო": 903,
      "პ": 904,
      "რ": 905,
      "ს": 906,
      "ტ": 907,
      "უ": 908,
      "ქ": 909,
      "ღ": 910,
      "შ": 911,
      "ც": 912,
      "ძ": 913,
      "წ": 914,
      "ხ": 915,
      "ჯ": 916,
      "ህ": 917,
      "ሊ": 918,
      "ል": 919,
      "ሓ": 920,
      "ሕ": 921,
      "መ": 922,
      "ሙ": 923,
      "ም": 924,
      "ሥ": 925,
      "ረ": 926,
      "ራ": 927,
      "ር": 928,
      "ሰ": 929,
      "ሴ": 930,
      "ሻ": 931,
      "ሽ": 932,
      "ቀ": 933,
      "ቐ": 934,
      "በ": 935,
      "ቢ": 936,
      "ባ": 937,
      "ተ": 938,
      "ት": 939,
      "ቶ": 940,
      "ነ": 941,
      "ን": 942,
      "አ": 943,
      "ኣ": 944,
      "እ": 945,
      "ኦ": 946,
      "ካ": 947,
      "ክ": 948,
      "ዋ": 949,
      "ው": 950,
      "ዓ": 951,
      "ዕ": 952,
      "የ": 953,
      "ይ": 954,
      "ደ": 955,
      "ዲ": 956,
      "ድ": 957,
      "ገ": 958,
      "ጋ": 959,
      "ጨ": 960,
      "ጽ": 961,
      "ፅ": 962,
      "ፈ": 963,
      "ፍ": 964,
      "፣": 965,
      "ᐃ": 966,
      "ᑦ": 967,
      "ᒃ": 968,
      "ᓄ": 969,
      "ḇ": 970,
      "ḏ": 971,
      "ḗ": 972,
      "Ḥ": 973,
      "ḥ": 974,
      "Ḫ": 975,
      "ḫ": 976,
      "ḳ": 977,
      "ṃ": 978,
      "ṇ": 979,
      "ṛ": 980,
      "ṭ": 981,
      "ṳ": 982,
      "ẋ": 983,
      "ạ": 984,
      "ả": 985,
      "ấ": 986,
      "ầ": 987,
      "ậ": 988,
      "ắ": 989,
      "ằ": 990,
      "Ẳ": 991,
      "ặ": 992,
      "ẻ": 993,
      "ẽ": 994,
      "ế": 995,
      "ề": 996,
      "ể": 997,
      "ễ": 998,
      "ệ": 999,
      "ỉ": 1000,
      "ị": 1001,
      "Ọ": 1002,
      "ọ": 1003,
      "ỏ": 1004,
      "ố": 1005,
      "ồ": 1006,
      "ổ": 1007,
      "ộ": 1008,
      "ớ": 1009,
      "ờ": 1010,
      "ỡ": 1011,
      "ợ": 1012,
      "ụ": 1013,
      "ủ": 1014,
      "ứ": 1015,
      "ừ": 1016,
      "ử": 1017,
      "ữ": 1018,
      "ự": 1019,
      "ỹ": 1020,
      "ἀ": 1021,
      "ἄ": 1022,
      "Ἀ": 1023,
      "ἐ": 1024,
      "ἑ": 1025,
      "Ἔ": 1026,
      "ἠ": 1027,
      "ἡ": 1028,
      "ἦ": 1029,
      "Ἡ": 1030,
      "ἰ": 1031,
      "Ἱ": 1032,
      "Ὑ": 1033,
      "ά": 1034,
      "ὶ": 1035,
      "ῆ": 1036,
      "ῖ": 1037,
      "ῥ": 1038,
      "​": 1039,
      "‌": 1040,
      "‎": 1041,
      "‏": 1042,
      "‐": 1043,
      "‑": 1044,
      "–": 1045,
      "—": 1046,
      "―": 1047,
      "‖": 1048,
      "‘": 1049,
      "’": 1050,
      "‚": 1051,
      "‛": 1052,
      "“": 1053,
      "”": 1054,
      "„": 1055,
      "‟": 1056,
      "†": 1057,
      "‡": 1058,
      "•": 1059,
      "…": 1060,
      "‰": 1061,
      "′": 1062,
      "″": 1063,
      "‶": 1064,
      "‹": 1065,
      "›": 1066,
      "※": 1067,
      "‼": 1068,
      "‽": 1069,
      "⁄": 1070,
      "ⁿ": 1071,
      "₁": 1072,
      "₂": 1073,
      "₠": 1074,
      "₣": 1075,
      "₤": 1076,
      "₩": 1077,
      "₪": 1078,
      "€": 1079,
      "₴": 1080,
      "₵": 1081,
      "⃛": 1082,
      "℃": 1083,
      "ℓ": 1084,
      "℔": 1085,
      "№": 1086,
      "™": 1087,
      "Ω": 1088,
      "℮": 1089,
      "⅓": 1090,
      "⅔": 1091,
      "⅛": 1092,
      "Ⅱ": 1093,
      "←": 1094,
      "↑": 1095,
      "→": 1096,
      "↓": 1097,
      "↔": 1098,
      "↧": 1099,
      "⇒": 1100,
      "⇔": 1101,
      "⇗": 1102,
      "⇢": 1103,
      "∀": 1104,
      "∃": 1105,
      "∈": 1106,
      "∑": 1107,
      "−": 1108,
      "√": 1109,
      "∞": 1110,
      "∴": 1111,
      "∶": 1112,
      "∼": 1113,
      "≈": 1114,
      "≠": 1115,
      "≡": 1116,
      "≤": 1117,
      "≥": 1118,
      "⋅": 1119,
      "⌃": 1120,
      "⌘": 1121,
      "①": 1122,
      "②": 1123,
      "③": 1124,
      "─": 1125,
      "│": 1126,
      "┌": 1127,
      "┐": 1128,
      "└": 1129,
      "┘": 1130,
      "┬": 1131,
      "┴": 1132,
      "╚": 1133,
      "╞": 1134,
      "╩": 1135,
      "█": 1136,
      "░": 1137,
      "▒": 1138,
      "■": 1139,
      "□": 1140,
      "▪": 1141,
      "▲": 1142,
      "▸": 1143,
      "►": 1144,
      "▼": 1145,
      "◆": 1146,
      "◇": 1147,
      "◈": 1148,
      "◊": 1149,
      "○": 1150,
      "◎": 1151,
      "●": 1152,
      "◙": 1153,
      "◦": 1154,
      "★": 1155,
      "☆": 1156,
      "☎": 1157,
      "☏": 1158,
      "☑": 1159,
      "☯": 1160,
      "☺": 1161,
      "☻": 1162,
      "☼": 1163,
      "♀": 1164,
      "♂": 1165,
      "♠": 1166,
      "♣": 1167,
      "♥": 1168,
      "♦": 1169,
      "♪": 1170,
      "♫": 1171,
      "✿": 1172,
      "➔": 1173,
      "➚": 1174,
      "➲": 1175,
      "Ⰶ": 1176,
      "、": 1177,
      "。": 1178,
      "々": 1179,
      "《": 1180,
      "》": 1181,
      "「": 1182,
      "」": 1183,
      "『": 1184,
      "』": 1185,
      "【": 1186,
      "】": 1187,
      "〔": 1188,
      "〕": 1189,
      "〜": 1190,
      "ぁ": 1191,
      "あ": 1192,
      "ぃ": 1193,
      "い": 1194,
      "う": 1195,
      "ぇ": 1196,
      "え": 1197,
      "お": 1198,
      "か": 1199,
      "が": 1200,
      "き": 1201,
      "ぎ": 1202,
      "く": 1203,
      "ぐ": 1204,
      "け": 1205,
      "げ": 1206,
      "こ": 1207,
      "ご": 1208,
      "さ": 1209,
      "ざ": 1210,
      "し": 1211,
      "じ": 1212,
      "す": 1213,
      "ず": 1214,
      "せ": 1215,
      "た": 1216,
      "だ": 1217,
      "ち": 1218,
      "ぢ": 1219,
      "っ": 1220,
      "つ": 1221,
      "づ": 1222,
      "て": 1223,
      "で": 1224,
      "と": 1225,
      "ど": 1226,
      "な": 1227,
      "に": 1228,
      "ね": 1229,
      "の": 1230,
      "は": 1231,
      "ば": 1232,
      "ひ": 1233,
      "び": 1234,
      "ふ": 1235,
      "ぶ": 1236,
      "ぷ": 1237,
      "へ": 1238,
      "べ": 1239,
      "ほ": 1240,
      "ぼ": 1241,
      "ま": 1242,
      "み": 1243,
      "む": 1244,
      "め": 1245,
      "も": 1246,
      "ゃ": 1247,
      "や": 1248,
      "ゅ": 1249,
      "ょ": 1250,
      "よ": 1251,
      "ら": 1252,
      "り": 1253,
      "る": 1254,
      "れ": 1255,
      "ろ": 1256,
      "わ": 1257,
      "ゐ": 1258,
      "ゑ": 1259,
      "を": 1260,
      "ん": 1261,
      "ゔ": 1262,
      "゛": 1263,
      "゜": 1264,
      "ァ": 1265,
      "ア": 1266,
      "ィ": 1267,
      "イ": 1268,
      "ゥ": 1269,
      "ウ": 1270,
      "ェ": 1271,
      "エ": 1272,
      "ォ": 1273,
      "オ": 1274,
      "カ": 1275,
      "ガ": 1276,
      "キ": 1277,
      "ク": 1278,
      "グ": 1279,
      "ケ": 1280,
      "ゲ": 1281,
      "コ": 1282,
      "ゴ": 1283,
      "サ": 1284,
      "ザ": 1285,
      "シ": 1286,
      "ジ": 1287,
      "ス": 1288,
      "ズ": 1289,
      "セ": 1290,
      "タ": 1291,
      "ダ": 1292,
      "チ": 1293,
      "ッ": 1294,
      "ツ": 1295,
      "テ": 1296,
      "デ": 1297,
      "ト": 1298,
      "ド": 1299,
      "ナ": 1300,
      "ニ": 1301,
      "ヌ": 1302,
      "ネ": 1303,
      "ノ": 1304,
      "ハ": 1305,
      "バ": 1306,
      "パ": 1307,
      "ヒ": 1308,
      "ビ": 1309,
      "ピ": 1310,
      "フ": 1311,
      "ブ": 1312,
      "プ": 1313,
      "ヘ": 1314,
      "ベ": 1315,
      "ペ": 1316,
      "ホ": 1317,
      "マ": 1318,
      "ミ": 1319,
      "ム": 1320,
      "メ": 1321,
      "モ": 1322,
      "ャ": 1323,
      "ュ": 1324,
      "ユ": 1325,
      "ョ": 1326,
      "ヨ": 1327,
      "ラ": 1328,
      "リ": 1329,
      "ル": 1330,
      "レ": 1331,
      "ロ": 1332,
      "ワ": 1333,
      "ン": 1334,
      "・": 1335,
      "ー": 1336,
      "ㄅ": 1337,
      "ㄆ": 1338,
      "ㄇ": 1339,
      "ㄈ": 1340,
      "ㄤ": 1341,
      "㎡": 1342,
      "一": 1343,
      "七": 1344,
      "万": 1345,
      "三": 1346,
      "上": 1347,
      "下": 1348,
      "不": 1349,
      "与": 1350,
      "专": 1351,
      "丘": 1352,
      "业": 1353,
      "东": 1354,
      "两": 1355,
      "丨": 1356,
      "个": 1357,
      "中": 1358,
      "临": 1359,
      "丸": 1360,
      "丹": 1361,
      "为": 1362,
      "主": 1363,
      "丽": 1364,
      "举": 1365,
      "久": 1366,
      "义": 1367,
      "之": 1368,
      "乌": 1369,
      "乎": 1370,
      "乏": 1371,
      "乐": 1372,
      "乗": 1373,
      "乘": 1374,
      "乙": 1375,
      "九": 1376,
      "也": 1377,
      "乡": 1378,
      "乱": 1379,
      "乾": 1380,
      "了": 1381,
      "争": 1382,
      "事": 1383,
      "二": 1384,
      "于": 1385,
      "云": 1386,
      "五": 1387,
      "井": 1388,
      "亚": 1389,
      "些": 1390,
      "亜": 1391,
      "交": 1392,
      "产": 1393,
      "京": 1394,
      "人": 1395,
      "亿": 1396,
      "什": 1397,
      "仁": 1398,
      "仅": 1399,
      "今": 1400,
      "介": 1401,
      "仍": 1402,
      "从": 1403,
      "付": 1404,
      "仙": 1405,
      "仝": 1406,
      "代": 1407,
      "以": 1408,
      "仪": 1409,
      "仮": 1410,
      "仲": 1411,
      "件": 1412,
      "价": 1413,
      "伊": 1414,
      "伏": 1415,
      "伐": 1416,
      "休": 1417,
      "众": 1418,
      "会": 1419,
      "伝": 1420,
      "伟": 1421,
      "传": 1422,
      "伯": 1423,
      "估": 1424,
      "伴": 1425,
      "伸": 1426,
      "但": 1427,
      "位": 1428,
      "低": 1429,
      "住": 1430,
      "佐": 1431,
      "佑": 1432,
      "体": 1433,
      "何": 1434,
      "余": 1435,
      "作": 1436,
      "你": 1437,
      "佰": 1438,
      "使": 1439,
      "侍": 1440,
      "依": 1441,
      "便": 1442,
      "俊": 1443,
      "保": 1444,
      "信": 1445,
      "修": 1446,
      "倉": 1447,
      "個": 1448,
      "倒": 1449,
      "值": 1450,
      "假": 1451,
      "做": 1452,
      "健": 1453,
      "側": 1454,
      "備": 1455,
      "储": 1456,
      "傳": 1457,
      "像": 1458,
      "儀": 1459,
      "元": 1460,
      "先": 1461,
      "光": 1462,
      "克": 1463,
      "免": 1464,
      "入": 1465,
      "內": 1466,
      "全": 1467,
      "兩": 1468,
      "八": 1469,
      "公": 1470,
      "六": 1471,
      "共": 1472,
      "关": 1473,
      "兴": 1474,
      "兵": 1475,
      "其": 1476,
      "具": 1477,
      "内": 1478,
      "円": 1479,
      "冊": 1480,
      "农": 1481,
      "冤": 1482,
      "冰": 1483,
      "决": 1484,
      "况": 1485,
      "冷": 1486,
      "净": 1487,
      "凄": 1488,
      "准": 1489,
      "减": 1490,
      "几": 1491,
      "出": 1492,
      "刀": 1493,
      "分": 1494,
      "切": 1495,
      "刑": 1496,
      "列": 1497,
      "刘": 1498,
      "则": 1499,
      "刚": 1500,
      "判": 1501,
      "別": 1502,
      "利": 1503,
      "别": 1504,
      "到": 1505,
      "制": 1506,
      "刺": 1507,
      "則": 1508,
      "前": 1509,
      "剑": 1510,
      "剣": 1511,
      "剥": 1512,
      "剧": 1513,
      "劇": 1514,
      "劉": 1515,
      "力": 1516,
      "功": 1517,
      "加": 1518,
      "务": 1519,
      "助": 1520,
      "動": 1521,
      "勝": 1522,
      "勞": 1523,
      "勢": 1524,
      "勿": 1525,
      "包": 1526,
      "化": 1527,
      "北": 1528,
      "匡": 1529,
      "区": 1530,
      "医": 1531,
      "匿": 1532,
      "區": 1533,
      "十": 1534,
      "千": 1535,
      "升": 1536,
      "半": 1537,
      "卍": 1538,
      "华": 1539,
      "协": 1540,
      "卐": 1541,
      "卓": 1542,
      "单": 1543,
      "卖": 1544,
      "南": 1545,
      "博": 1546,
      "卡": 1547,
      "卦": 1548,
      "印": 1549,
      "危": 1550,
      "即": 1551,
      "却": 1552,
      "厂": 1553,
      "原": 1554,
      "去": 1555,
      "参": 1556,
      "及": 1557,
      "友": 1558,
      "双": 1559,
      "反": 1560,
      "发": 1561,
      "取": 1562,
      "受": 1563,
      "变": 1564,
      "叡": 1565,
      "口": 1566,
      "古": 1567,
      "只": 1568,
      "叫": 1569,
      "可": 1570,
      "台": 1571,
      "史": 1572,
      "右": 1573,
      "号": 1574,
      "司": 1575,
      "吃": 1576,
      "合": 1577,
      "吉": 1578,
      "同": 1579,
      "名": 1580,
      "后": 1581,
      "向": 1582,
      "吗": 1583,
      "否": 1584,
      "吧": 1585,
      "含": 1586,
      "听": 1587,
      "吳": 1588,
      "吴": 1589,
      "吹": 1590,
      "吾": 1591,
      "呀": 1592,
      "呂": 1593,
      "呆": 1594,
      "呉": 1595,
      "告": 1596,
      "呑": 1597,
      "员": 1598,
      "周": 1599,
      "味": 1600,
      "呼": 1601,
      "命": 1602,
      "和": 1603,
      "咬": 1604,
      "哈": 1605,
      "哥": 1606,
      "唐": 1607,
      "售": 1608,
      "唸": 1609,
      "商": 1610,
      "問": 1611,
      "啦": 1612,
      "喂": 1613,
      "喇": 1614,
      "喜": 1615,
      "喫": 1616,
      "嘉": 1617,
      "嘛": 1618,
      "嘟": 1619,
      "噌": 1620,
      "噛": 1621,
      "器": 1622,
      "嚴": 1623,
      "四": 1624,
      "回": 1625,
      "囧": 1626,
      "园": 1627,
      "国": 1628,
      "图": 1629,
      "圆": 1630,
      "國": 1631,
      "圍": 1632,
      "園": 1633,
      "圓": 1634,
      "圖": 1635,
      "土": 1636,
      "在": 1637,
      "地": 1638,
      "圳": 1639,
      "场": 1640,
      "坂": 1641,
      "均": 1642,
      "坐": 1643,
      "块": 1644,
      "坝": 1645,
      "坡": 1646,
      "坤": 1647,
      "坪": 1648,
      "型": 1649,
      "垣": 1650,
      "城": 1651,
      "埔": 1652,
      "域": 1653,
      "基": 1654,
      "堂": 1655,
      "堆": 1656,
      "堤": 1657,
      "堰": 1658,
      "報": 1659,
      "場": 1660,
      "塊": 1661,
      "塗": 1662,
      "塩": 1663,
      "塾": 1664,
      "増": 1665,
      "壊": 1666,
      "士": 1667,
      "売": 1668,
      "壳": 1669,
      "壹": 1670,
      "壽": 1671,
      "处": 1672,
      "备": 1673,
      "変": 1674,
      "复": 1675,
      "夕": 1676,
      "外": 1677,
      "多": 1678,
      "夛": 1679,
      "夜": 1680,
      "夢": 1681,
      "大": 1682,
      "天": 1683,
      "太": 1684,
      "夫": 1685,
      "央": 1686,
      "头": 1687,
      "夷": 1688,
      "夹": 1689,
      "奇": 1690,
      "奈": 1691,
      "套": 1692,
      "奚": 1693,
      "女": 1694,
      "奶": 1695,
      "如": 1696,
      "妖": 1697,
      "妤": 1698,
      "妻": 1699,
      "始": 1700,
      "委": 1701,
      "威": 1702,
      "娃": 1703,
      "娣": 1704,
      "娱": 1705,
      "婁": 1706,
      "婦": 1707,
      "媛": 1708,
      "子": 1709,
      "字": 1710,
      "存": 1711,
      "季": 1712,
      "学": 1713,
      "學": 1714,
      "宁": 1715,
      "安": 1716,
      "完": 1717,
      "宏": 1718,
      "宗": 1719,
      "官": 1720,
      "定": 1721,
      "宜": 1722,
      "宝": 1723,
      "实": 1724,
      "実": 1725,
      "客": 1726,
      "宣": 1727,
      "室": 1728,
      "宫": 1729,
      "宮": 1730,
      "家": 1731,
      "容": 1732,
      "寄": 1733,
      "密": 1734,
      "寧": 1735,
      "寳": 1736,
      "寶": 1737,
      "寸": 1738,
      "对": 1739,
      "寺": 1740,
      "寿": 1741,
      "将": 1742,
      "小": 1743,
      "少": 1744,
      "尔": 1745,
      "尘": 1746,
      "就": 1747,
      "尽": 1748,
      "尾": 1749,
      "尿": 1750,
      "局": 1751,
      "居": 1752,
      "屈": 1753,
      "届": 1754,
      "屋": 1755,
      "屏": 1756,
      "展": 1757,
      "属": 1758,
      "屯": 1759,
      "山": 1760,
      "屿": 1761,
      "岐": 1762,
      "岗": 1763,
      "岡": 1764,
      "岩": 1765,
      "岭": 1766,
      "岳": 1767,
      "岸": 1768,
      "島": 1769,
      "峽": 1770,
      "崎": 1771,
      "崔": 1772,
      "崖": 1773,
      "崩": 1774,
      "嶺": 1775,
      "嶼": 1776,
      "川": 1777,
      "州": 1778,
      "工": 1779,
      "左": 1780,
      "巧": 1781,
      "巨": 1782,
      "己": 1783,
      "已": 1784,
      "巴": 1785,
      "巻": 1786,
      "市": 1787,
      "布": 1788,
      "师": 1789,
      "希": 1790,
      "帝": 1791,
      "帥": 1792,
      "帯": 1793,
      "常": 1794,
      "幌": 1795,
      "幡": 1796,
      "幣": 1797,
      "干": 1798,
      "平": 1799,
      "年": 1800,
      "并": 1801,
      "幸": 1802,
      "幹": 1803,
      "幾": 1804,
      "广": 1805,
      "庁": 1806,
      "広": 1807,
      "庄": 1808,
      "庆": 1809,
      "序": 1810,
      "库": 1811,
      "应": 1812,
      "底": 1813,
      "店": 1814,
      "庚": 1815,
      "府": 1816,
      "度": 1817,
      "庫": 1818,
      "庭": 1819,
      "康": 1820,
      "廃": 1821,
      "廣": 1822,
      "建": 1823,
      "开": 1824,
      "弁": 1825,
      "弄": 1826,
      "式": 1827,
      "弔": 1828,
      "引": 1829,
      "张": 1830,
      "張": 1831,
      "强": 1832,
      "当": 1833,
      "形": 1834,
      "彩": 1835,
      "役": 1836,
      "彻": 1837,
      "征": 1838,
      "待": 1839,
      "很": 1840,
      "律": 1841,
      "後": 1842,
      "徐": 1843,
      "徒": 1844,
      "得": 1845,
      "復": 1846,
      "微": 1847,
      "徳": 1848,
      "德": 1849,
      "徽": 1850,
      "心": 1851,
      "必": 1852,
      "志": 1853,
      "応": 1854,
      "忠": 1855,
      "快": 1856,
      "怒": 1857,
      "思": 1858,
      "怡": 1859,
      "急": 1860,
      "怪": 1861,
      "恋": 1862,
      "息": 1863,
      "悟": 1864,
      "您": 1865,
      "悩": 1866,
      "悬": 1867,
      "情": 1868,
      "惠": 1869,
      "惧": 1870,
      "想": 1871,
      "意": 1872,
      "愛": 1873,
      "慈": 1874,
      "態": 1875,
      "慎": 1876,
      "慢": 1877,
      "慣": 1878,
      "慶": 1879,
      "憨": 1880,
      "憩": 1881,
      "憶": 1882,
      "憾": 1883,
      "應": 1884,
      "成": 1885,
      "我": 1886,
      "戒": 1887,
      "或": 1888,
      "截": 1889,
      "戴": 1890,
      "戸": 1891,
      "戻": 1892,
      "所": 1893,
      "扈": 1894,
      "手": 1895,
      "才": 1896,
      "打": 1897,
      "払": 1898,
      "找": 1899,
      "承": 1900,
      "技": 1901,
      "投": 1902,
      "折": 1903,
      "抜": 1904,
      "护": 1905,
      "报": 1906,
      "抹": 1907,
      "押": 1908,
      "担": 1909,
      "拉": 1910,
      "拒": 1911,
      "拓": 1912,
      "招": 1913,
      "拟": 1914,
      "择": 1915,
      "括": 1916,
      "拳": 1917,
      "拼": 1918,
      "拿": 1919,
      "持": 1920,
      "按": 1921,
      "挡": 1922,
      "振": 1923,
      "据": 1924,
      "捷": 1925,
      "排": 1926,
      "掛": 1927,
      "採": 1928,
      "探": 1929,
      "接": 1930,
      "控": 1931,
      "推": 1932,
      "掻": 1933,
      "揂": 1934,
      "揃": 1935,
      "提": 1936,
      "揚": 1937,
      "換": 1938,
      "握": 1939,
      "援": 1940,
      "搅": 1941,
      "損": 1942,
      "搞": 1943,
      "携": 1944,
      "摂": 1945,
      "摇": 1946,
      "摩": 1947,
      "撤": 1948,
      "撫": 1949,
      "撮": 1950,
      "操": 1951,
      "支": 1952,
      "收": 1953,
      "改": 1954,
      "攻": 1955,
      "放": 1956,
      "政": 1957,
      "故": 1958,
      "敏": 1959,
      "救": 1960,
      "教": 1961,
      "散": 1962,
      "敬": 1963,
      "数": 1964,
      "整": 1965,
      "文": 1966,
      "斗": 1967,
      "料": 1968,
      "斯": 1969,
      "新": 1970,
      "方": 1971,
      "施": 1972,
      "旅": 1973,
      "族": 1974,
      "无": 1975,
      "日": 1976,
      "旧": 1977,
      "旭": 1978,
      "时": 1979,
      "昌": 1980,
      "明": 1981,
      "易": 1982,
      "星": 1983,
      "春": 1984,
      "昭": 1985,
      "是": 1986,
      "显": 1987,
      "時": 1988,
      "晏": 1989,
      "晨": 1990,
      "普": 1991,
      "景": 1992,
      "智": 1993,
      "暨": 1994,
      "暫": 1995,
      "曌": 1996,
      "更": 1997,
      "書": 1998,
      "曹": 1999,
      "曾": 2000,
      "最": 2001,
      "月": 2002,
      "有": 2003,
      "朔": 2004,
      "朗": 2005,
      "望": 2006,
      "朝": 2007,
      "期": 2008,
      "木": 2009,
      "本": 2010,
      "札": 2011,
      "术": 2012,
      "朱": 2013,
      "机": 2014,
      "李": 2015,
      "杏": 2016,
      "材": 2017,
      "村": 2018,
      "条": 2019,
      "来": 2020,
      "杨": 2021,
      "杭": 2022,
      "東": 2023,
      "松": 2024,
      "板": 2025,
      "构": 2026,
      "析": 2027,
      "林": 2028,
      "果": 2029,
      "枡": 2030,
      "架": 2031,
      "染": 2032,
      "柔": 2033,
      "查": 2034,
      "柱": 2035,
      "柴": 2036,
      "校": 2037,
      "株": 2038,
      "根": 2039,
      "格": 2040,
      "栽": 2041,
      "桃": 2042,
      "框": 2043,
      "案": 2044,
      "桜": 2045,
      "桥": 2046,
      "桩": 2047,
      "桶": 2048,
      "梁": 2049,
      "梅": 2050,
      "检": 2051,
      "棲": 2052,
      "植": 2053,
      "検": 2054,
      "楠": 2055,
      "業": 2056,
      "極": 2057,
      "楼": 2058,
      "楽": 2059,
      "樓": 2060,
      "標": 2061,
      "模": 2062,
      "横": 2063,
      "樹": 2064,
      "橋": 2065,
      "機": 2066,
      "檀": 2067,
      "次": 2068,
      "欢": 2069,
      "款": 2070,
      "歌": 2071,
      "止": 2072,
      "正": 2073,
      "此": 2074,
      "步": 2075,
      "武": 2076,
      "歩": 2077,
      "歸": 2078,
      "死": 2079,
      "殊": 2080,
      "段": 2081,
      "殻": 2082,
      "母": 2083,
      "毎": 2084,
      "每": 2085,
      "毓": 2086,
      "比": 2087,
      "毛": 2088,
      "氏": 2089,
      "民": 2090,
      "气": 2091,
      "気": 2092,
      "氣": 2093,
      "水": 2094,
      "永": 2095,
      "汁": 2096,
      "求": 2097,
      "汇": 2098,
      "汉": 2099,
      "江": 2100,
      "池": 2101,
      "汴": 2102,
      "決": 2103,
      "沈": 2104,
      "沙": 2105,
      "沛": 2106,
      "没": 2107,
      "沢": 2108,
      "沪": 2109,
      "油": 2110,
      "治": 2111,
      "沿": 2112,
      "況": 2113,
      "泉": 2114,
      "泊": 2115,
      "法": 2116,
      "波": 2117,
      "泥": 2118,
      "注": 2119,
      "泰": 2120,
      "洋": 2121,
      "洗": 2122,
      "洛": 2123,
      "洞": 2124,
      "洪": 2125,
      "派": 2126,
      "流": 2127,
      "测": 2128,
      "济": 2129,
      "浙": 2130,
      "浜": 2131,
      "浦": 2132,
      "浮": 2133,
      "浴": 2134,
      "海": 2135,
      "消": 2136,
      "深": 2137,
      "混": 2138,
      "淹": 2139,
      "清": 2140,
      "済": 2141,
      "渋": 2142,
      "渝": 2143,
      "渡": 2144,
      "温": 2145,
      "港": 2146,
      "渲": 2147,
      "湖": 2148,
      "湘": 2149,
      "湯": 2150,
      "湾": 2151,
      "満": 2152,
      "溜": 2153,
      "溝": 2154,
      "溢": 2155,
      "溥": 2156,
      "溪": 2157,
      "滇": 2158,
      "滞": 2159,
      "滨": 2160,
      "漢": 2161,
      "漫": 2162,
      "潢": 2163,
      "潭": 2164,
      "潮": 2165,
      "澄": 2166,
      "澎": 2167,
      "澤": 2168,
      "澳": 2169,
      "濟": 2170,
      "濱": 2171,
      "灣": 2172,
      "火": 2173,
      "灯": 2174,
      "灰": 2175,
      "灾": 2176,
      "炎": 2177,
      "炯": 2178,
      "点": 2179,
      "為": 2180,
      "烈": 2181,
      "烏": 2182,
      "烧": 2183,
      "热": 2184,
      "無": 2185,
      "然": 2186,
      "焼": 2187,
      "煙": 2188,
      "照": 2189,
      "煩": 2190,
      "煮": 2191,
      "熊": 2192,
      "熟": 2193,
      "熨": 2194,
      "熱": 2195,
      "燕": 2196,
      "燗": 2197,
      "爛": 2198,
      "爪": 2199,
      "爱": 2200,
      "父": 2201,
      "爻": 2202,
      "爾": 2203,
      "片": 2204,
      "牌": 2205,
      "牙": 2206,
      "牛": 2207,
      "物": 2208,
      "特": 2209,
      "状": 2210,
      "独": 2211,
      "献": 2212,
      "玄": 2213,
      "玉": 2214,
      "王": 2215,
      "环": 2216,
      "珈": 2217,
      "珍": 2218,
      "珠": 2219,
      "球": 2220,
      "理": 2221,
      "琢": 2222,
      "琲": 2223,
      "璐": 2224,
      "環": 2225,
      "瓊": 2226,
      "瓶": 2227,
      "甜": 2228,
      "生": 2229,
      "用": 2230,
      "田": 2231,
      "申": 2232,
      "电": 2233,
      "男": 2234,
      "町": 2235,
      "画": 2236,
      "留": 2237,
      "畿": 2238,
      "疆": 2239,
      "疗": 2240,
      "疫": 2241,
      "病": 2242,
      "痛": 2243,
      "痴": 2244,
      "癌": 2245,
      "発": 2246,
      "登": 2247,
      "白": 2248,
      "百": 2249,
      "的": 2250,
      "皇": 2251,
      "皮": 2252,
      "盆": 2253,
      "益": 2254,
      "监": 2255,
      "盛": 2256,
      "監": 2257,
      "盧": 2258,
      "目": 2259,
      "直": 2260,
      "相": 2261,
      "省": 2262,
      "看": 2263,
      "県": 2264,
      "真": 2265,
      "眩": 2266,
      "眼": 2267,
      "着": 2268,
      "睛": 2269,
      "瞎": 2270,
      "瞻": 2271,
      "知": 2272,
      "石": 2273,
      "码": 2274,
      "砂": 2275,
      "破": 2276,
      "确": 2277,
      "碁": 2278,
      "碧": 2279,
      "磁": 2280,
      "磨": 2281,
      "示": 2282,
      "礼": 2283,
      "社": 2284,
      "祖": 2285,
      "神": 2286,
      "票": 2287,
      "祭": 2288,
      "祸": 2289,
      "祿": 2290,
      "禁": 2291,
      "禅": 2292,
      "福": 2293,
      "禪": 2294,
      "禹": 2295,
      "秀": 2296,
      "私": 2297,
      "秉": 2298,
      "秋": 2299,
      "种": 2300,
      "科": 2301,
      "租": 2302,
      "秦": 2303,
      "积": 2304,
      "称": 2305,
      "移": 2306,
      "稅": 2307,
      "程": 2308,
      "税": 2309,
      "稲": 2310,
      "稼": 2311,
      "稿": 2312,
      "空": 2313,
      "立": 2314,
      "站": 2315,
      "章": 2316,
      "竹": 2317,
      "第": 2318,
      "筆": 2319,
      "等": 2320,
      "筑": 2321,
      "答": 2322,
      "签": 2323,
      "简": 2324,
      "箍": 2325,
      "箕": 2326,
      "管": 2327,
      "箱": 2328,
      "節": 2329,
      "簡": 2330,
      "米": 2331,
      "粉": 2332,
      "粤": 2333,
      "粵": 2334,
      "精": 2335,
      "糖": 2336,
      "系": 2337,
      "紂": 2338,
      "紅": 2339,
      "紋": 2340,
      "納": 2341,
      "純": 2342,
      "紙": 2343,
      "級": 2344,
      "素": 2345,
      "索": 2346,
      "紧": 2347,
      "細": 2348,
      "紹": 2349,
      "終": 2350,
      "経": 2351,
      "絞": 2352,
      "統": 2353,
      "經": 2354,
      "継": 2355,
      "続": 2356,
      "網": 2357,
      "総": 2358,
      "線": 2359,
      "縣": 2360,
      "繁": 2361,
      "織": 2362,
      "红": 2363,
      "约": 2364,
      "纽": 2365,
      "线": 2366,
      "细": 2367,
      "终": 2368,
      "绍": 2369,
      "经": 2370,
      "绝": 2371,
      "统": 2372,
      "绪": 2373,
      "维": 2374,
      "网": 2375,
      "罗": 2376,
      "罪": 2377,
      "置": 2378,
      "署": 2379,
      "羅": 2380,
      "美": 2381,
      "群": 2382,
      "義": 2383,
      "羲": 2384,
      "羽": 2385,
      "翁": 2386,
      "習": 2387,
      "翻": 2388,
      "耀": 2389,
      "老": 2390,
      "考": 2391,
      "者": 2392,
      "而": 2393,
      "耐": 2394,
      "耳": 2395,
      "耶": 2396,
      "联": 2397,
      "聖": 2398,
      "聞": 2399,
      "聼": 2400,
      "肉": 2401,
      "股": 2402,
      "育": 2403,
      "背": 2404,
      "胞": 2405,
      "胡": 2406,
      "能": 2407,
      "脑": 2408,
      "脖": 2409,
      "脚": 2410,
      "脱": 2411,
      "腔": 2412,
      "腹": 2413,
      "膚": 2414,
      "臂": 2415,
      "臓": 2416,
      "臣": 2417,
      "臨": 2418,
      "自": 2419,
      "至": 2420,
      "致": 2421,
      "臺": 2422,
      "興": 2423,
      "舊": 2424,
      "舞": 2425,
      "航": 2426,
      "舫": 2427,
      "般": 2428,
      "艮": 2429,
      "良": 2430,
      "色": 2431,
      "艳": 2432,
      "节": 2433,
      "芋": 2434,
      "芝": 2435,
      "芦": 2436,
      "花": 2437,
      "若": 2438,
      "英": 2439,
      "茂": 2440,
      "茜": 2441,
      "茨": 2442,
      "茶": 2443,
      "草": 2444,
      "荣": 2445,
      "荷": 2446,
      "莨": 2447,
      "莲": 2448,
      "获": 2449,
      "莹": 2450,
      "菜": 2451,
      "菩": 2452,
      "華": 2453,
      "萬": 2454,
      "葉": 2455,
      "董": 2456,
      "蒋": 2457,
      "蒸": 2458,
      "蓟": 2459,
      "蓮": 2460,
      "蔓": 2461,
      "蔚": 2462,
      "蔣": 2463,
      "蕭": 2464,
      "薊": 2465,
      "藍": 2466,
      "藏": 2467,
      "藕": 2468,
      "藤": 2469,
      "蘇": 2470,
      "虑": 2471,
      "號": 2472,
      "蛋": 2473,
      "螨": 2474,
      "螳": 2475,
      "血": 2476,
      "衆": 2477,
      "行": 2478,
      "術": 2479,
      "街": 2480,
      "衡": 2481,
      "表": 2482,
      "裂": 2483,
      "装": 2484,
      "裕": 2485,
      "製": 2486,
      "西": 2487,
      "要": 2488,
      "見": 2489,
      "覧": 2490,
      "親": 2491,
      "観": 2492,
      "见": 2493,
      "视": 2494,
      "角": 2495,
      "解": 2496,
      "言": 2497,
      "訃": 2498,
      "訊": 2499,
      "討": 2500,
      "訓": 2501,
      "記": 2502,
      "設": 2503,
      "許": 2504,
      "訳": 2505,
      "試": 2506,
      "詩": 2507,
      "詰": 2508,
      "話": 2509,
      "詳": 2510,
      "詹": 2511,
      "語": 2512,
      "說": 2513,
      "説": 2514,
      "読": 2515,
      "調": 2516,
      "談": 2517,
      "請": 2518,
      "論": 2519,
      "警": 2520,
      "譯": 2521,
      "護": 2522,
      "讃": 2523,
      "變": 2524,
      "计": 2525,
      "讨": 2526,
      "议": 2527,
      "讯": 2528,
      "许": 2529,
      "论": 2530,
      "讼": 2531,
      "设": 2532,
      "证": 2533,
      "评": 2534,
      "识": 2535,
      "诉": 2536,
      "试": 2537,
      "该": 2538,
      "详": 2539,
      "语": 2540,
      "说": 2541,
      "请": 2542,
      "调": 2543,
      "谈": 2544,
      "谋": 2545,
      "谢": 2546,
      "谷": 2547,
      "豆": 2548,
      "豊": 2549,
      "豐": 2550,
      "豫": 2551,
      "貌": 2552,
      "負": 2553,
      "財": 2554,
      "貢": 2555,
      "販": 2556,
      "貮": 2557,
      "貰": 2558,
      "貸": 2559,
      "費": 2560,
      "賀": 2561,
      "資": 2562,
      "賈": 2563,
      "賢": 2564,
      "贊": 2565,
      "贞": 2566,
      "货": 2567,
      "购": 2568,
      "贱": 2569,
      "贷": 2570,
      "资": 2571,
      "赌": 2572,
      "赖": 2573,
      "赛": 2574,
      "赤": 2575,
      "赵": 2576,
      "赶": 2577,
      "起": 2578,
      "超": 2579,
      "越": 2580,
      "足": 2581,
      "跆": 2582,
      "跋": 2583,
      "跨": 2584,
      "路": 2585,
      "蹟": 2586,
      "躇": 2587,
      "躊": 2588,
      "身": 2589,
      "車": 2590,
      "転": 2591,
      "較": 2592,
      "載": 2593,
      "輪": 2594,
      "车": 2595,
      "转": 2596,
      "载": 2597,
      "较": 2598,
      "辛": 2599,
      "辞": 2600,
      "辭": 2601,
      "辱": 2602,
      "農": 2603,
      "込": 2604,
      "达": 2605,
      "迅": 2606,
      "过": 2607,
      "迎": 2608,
      "近": 2609,
      "返": 2610,
      "这": 2611,
      "进": 2612,
      "述": 2613,
      "送": 2614,
      "适": 2615,
      "逃": 2616,
      "选": 2617,
      "透": 2618,
      "途": 2619,
      "通": 2620,
      "速": 2621,
      "造": 2622,
      "逢": 2623,
      "連": 2624,
      "逸": 2625,
      "遇": 2626,
      "運": 2627,
      "過": 2628,
      "道": 2629,
      "達": 2630,
      "遗": 2631,
      "遠": 2632,
      "適": 2633,
      "遷": 2634,
      "遽": 2635,
      "還": 2636,
      "邊": 2637,
      "邑": 2638,
      "那": 2639,
      "邱": 2640,
      "郎": 2641,
      "郑": 2642,
      "郝": 2643,
      "郡": 2644,
      "部": 2645,
      "郷": 2646,
      "都": 2647,
      "鄂": 2648,
      "鄭": 2649,
      "配": 2650,
      "酎": 2651,
      "酒": 2652,
      "采": 2653,
      "釉": 2654,
      "里": 2655,
      "重": 2656,
      "野": 2657,
      "量": 2658,
      "金": 2659,
      "釣": 2660,
      "鈴": 2661,
      "鉄": 2662,
      "鉋": 2663,
      "銀": 2664,
      "銭": 2665,
      "録": 2666,
      "鍋": 2667,
      "鎚": 2668,
      "鏡": 2669,
      "鐵": 2670,
      "针": 2671,
      "钟": 2672,
      "钢": 2673,
      "钦": 2674,
      "钧": 2675,
      "钱": 2676,
      "铁": 2677,
      "铭": 2678,
      "银": 2679,
      "销": 2680,
      "锈": 2681,
      "锋": 2682,
      "锦": 2683,
      "键": 2684,
      "長": 2685,
      "长": 2686,
      "門": 2687,
      "開": 2688,
      "間": 2689,
      "関": 2690,
      "閥": 2691,
      "關": 2692,
      "门": 2693,
      "问": 2694,
      "阪": 2695,
      "防": 2696,
      "阳": 2697,
      "阶": 2698,
      "阿": 2699,
      "陀": 2700,
      "际": 2701,
      "陈": 2702,
      "降": 2703,
      "限": 2704,
      "院": 2705,
      "除": 2706,
      "陰": 2707,
      "陳": 2708,
      "陵": 2709,
      "陶": 2710,
      "陽": 2711,
      "隆": 2712,
      "隊": 2713,
      "際": 2714,
      "难": 2715,
      "雄": 2716,
      "雙": 2717,
      "雛": 2718,
      "難": 2719,
      "雨": 2720,
      "雪": 2721,
      "雲": 2722,
      "雷": 2723,
      "電": 2724,
      "需": 2725,
      "霊": 2726,
      "霖": 2727,
      "霜": 2728,
      "露": 2729,
      "青": 2730,
      "静": 2731,
      "非": 2732,
      "面": 2733,
      "革": 2734,
      "靳": 2735,
      "韓": 2736,
      "音": 2737,
      "韻": 2738,
      "頂": 2739,
      "項": 2740,
      "順": 2741,
      "須": 2742,
      "頑": 2743,
      "領": 2744,
      "頭": 2745,
      "題": 2746,
      "顯": 2747,
      "页": 2748,
      "顾": 2749,
      "预": 2750,
      "颐": 2751,
      "颖": 2752,
      "题": 2753,
      "颜": 2754,
      "额": 2755,
      "風": 2756,
      "风": 2757,
      "飛": 2758,
      "食": 2759,
      "飲": 2760,
      "飼": 2761,
      "館": 2762,
      "馆": 2763,
      "香": 2764,
      "馬": 2765,
      "駄": 2766,
      "駅": 2767,
      "騙": 2768,
      "騜": 2769,
      "驗": 2770,
      "马": 2771,
      "验": 2772,
      "骨": 2773,
      "體": 2774,
      "高": 2775,
      "鬼": 2776,
      "鮨": 2777,
      "鮮": 2778,
      "鯨": 2779,
      "鱲": 2780,
      "鳩": 2781,
      "鵜": 2782,
      "鷹": 2783,
      "鸡": 2784,
      "鸭": 2785,
      "鸯": 2786,
      "鸳": 2787,
      "鹅": 2788,
      "麗": 2789,
      "麩": 2790,
      "黃": 2791,
      "黄": 2792,
      "黎": 2793,
      "黒": 2794,
      "點": 2795,
      "黨": 2796,
      "鼻": 2797,
      "齋": 2798,
      "龍": 2799,
      "龙": 2800,
      "겜": 2801,
      "경": 2802,
      "계": 2803,
      "고": 2804,
      "곡": 2805,
      "구": 2806,
      "국": 2807,
      "권": 2808,
      "글": 2809,
      "김": 2810,
      "뀌": 2811,
      "나": 2812,
      "녀": 2813,
      "년": 2814,
      "노": 2815,
      "누": 2816,
      "는": 2817,
      "니": 2818,
      "닌": 2819,
      "다": 2820,
      "단": 2821,
      "대": 2822,
      "도": 2823,
      "동": 2824,
      "드": 2825,
      "디": 2826,
      "딘": 2827,
      "딩": 2828,
      "라": 2829,
      "레": 2830,
      "려": 2831,
      "령": 2832,
      "로": 2833,
      "루": 2834,
      "르": 2835,
      "린": 2836,
      "마": 2837,
      "막": 2838,
      "맨": 2839,
      "면": 2840,
      "목": 2841,
      "무": 2842,
      "문": 2843,
      "미": 2844,
      "바": 2845,
      "백": 2846,
      "뱅": 2847,
      "번": 2848,
      "벌": 2849,
      "베": 2850,
      "변": 2851,
      "보": 2852,
      "블": 2853,
      "빅": 2854,
      "빌": 2855,
      "사": 2856,
      "산": 2857,
      "서": 2858,
      "선": 2859,
      "성": 2860,
      "세": 2861,
      "셀": 2862,
      "셔": 2863,
      "수": 2864,
      "스": 2865,
      "습": 2866,
      "승": 2867,
      "시": 2868,
      "신": 2869,
      "싱": 2870,
      "알": 2871,
      "압": 2872,
      "야": 2873,
      "양": 2874,
      "어": 2875,
      "었": 2876,
      "에": 2877,
      "영": 2878,
      "오": 2879,
      "요": 2880,
      "울": 2881,
      "웅": 2882,
      "워": 2883,
      "월": 2884,
      "웨": 2885,
      "위": 2886,
      "유": 2887,
      "율": 2888,
      "으": 2889,
      "을": 2890,
      "읍": 2891,
      "이": 2892,
      "인": 2893,
      "일": 2894,
      "전": 2895,
      "정": 2896,
      "제": 2897,
      "조": 2898,
      "종": 2899,
      "주": 2900,
      "지": 2901,
      "천": 2902,
      "체": 2903,
      "충": 2904,
      "치": 2905,
      "클": 2906,
      "키": 2907,
      "태": 2908,
      "터": 2909,
      "턴": 2910,
      "퇴": 2911,
      "트": 2912,
      "티": 2913,
      "퍼": 2914,
      "피": 2915,
      "한": 2916,
      "호": 2917,
      "": 2918,
      "": 2919,
      "": 2920,
      "": 2921,
      "": 2922,
      "": 2923,
      "": 2924,
      "": 2925,
      "": 2926,
      "": 2927,
      "": 2928,
      "": 2929,
      "": 2930,
      "": 2931,
      "": 2932,
      "": 2933,
      "": 2934,
      "金": 2935,
      "ﬁ": 2936,
      "ﬂ": 2937,
      "︰": 2938,
      "ﺍ": 2939,
      "ﺏ": 2940,
      "ﺤ": 2941,
      "ﺩ": 2942,
      "ﻁ": 2943,
      "ﻙ": 2944,
      "ﻫ": 2945,
      "﻿": 2946,
      "！": 2947,
      "＄": 2948,
      "（": 2949,
      "）": 2950,
      "＊": 2951,
      "，": 2952,
      "－": 2953,
      "．": 2954,
      "１": 2955,
      "２": 2956,
      "７": 2957,
      "９": 2958,
      "：": 2959,
      "；": 2960,
      "？": 2961,
      "Ｉ": 2962,
      "Ｐ": 2963,
      "Ｓ": 2964,
      "Ｖ": 2965,
      "［": 2966,
      "］": 2967,
      "ｂ": 2968,
      "ｄ": 2969,
      "ｅ": 2970,
      "ｈ": 2971,
      "ｌ": 2972,
      "ｏ": 2973,
      "ｓ": 2974,
      "ｕ": 2975,
      "､": 2976,
      "･": 2977,
      "ｫ": 2978,
      "ｻ": 2979,
      "ｿ": 2980,
      "￠": 2981,
      "￥": 2982,
      "￼": 2983,
      "�": 2984,
      "th": 2985,
      "in": 2986,
      "the": 2987,
      "an": 2988,
      "re": 2989,
      "on": 2990,
      "at": 2991,
      "er": 2992,
      "en": 2993,
      "is": 2994,
      "or": 2995,
      "al": 2996,
      "es": 2997,
      "ou": 2998,
      "of": 2999,
      "to": 3000,
      "and": 3001,
      "ion": 3002,
      "it": 3003,
      "##": 3004,
      "ar": 3005,
      "ed": 3006,
      "ing": 3007,
      "as": 3008,
      "ic": 3009,
      "ro": 3010,
      "st": 3011,
      "ent": 3012,
      "le": 3013,
      "om": 3014,
      "il": 3015,
      "el": 3016,
      "AT": 3017,
      "ct": 3018,
      "for": 3019,
      "be": 3020,
      "se": 3021,
      "he": 3022,
      "ot": 3023,
      "ve": 3024,
      "ation": 3025,
      "po": 3026,
      "de": 3027,
      "ch": 3028,
      "ly": 3029,
      "that": 3030,
      "am": 3031,
      "pe": 3032,
      "con": 3033,
      "pro": 3034,
      "are": 3035,
      "im": 3036,
      "su": 3037,
      "ce": 3038,
      "we": 3039,
      "our": 3040,
      "ad": 3041,
      "res": 3042,
      "wh": 3043,
      "wi": 3044,
      "ver": 3045,
      "ig": 3046,
      "ment": 3047,
      "un": 3048,
      "ut": 3049,
      "with": 3050,
      "ab": 3051,
      "com": 3052,
      "tr": 3053,
      "ur": 3054,
      "lo": 3055,
      "The": 3056,
      "ag": 3057,
      "id": 3058,
      "qu": 3059,
      "-##": 3060,
      "##-##": 3061,
      "ter": 3062,
      "pos": 3063,
      "ay": 3064,
      "us": 3065,
      "ir": 3066,
      "ol": 3067,
      "et": 3068,
      "ul": 3069,
      "ac": 3070,
      "op": 3071,
      "ex": 3072,
      "ill": 3073,
      "ort": 3074,
      "ha": 3075,
      "mo": 3076,
      "ies": 3077,
      "ne": 3078,
      "oun": 3079,
      "this": 3080,
      "all": 3081,
      "em": 3082,
      "ers": 3083,
      "ld": 3084,
      "ow": 3085,
      "not": 3086,
      "ity": 3087,
      "so": 3088,
      "ess": 3089,
      "ate": 3090,
      "port": 3091,
      "li": 3092,
      "ain": 3093,
      "ap": 3094,
      "by": 3095,
      "te": 3096,
      "est": 3097,
      "ke": 3098,
      "have": 3099,
      "if": 3100,
      "ich": 3101,
      "sh": 3102,
      "art": 3103,
      "ant": 3104,
      "you": 3105,
      "igh": 3106,
      "pl": 3107,
      "ive": 3108,
      "apos": 3109,
      "ther": 3110,
      "act": 3111,
      "ould": 3112,
      "uro": 3113,
      "fe": 3114,
      "iv": 3115,
      "will": 3116,
      "rom": 3117,
      "which": 3118,
      "Euro": 3119,
      "ial": 3120,
      "Europe": 3121,
      "wor": 3122,
      "out": 3123,
      "from": 3124,
      "ust": 3125,
      "ist": 3126,
      "can": 3127,
      "has": 3128,
      "end": 3129,
      "pr": 3130,
      "man": 3131,
      "ions": 3132,
      "ma": 3133,
      "me": 3134,
      "ard": 3135,
      "one": 3136,
      "In": 3137,
      "able": 3138,
      "ib": 3139,
      "co": 3140,
      "ight": 3141,
      "per": 3142,
      "Th": 3143,
      "Com": 3144,
      "ge": 3145,
      "gr": 3146,
      "sion": 3147,
      "ren": 3148,
      "00": 3149,
      "der": 3150,
      "ure": 3151,
      "was": 3152,
      "ie": 3153,
      "do": 3154,
      "cl": 3155,
      "European": 3156,
      "Comm": 3157,
      "ind": 3158,
      "du": 3159,
      "its": 3160,
      "od": 3161,
      "ber": 3162,
      "part": 3163,
      "ical": 3164,
      "ta": 3165,
      "age": 3166,
      "ated": 3167,
      "quot": 3168,
      "au": 3169,
      "ous": 3170,
      "also": 3171,
      "very": 3172,
      "ple": 3173,
      "ans": 3174,
      "ell": 3175,
      "um": 3176,
      "form": 3177,
      "no": 3178,
      "ish": 3179,
      "go": 3180,
      "king": 3181,
      "fo": 3182,
      "ast": 3183,
      "ire": 3184,
      "cr": 3185,
      "av": 3186,
      "your": 3187,
      "cess": 3188,
      "ission": 3189,
      "ations": 3190,
      "We": 3191,
      "str": 3192,
      "coun": 3193,
      "lic": 3194,
      "ction": 3195,
      "cont": 3196,
      "up": 3197,
      "af": 3198,
      "ser": 3199,
      "cial": 3200,
      "ip": 3201,
      "ia": 3202,
      "ice": 3203,
      "there": 3204,
      "ree": 3205,
      "reg": 3206,
      "dis": 3207,
      "but": 3208,
      "ud": 3209,
      "pres": 3210,
      "ach": 3211,
      "int": 3212,
      "It": 3213,
      "cre": 3214,
      "ine": 3215,
      "more": 3216,
      "tim": 3217,
      "gh": 3218,
      "Commission": 3219,
      "Mr": 3220,
      "ide": 3221,
      "other": 3222,
      "ary": 3223,
      "now": 3224,
      "vel": 3225,
      "ear": 3226,
      "pre": 3227,
      "ments": 3228,
      "would": 3229,
      "ident": 3230,
      "work": 3231,
      "ance": 3232,
      "ates": 3233,
      "ition": 3234,
      "iz": 3235,
      "their": 3236,
      "St": 3237,
      "comm": 3238,
      "ong": 3239,
      "ome": 3240,
      "any": 3241,
      "been": 3242,
      "ough": 3243,
      "Un": 3244,
      "tern": 3245,
      "ely": 3246,
      "This": 3247,
      "new": 3248,
      "here": 3249,
      "ace": 3250,
      "..": 3251,
      "spe": 3252,
      "ally": 3253,
      "way": 3254,
      "should": 3255,
      "low": 3256,
      "ame": 3257,
      "ite": 3258,
      "ound": 3259,
      "Pres": 3260,
      "gu": 3261,
      "ign": 3262,
      "ack": 3263,
      "ful": 3264,
      "who": 3265,
      "ev": 3266,
      "ark": 3267,
      "prov": 3268,
      "off": 3269,
      "fore": 3270,
      "bo": 3271,
      "ass": 3272,
      "ence": 3273,
      "ase": 3274,
      "countr": 3275,
      "ho": 3276,
      "ra": 3277,
      "ament": 3278,
      "cent": 3279,
      "ef": 3280,
      "must": 3281,
      "pt": 3282,
      "ens": 3283,
      "reat": 3284,
      "ext": 3285,
      "comp": 3286,
      "red": 3287,
      "ub": 3288,
      "je": 3289,
      "ational": 3290,
      "produ": 3291,
      "own": 3292,
      "ities": 3293,
      "ult": 3294,
      "otel": 3295,
      "need": 3296,
      "they": 3297,
      "200": 3298,
      "ci": 3299,
      "year": 3300,
      "like": 3301,
      "sp": 3302,
      "day": 3303,
      "President": 3304,
      "time": 3305,
      "only": 3306,
      "over": 3307,
      "sup": 3308,
      "ob": 3309,
      "fr": 3310,
      "cer": 3311,
      "right": 3312,
      "cur": 3313,
      "about": 3314,
      "sy": 3315,
      "sib": 3316,
      "than": 3317,
      "la": 3318,
      "ts": 3319,
      "ject": 3320,
      "ian": 3321,
      "ember": 3322,
      "get": 3323,
      "enc": 3324,
      "min": 3325,
      "some": 3326,
      "use": 3327,
      "serv": 3328,
      "Par": 3329,
      "bet": 3330,
      "velop": 3331,
      "fin": 3332,
      "fir": 3333,
      "liament": 3334,
      "ious": 3335,
      "ms": 3336,
      "these": 3337,
      "ail": 3338,
      "cor": 3339,
      "loc": 3340,
      "rent": 3341,
      "des": 3342,
      "tw": 3343,
      "import": 3344,
      "ks": 3345,
      "ise": 3346,
      "ution": 3347,
      "tain": 3348,
      "most": 3349,
      "report": 3350,
      "ility": 3351,
      "mark": 3352,
      "develop": 3353,
      "cus": 3354,
      "my": 3355,
      "ople": 3356,
      "Union": 3357,
      "&#": 3358,
      "ener": 3359,
      "many": 3360,
      "leg": 3361,
      "gy": 3362,
      "stem": 3363,
      "trans": 3364,
      "ue": 3365,
      "rest": 3366,
      "ors": 3367,
      "und": 3368,
      "dif": 3369,
      "under": 3370,
      "Parliament": 3371,
      "br": 3372,
      "ause": 3373,
      "thing": 3374,
      "19": 3375,
      "lit": 3376,
      "into": 3377,
      "EU": 3378,
      "well": 3379,
      "come": 3380,
      "ular": 3381,
      "rel": 3382,
      "sub": 3383,
      "people": 3384,
      "what": 3385,
      "air": 3386,
      "ating": 3387,
      "ced": 3388,
      "mat": 3389,
      "chan": 3390,
      "ures": 3391,
      "room": 3392,
      "iew": 3393,
      "fect": 3394,
      "ile": 3395,
      "add": 3396,
      "ose": 3397,
      "Al": 3398,
      "cle": 3399,
      "econ": 3400,
      "just": 3401,
      "were": 3402,
      "support": 3403,
      "cause": 3404,
      "such": 3405,
      "ak": 3406,
      "ep": 3407,
      "system": 3408,
      "ific": 3409,
      "cil": 3410,
      "States": 3411,
      "ted": 3412,
      "view": 3413,
      "polic": 3414,
      "lect": 3415,
      "high": 3416,
      "Member": 3417,
      "ces": 3418,
      "ices": 3419,
      "mon": 3420,
      "ble": 3421,
      "requ": 3422,
      "inform": 3423,
      "first": 3424,
      "ual": 3425,
      "Coun": 3426,
      "countries": 3427,
      "incl": 3428,
      "inv": 3429,
      "present": 3430,
      "when": 3431,
      "main": 3432,
      "mer": 3433,
      "Ch": 3434,
      "know": 3435,
      "his": 3436,
      "fact": 3437,
      "sol": 3438,
      "partic": 3439,
      "ting": 3440,
      "oper": 3441,
      "pect": 3442,
      "irect": 3443,
      "ok": 3444,
      "ning": 3445,
      "ild": 3446,
      "vis": 3447,
      "Council": 3448,
      "point": 3449,
      "read": 3450,
      "them": 3451,
      "hotel": 3452,
      "col": 3453,
      "ty": 3454,
      "important": 3455,
      "fic": 3456,
      "ory": 3457,
      "ied": 3458,
      "again": 3459,
      "An": 3460,
      "econom": 3461,
      "dr": 3462,
      "make": 3463,
      "stand": 3464,
      "inte": 3465,
      "where": 3466,
      "sit": 3467,
      "bas": 3468,
      "ative": 3469,
      "ween": 3470,
      "inst": 3471,
      "stru": 3472,
      "sa": 3473,
      "possib": 3474,
      "oup": 3475,
      "between": 3476,
      "take": 3477,
      "ran": 3478,
      "propos": 3479,
      "market": 3480,
      "par": 3481,
      "Wh": 3482,
      "intern": 3483,
      "cept": 3484,
      "because": 3485,
      "As": 3486,
      "cons": 3487,
      "bel": 3488,
      "world": 3489,
      "med": 3490,
      "pon": 3491,
      "cond": 3492,
      "rough": 3493,
      "see": 3494,
      "bu": 3495,
      "hel": 3496,
      "set": 3497,
      "ress": 3498,
      "lar": 3499,
      "row": 3500,
      "ural": 3501,
      "land": 3502,
      "ck": 3503,
      "ublic": 3504,
      "made": 3505,
      "old": 3506,
      "ards": 3507,
      "ality": 3508,
      "order": 3509,
      "sul": 3510,
      "dec": 3511,
      "information": 3512,
      "Con": 3513,
      "two": 3514,
      "even": 3515,
      "del": 3516,
      "ink": 3517,
      "emp": 3518,
      "att": 3519,
      "great": 3520,
      "product": 3521,
      "arch": 3522,
      "issu": 3523,
      "sure": 3524,
      "gram": 3525,
      "good": 3526,
      "years": 3527,
      "every": 3528,
      "ry": 3529,
      "If": 3530,
      "polit": 3531,
      "...": 3532,
      "through": 3533,
      "als": 3534,
      "pers": 3535,
      "os": 3536,
      "led": 3537,
      "being": 3538,
      "had": 3539,
      "sur": 3540,
      "inter": 3541,
      "20": 3542,
      "agree": 3543,
      "those": 3544,
      "direct": 3545,
      "ents": 3546,
      "car": 3547,
      "want": 3548,
      "wever": 3549,
      "then": 3550,
      "ages": 3551,
      "respon": 3552,
      "ten": 3553,
      "peri": 3554,
      "iver": 3555,
      "cour": 3556,
      "policy": 3557,
      "may": 3558,
      "play": 3559,
      "lish": 3560,
      "clear": 3561,
      "place": 3562,
      "proble": 3563,
      "gan": 3564,
      "ieve": 3565,
      "jo": 3566,
      "hu": 3567,
      "less": 3568,
      "ited": 3569,
      "tee": 3570,
      "vot": 3571,
      "unity": 3572,
      "long": 3573,
      "amp": 3574,
      "ater": 3575,
      "There": 3576,
      "num": 3577,
      "used": 3578,
      "particular": 3579,
      "includ": 3580,
      "ade": 3581,
      "ives": 3582,
      "For": 3583,
      "process": 3584,
      "bus": 3585,
      "elf": 3586,
      "10": 3587,
      "uring": 3588,
      "after": 3589,
      "call": 3590,
      "possible": 3591,
      "ings": 3592,
      "concer": 3593,
      "che": 3594,
      "uch": 3595,
      "vir": 3596,
      "quest": 3597,
      "les": 3598,
      "De": 3599,
      "say": 3600,
      "program": 3601,
      "tech": 3602,
      "io": 3603,
      "val": 3604,
      "diffe": 3605,
      "ick": 3606,
      "ict": 3607,
      "area": 3608,
      "ph": 3609,
      "vent": 3610,
      "You": 3611,
      "fer": 3612,
      "find": 3613,
      "ince": 3614,
      "put": 3615,
      "clo": 3616,
      "emb": 3617,
      "comple": 3618,
      "ved": 3619,
      "political": 3620,
      "ving": 3621,
      "rit": 3622,
      "bal": 3623,
      "oc": 3624,
      "rol": 3625,
      "person": 3626,
      "ves": 3627,
      "public": 3628,
      "situ": 3629,
      "wer": 3630,
      "contr": 3631,
      "how": 3632,
      "men": 3633,
      "Re": 3634,
      "log": 3635,
      "incre": 3636,
      "deb": 3637,
      "ines": 3638,
      "prote": 3639,
      "help": 3640,
      "economic": 3641,
      "ism": 3642,
      "eng": 3643,
      "same": 3644,
      "ency": 3645,
      "urn": 3646,
      "mot": 3647,
      "ouse": 3648,
      "provid": 3649,
      "alth": 3650,
      "iness": 3651,
      "char": 3652,
      "sim": 3653,
      "contin": 3654,
      "plic": 3655,
      "access": 3656,
      "He": 3657,
      "effect": 3658,
      "country": 3659,
      "ner": 3660,
      "ety": 3661,
      "cho": 3662,
      "pet": 3663,
      "development": 3664,
      "ters": 3665,
      "appro": 3666,
      "tow": 3667,
      "interest": 3668,
      "does": 3669,
      "could": 3670,
      "sm": 3671,
      "ily": 3672,
      "ply": 3673,
      "rights": 3674,
      "equ": 3675,
      "ready": 3676,
      "within": 3677,
      "line": 3678,
      "ath": 3679,
      "level": 3680,
      "ss": 3681,
      "resul": 3682,
      "loy": 3683,
      "avail": 3684,
      "exam": 3685,
      "fol": 3686,
      "fl": 3687,
      "fund": 3688,
      "far": 3689,
      "fort": 3690,
      "against": 3691,
      "therefore": 3692,
      "ability": 3693,
      "gener": 3694,
      "both": 3695,
      "Ar": 3696,
      "tak": 3697,
      "Ger": 3698,
      "cord": 3699,
      "human": 3700,
      "much": 3701,
      "cap": 3702,
      "gover": 3703,
      "ason": 3704,
      "dat": 3705,
      "On": 3706,
      "free": 3707,
      "ord": 3708,
      "press": 3709,
      "last": 3710,
      "group": 3711,
      "itions": 3712,
      "viron": 3713,
      "utions": 3714,
      "sign": 3715,
      "var": 3716,
      "fam": 3717,
      "lead": 3718,
      "hap": 3719,
      "open": 3720,
      "back": 3721,
      "key": 3722,
      "real": 3723,
      "social": 3724,
      "iven": 3725,
      "Se": 3726,
      "finan": 3727,
      "Ho": 3728,
      "Hotel": 3729,
      "12": 3730,
      "ically": 3731,
      "different": 3732,
      "allow": 3733,
      "ith": 3734,
      "top": 3735,
      "ised": 3736,
      "meas": 3737,
      "govern": 3738,
      "without": 3739,
      "her": 3740,
      "down": 3741,
      "93": 3742,
      "organ": 3743,
      "91": 3744,
      "ittee": 3745,
      "spec": 3746,
      "ional": 3747,
      "vironment": 3748,
      "number": 3749,
      "sum": 3750,
      "hand": 3751,
      "international": 3752,
      "tom": 3753,
      "ics": 3754,
      "services": 3755,
      "pri": 3756,
      "tal": 3757,
      "ven": 3758,
      "still": 3759,
      "site": 3760,
      "special": 3761,
      "rap": 3762,
      "available": 3763,
      "too": 3764,
      "word": 3765,
      "ient": 3766,
      "embers": 3767,
      "En": 3768,
      "Pro": 3769,
      "mit": 3770,
      "ff": 3771,
      "cit": 3772,
      "require": 3773,
      "side": 3774,
      "ists": 3775,
      "fut": 3776,
      "ways": 3777,
      "large": 3778,
      "ask": 3779,
      "change": 3780,
      "urther": 3781,
      "certain": 3782,
      "eas": 3783,
      "business": 3784,
      "course": 3785,
      "current": 3786,
      "sing": 3787,
      "Gr": 3788,
      "offer": 3789,
      "national": 3790,
      "mocr": 3791,
      "ix": 3792,
      "believe": 3793,
      "follow": 3794,
      "before": 3795,
      "already": 3796,
      "future": 3797,
      "que": 3798,
      "state": 3799,
      "start": 3800,
      "project": 3801,
      "quality": 3802,
      "thor": 3803,
      "ants": 3804,
      "dep": 3805,
      "small": 3806,
      "fac": 3807,
      "operation": 3808,
      "concern": 3809,
      "ulation": 3810,
      "employ": 3811,
      "exp": 3812,
      "ug": 3813,
      "today": 3814,
      "That": 3815,
      "rooms": 3816,
      "show": 3817,
      "law": 3818,
      "ca": 3819,
      "soci": 3820,
      "ban": 3821,
      "aw": 3822,
      "products": 3823,
      "ness": 3824,
      "position": 3825,
      "decis": 3826,
      "plement": 3827,
      "think": 3828,
      "struct": 3829,
      "bre": 3830,
      "case": 3831,
      "design": 3832,
      "ese": 3833,
      "environment": 3834,
      "indust": 3835,
      "compet": 3836,
      "sk": 3837,
      "aim": 3838,
      "service": 3839,
      "suc": 3840,
      "Ne": 3841,
      "data": 3842,
      "cannot": 3843,
      "regard": 3844,
      "pare": 3845,
      "rem": 3846,
      "ital": 3847,
      "pur": 3848,
      "responsib": 3849,
      "ann": 3850,
      "So": 3851,
      "question": 3852,
      "ately": 3853,
      "eld": 3854,
      "activ": 3855,
      "offers": 3856,
      "Commissioner": 3857,
      "ider": 3858,
      "jor": 3859,
      "search": 3860,
      "ret": 3861,
      "feren": 3862,
      "war": 3863,
      "each": 3864,
      "since": 3865,
      "action": 3866,
      "nat": 3867,
      "But": 3868,
      "reason": 3869,
      "meet": 3870,
      "light": 3871,
      "respect": 3872,
      "udget": 3873,
      "curity": 3874,
      "city": 3875,
      "fully": 3876,
      "ger": 3877,
      "necess": 3878,
      "issue": 3879,
      "list": 3880,
      "cy": 3881,
      "ute": 3882,
      "financial": 3883,
      "citiz": 3884,
      "best": 3885,
      "hist": 3886,
      "adv": 3887,
      "cu": 3888,
      "els": 3889,
      "control": 3890,
      "cell": 3891,
      "vi": 3892,
      "ship": 3893,
      "during": 3894,
      "ible": 3895,
      "debate": 3896,
      "US": 3897,
      "said": 3898,
      "road": 3899,
      "conf": 3900,
      "sect": 3901,
      "To": 3902,
      "proposal": 3903,
      "means": 3904,
      "prof": 3905,
      "web": 3906,
      "fil": 3907,
      "pay": 3908,
      "cost": 3909,
      "pen": 3910,
      "example": 3911,
      "applic": 3912,
      "accept": 3913,
      "lim": 3914,
      "elect": 3915,
      "implement": 3916,
      "experi": 3917,
      "ours": 3918,
      "major": 3919,
      "No": 3920,
      "instit": 3921,
      "However": 3922,
      "fun": 3923,
      "gent": 3924,
      "At": 3925,
      "ivers": 3926,
      "cas": 3927,
      "amend": 3928,
      "resol": 3929,
      "including": 3930,
      "situation": 3931,
      "Our": 3932,
      "ude": 3933,
      "child": 3934,
      "grow": 3935,
      "isation": 3936,
      "ral": 3937,
      "lan": 3938,
      "taken": 3939,
      "build": 3940,
      "With": 3941,
      "ivid": 3942,
      "let": 3943,
      "power": 3944,
      "lin": 3945,
      "based": 3946,
      "hal": 3947,
      "Pr": 3948,
      "got": 3949,
      "opt": 3950,
      "ized": 3951,
      "found": 3952,
      "cult": 3953,
      "ential": 3954,
      "author": 3955,
      "ier": 3956,
      "ird": 3957,
      "count": 3958,
      "dem": 3959,
      "ges": 3960,
      "net": 3961,
      "legal": 3962,
      "common": 3963,
      "democr": 3964,
      "aut": 3965,
      "acy": 3966,
      "stay": 3967,
      "ilities": 3968,
      "Committee": 3969,
      "ues": 3970,
      "consider": 3971,
      "represent": 3972,
      "And": 3973,
      "object": 3974,
      "Fr": 3975,
      "ys": 3976,
      "invest": 3977,
      "Mo": 3978,
      "give": 3979,
      "ina": 3980,
      "All": 3981,
      "success": 3982,
      "measures": 3983,
      "estab": 3984,
      "three": 3985,
      "illion": 3986,
      "pass": 3987,
      "areas": 3988,
      "ric": 3989,
      "ium": 3990,
      "Intern": 3991,
      "company": 3992,
      "gest": 3993,
      "ime": 3994,
      "rece": 3995,
      "energy": 3996,
      "logy": 3997,
      "agreement": 3998,
      "discus": 3999,
      "tle": 4000,
      "next": 4001,
      "depend": 4002,
      "199": 4003,
      "uss": 4004,
      "redu": 4005,
      "few": 4006,
      "further": 4007,
      "cal": 4008,
      "ref": 4009,
      "citizens": 4010,
      "necessary": 4011,
      "budget": 4012,
      "Sp": 4013,
      "provide": 4014,
      "establish": 4015,
      "sof": 4016,
      "ually": 4017,
      "omen": 4018,
      "ize": 4019,
      "15": 4020,
      "ield": 4021,
      "addition": 4022,
      "ensure": 4023,
      "ris": 4024,
      "while": 4025,
      "atic": 4026,
      "using": 4027,
      "strate": 4028,
      "though": 4029,
      "Is": 4030,
      "ased": 4031,
      "problem": 4032,
      "second": 4033,
      "techno": 4034,
      "wish": 4035,
      "life": 4036,
      "located": 4037,
      "plan": 4038,
      "wel": 4039,
      "priv": 4040,
      "reed": 4041,
      "commun": 4042,
      "di": 4043,
      "whe": 4044,
      "ward": 4045,
      "trad": 4046,
      "ER": 4047,
      "security": 4048,
      "oking": 4049,
      "Ro": 4050,
      "istr": 4051,
      "ling": 4052,
      "bar": 4053,
      "ben": 4054,
      "ination": 4055,
      "opport": 4056,
      "prin": 4057,
      "problems": 4058,
      "aid": 4059,
      "joy": 4060,
      "init": 4061,
      "glo": 4062,
      "shall": 4063,
      "vote": 4064,
      "stit": 4065,
      "Tr": 4066,
      "pract": 4067,
      "tail": 4068,
      "isl": 4069,
      "given": 4070,
      "health": 4071,
      "hope": 4072,
      "stud": 4073,
      "care": 4074,
      "train": 4075,
      "ules": 4076,
      "Bo": 4077,
      "why": 4078,
      "aur": 4079,
      "ross": 4080,
      "nor": 4081,
      "Ex": 4082,
      "half": 4083,
      "however": 4084,
      "itive": 4085,
      "cooperation": 4086,
      "iend": 4087,
      "enter": 4088,
      "ica": 4089,
      "ont": 4090,
      "range": 4091,
      "pop": 4092,
      "invol": 4093,
      "gether": 4094,
      "did": 4095,
      "protection": 4096,
      "self": 4097,
      "compan": 4098,
      "ged": 4099,
      "trade": 4100,
      "iss": 4101,
      "deal": 4102,
      "30": 4103,
      "conne": 4104,
      "CO": 4105,
      "unt": 4106,
      "agement": 4107,
      "needs": 4108,
      "gin": 4109,
      "legisl": 4110,
      "always": 4111,
      "working": 4112,
      "reach": 4113,
      "full": 4114,
      "run": 4115,
      "moder": 4116,
      "They": 4117,
      "production": 4118,
      "comb": 4119,
      "individ": 4120,
      "look": 4121,
      "lab": 4122,
      "met": 4123,
      "ners": 4124,
      "utes": 4125,
      "raw": 4126,
      "ik": 4127,
      "den": 4128,
      "gen": 4129,
      "pecial": 4130,
      "remain": 4131,
      "hol": 4132,
      "Le": 4133,
      "ests": 4134,
      "Be": 4135,
      "government": 4136,
      "nam": 4137,
      "water": 4138,
      "lad": 4139,
      "ave": 4140,
      "tru": 4141,
      "fav": 4142,
      "move": 4143,
      "commit": 4144,
      "reco": 4145,
      "better": 4146,
      "cing": 4147,
      "aff": 4148,
      "integr": 4149,
      "AR": 4150,
      "000": 4151,
      "appe": 4152,
      "eur": 4153,
      "ference": 4154,
      "field": 4155,
      "step": 4156,
      "Group": 4157,
      "What": 4158,
      "together": 4159,
      "crit": 4160,
      "visit": 4161,
      "ified": 4162,
      "aran": 4163,
      "United": 4164,
      "princi": 4165,
      "fast": 4166,
      "bed": 4167,
      "making": 4168,
      "Amer": 4169,
      "around": 4170,
      "prove": 4171,
      "ively": 4172,
      "short": 4173,
      "18": 4174,
      "har": 4175,
      "Co": 4176,
      "ped": 4177,
      "ele": 4178,
      "ising": 4179,
      "erv": 4180,
      "ft": 4181,
      "When": 4182,
      "recent": 4183,
      "specific": 4184,
      "terr": 4185,
      "porteur": 4186,
      "text": 4187,
      "Mrs": 4188,
      "ources": 4189,
      "whether": 4190,
      "mb": 4191,
      "transport": 4192,
      "Community": 4193,
      "terms": 4194,
      "particularly": 4195,
      "wee": 4196,
      "50": 4197,
      "az": 4198,
      "friend": 4199,
      "become": 4200,
      "account": 4201,
      "House": 4202,
      "going": 4203,
      "him": 4204,
      "rapporteur": 4205,
      "subject": 4206,
      "term": 4207,
      "ficult": 4208,
      "custom": 4209,
      "exist": 4210,
      "proper": 4211,
      "non": 4212,
      "fish": 4213,
      "difficult": 4214,
      "These": 4215,
      "modern": 4216,
      "ention": 4217,
      "ury": 4218,
      "views": 4219,
      "bod": 4220,
      "individual": 4221,
      "result": 4222,
      "children": 4223,
      "issues": 4224,
      "systems": 4225,
      "another": 4226,
      "global": 4227,
      "research": 4228,
      "clus": 4229,
      "role": 4230,
      "hold": 4231,
      "contain": 4232,
      "mar": 4233,
      "cut": 4234,
      "UN": 4235,
      "rele": 4236,
      "Mad": 4237,
      "ming": 4238,
      "vious": 4239,
      "pli": 4240,
      "contrib": 4241,
      "ech": 4242,
      "writ": 4243,
      "conditions": 4244,
      "whole": 4245,
      "pat": 4246,
      "tour": 4247,
      "grap": 4248,
      "promot": 4249,
      "dist": 4250,
      "local": 4251,
      "load": 4252,
      "igin": 4253,
      "gress": 4254,
      "centre": 4255,
      "uc": 4256,
      "elves": 4257,
      "address": 4258,
      "tax": 4259,
      "head": 4260,
      "sector": 4261,
      "por": 4262,
      "tware": 4263,
      "ended": 4264,
      "ises": 4265,
      "plac": 4266,
      "third": 4267,
      "equip": 4268,
      "decision": 4269,
      "ying": 4270,
      "companies": 4271,
      "ator": 4272,
      "ond": 4273,
      "accord": 4274,
      "various": 4275,
      "page": 4276,
      "industry": 4277,
      "enjoy": 4278,
      "Am": 4279,
      "coming": 4280,
      "benef": 4281,
      "town": 4282,
      "pack": 4283,
      "guaran": 4284,
      "women": 4285,
      "experience": 4286,
      "feat": 4287,
      "month": 4288,
      "basis": 4289,
      "wide": 4290,
      "hip": 4291,
      "German": 4292,
      "mod": 4293,
      "called": 4294,
      "round": 4295,
      "ton": 4296,
      "veral": 4297,
      "ST": 4298,
      "distr": 4299,
      "comes": 4300,
      "especial": 4301,
      "kes": 4302,
      "techn": 4303,
      "matter": 4304,
      "near": 4305,
      "draw": 4306,
      "ground": 4307,
      "def": 4308,
      "share": 4309,
      "especially": 4310,
      "Af": 4311,
      "goti": 4312,
      "dom": 4313,
      "reaty": 4314,
      "amb": 4315,
      "members": 4316,
      "ux": 4317,
      "RE": 4318,
      "vers": 4319,
      "gn": 4320,
      "origin": 4321,
      "done": 4322,
      "food": 4323,
      "negoti": 4324,
      "ably": 4325,
      "ensive": 4326,
      "erial": 4327,
      "ense": 4328,
      "create": 4329,
      "she": 4330,
      "proced": 4331,
      "Mar": 4332,
      "iving": 4333,
      "sto": 4334,
      "beaut": 4335,
      "taking": 4336,
      "region": 4337,
      "close": 4338,
      "strong": 4339,
      "really": 4340,
      "Min": 4341,
      "gentle": 4342,
      "Wor": 4343,
      "docu": 4344,
      "paren": 4345,
      "demand": 4346,
      "prior": 4347,
      "graph": 4348,
      "ilit": 4349,
      "hard": 4350,
      "ins": 4351,
      "ank": 4352,
      "period": 4353,
      "pose": 4354,
      "improve": 4355,
      "ences": 4356,
      "name": 4357,
      "communic": 4358,
      "shop": 4359,
      "Fin": 4360,
      "Sw": 4361,
      "dam": 4362,
      "Russ": 4363,
      "wal": 4364,
      "location": 4365,
      "ash": 4366,
      "oney": 4367,
      "approach": 4368,
      "rodu": 4369,
      "hoto": 4370,
      "ste": 4371,
      "ars": 4372,
      "favour": 4373,
      "ique": 4374,
      "million": 4375,
      "protect": 4376,
      "ficient": 4377,
      "ization": 4378,
      "job": 4379,
      "among": 4380,
      "prom": 4381,
      "bl": 4382,
      "iday": 4383,
      "initi": 4384,
      "something": 4385,
      "Bar": 4386,
      "personal": 4387,
      "resolution": 4388,
      "kind": 4389,
      "begin": 4390,
      "understand": 4391,
      "itself": 4392,
      "11": 4393,
      "langu": 4394,
      "cris": 4395,
      "restaur": 4396,
      "continue": 4397,
      "several": 4398,
      "afety": 4399,
      "single": 4400,
      "general": 4401,
      "material": 4402,
      "sequ": 4403,
      "introdu": 4404,
      "tic": 4405,
      "excell": 4406,
      "face": 4407,
      "mus": 4408,
      "dou": 4409,
      "programme": 4410,
      "break": 4411,
      "known": 4412,
      "tra": 4413,
      "forward": 4414,
      "employment": 4415,
      "home": 4416,
      "management": 4417,
      "Germany": 4418,
      "amework": 4419,
      "gentlemen": 4420,
      "days": 4421,
      "away": 4422,
      "post": 4423,
      "force": 4424,
      "contact": 4425,
      "adop": 4426,
      "mention": 4427,
      "keep": 4428,
      "peace": 4429,
      "ons": 4430,
      "sal": 4431,
      "opin": 4432,
      "vol": 4433,
      "comfort": 4434,
      "serious": 4435,
      "class": 4436,
      "house": 4437,
      "often": 4438,
      "ping": 4439,
      "test": 4440,
      "detail": 4441,
      "Tur": 4442,
      "directive": 4443,
      "ither": 4444,
      "prevent": 4445,
      "outh": 4446,
      "rules": 4447,
      "least": 4448,
      "expect": 4449,
      "following": 4450,
      "crisis": 4451,
      "asing": 4452,
      "family": 4453,
      "ging": 4454,
      "reform": 4455,
      "particip": 4456,
      "ats": 4457,
      "ake": 4458,
      "towards": 4459,
      "once": 4460,
      "Pol": 4461,
      "network": 4462,
      "defin": 4463,
      "welcome": 4464,
      "sed": 4465,
      "progress": 4466,
      "tar": 4467,
      "express": 4468,
      "bon": 4469,
      "vo": 4470,
      "recogn": 4471,
      "install": 4472,
      "night": 4473,
      "software": 4474,
      "feel": 4475,
      "bur": 4476,
      "thank": 4477,
      "abo": 4478,
      "excellent": 4479,
      "active": 4480,
      "Madam": 4481,
      "suf": 4482,
      "money": 4483,
      "things": 4484,
      "turn": 4485,
      "customers": 4486,
      "ll": 4487,
      "ories": 4488,
      "ians": 4489,
      "institutions": 4490,
      "function": 4491,
      "price": 4492,
      "date": 4493,
      "arr": 4494,
      "until": 4495,
      "ending": 4496,
      "aged": 4497,
      "ister": 4498,
      "colle": 4499,
      "Treaty": 4500,
      "mult": 4501,
      "2009": 4502,
      "ung": 4503,
      "staff": 4504,
      "bring": 4505,
      "ago": 4506,
      "little": 4507,
      "apart": 4508,
      "increase": 4509,
      "imate": 4510,
      "opportunity": 4511,
      "lot": 4512,
      "Or": 4513,
      "airs": 4514,
      "atives": 4515,
      "sat": 4516,
      "idency": 4517,
      "profess": 4518,
      "Ital": 4519,
      "Members": 4520,
      "achieve": 4521,
      "private": 4522,
      "activities": 4523,
      "heart": 4524,
      "Gu": 4525,
      "tradition": 4526,
      "trav": 4527,
      "rather": 4528,
      "ron": 4529,
      "ived": 4530,
      "ood": 4531,
      "lands": 4532,
      "iful": 4533,
      "ustr": 4534,
      "New": 4535,
      "ought": 4536,
      "ican": 4537,
      "mean": 4538,
      "partners": 4539,
      "big": 4540,
      "ances": 4541,
      "stat": 4542,
      "Cent": 4543,
      "actions": 4544,
      "resources": 4545,
      "growth": 4546,
      "stain": 4547,
      "quite": 4548,
      "treat": 4549,
      "nov": 4550,
      "signific": 4551,
      "Ber": 4552,
      "lat": 4553,
      "14": 4554,
      "might": 4555,
      "EC": 4556,
      "provided": 4557,
      "ang": 4558,
      "State": 4559,
      "came": 4560,
      "reedom": 4561,
      "version": 4562,
      "ples": 4563,
      "building": 4564,
      "seem": 4565,
      "framework": 4566,
      "itor": 4567,
      "ctions": 4568,
      "tion": 4569,
      "technology": 4570,
      "Pal": 4571,
      "four": 4572,
      "cover": 4573,
      "icial": 4574,
      "regul": 4575,
      "value": 4576,
      "ladies": 4577,
      "sug": 4578,
      "crim": 4579,
      "IN": 4580,
      "request": 4581,
      "yet": 4582,
      "beach": 4583,
      "having": 4584,
      "aft": 4585,
      "Br": 4586,
      "reng": 4587,
      "16": 4588,
      "proposals": 4589,
      "solution": 4590,
      "amendments": 4591,
      "mber": 4592,
      "crip": 4593,
      "include": 4594,
      "Sch": 4595,
      "educ": 4596,
      "lear": 4597,
      "anim": 4598,
      "After": 4599,
      "fle": 4600,
      "focus": 4601,
      "photo": 4602,
      "along": 4603,
      "event": 4604,
      "safety": 4605,
      "left": 4606,
      "lay": 4607,
      "body": 4608,
      "124": 4609,
      "Nor": 4610,
      "content": 4611,
      "appropri": 4612,
      "points": 4613,
      "ification": 4614,
      "times": 4615,
      "instru": 4616,
      "histor": 4617,
      "ets": 4618,
      "empt": 4619,
      "costs": 4620,
      "essential": 4621,
      "above": 4622,
      "idence": 4623,
      "adopted": 4624,
      "na": 4625,
      "logical": 4626,
      "flo": 4627,
      "week": 4628,
      "13": 4629,
      "Ad": 4630,
      "streng": 4631,
      "ols": 4632,
      "anal": 4633,
      "ports": 4634,
      "viol": 4635,
      "igr": 4636,
      "relation": 4637,
      "deed": 4638,
      "recomm": 4639,
      "mes": 4640,
      "due": 4641,
      "sid": 4642,
      "makes": 4643,
      "ministr": 4644,
      "aster": 4645,
      "words": 4646,
      "cient": 4647,
      "fail": 4648,
      "agric": 4649,
      "opinion": 4650,
      "behalf": 4651,
      "economy": 4652,
      "agricult": 4653,
      "chall": 4654,
      "entire": 4655,
      "beautiful": 4656,
      "ever": 4657,
      "ched": 4658,
      "cred": 4659,
      "legislation": 4660,
      "ival": 4661,
      "attr": 4662,
      "sc": 4663,
      "Med": 4664,
      "others": 4665,
      "charact": 4666,
      "cli": 4667,
      "easy": 4668,
      "application": 4669,
      "projects": 4670,
      "ones": 4671,
      "effective": 4672,
      "pot": 4673,
      "24": 4674,
      "responsibility": 4675,
      "og": 4676,
      "results": 4677,
      "complete": 4678,
      "host": 4679,
      "medi": 4680,
      "team": 4681,
      "context": 4682,
      "Eng": 4683,
      "website": 4684,
      "ivil": 4685,
      "freedom": 4686,
      "model": 4687,
      "provides": 4688,
      "minutes": 4689,
      "amoun": 4690,
      "never": 4691,
      "One": 4692,
      "sty": 4693,
      "concerned": 4694,
      "IT": 4695,
      "xim": 4696,
      "Ac": 4697,
      "attention": 4698,
      "stre": 4699,
      "sea": 4700,
      "amental": 4701,
      "speak": 4702,
      "Ag": 4703,
      "custo": 4704,
      "mach": 4705,
      "Res": 4706,
      "groups": 4707,
      "imp": 4708,
      "user": 4709,
      "sw": 4710,
      "book": 4711,
      "thus": 4712,
      "AN": 4713,
      "25": 4714,
      "simply": 4715,
      "continu": 4716,
      "fa": 4717,
      "17": 4718,
      "ights": 4719,
      "try": 4720,
      "policies": 4721,
      "Des": 4722,
      "importance": 4723,
      "China": 4724,
      "gue": 4725,
      "proved": 4726,
      "questions": 4727,
      "ledge": 4728,
      "perfect": 4729,
      "mob": 4730,
      "central": 4731,
      "ufact": 4732,
      "moun": 4733,
      "youn": 4734,
      "ery": 4735,
      "World": 4736,
      "voted": 4737,
      "istic": 4738,
      "Ind": 4739,
      "past": 4740,
      "environmental": 4741,
      "Rom": 4742,
      "consum": 4743,
      "society": 4744,
      "natural": 4745,
      "vention": 4746,
      "accom": 4747,
      "greater": 4748,
      "innov": 4749,
      "strategy": 4750,
      "auto": 4751,
      "typ": 4752,
      "une": 4753,
      "ently": 4754,
      "ien": 4755,
      "ceed": 4756,
      "ches": 4757,
      "gre": 4758,
      "extrem": 4759,
      "holiday": 4760,
      "won": 4761,
      "increasing": 4762,
      "ule": 4763,
      "meth": 4764,
      "exper": 4765,
      "principle": 4766,
      "standards": 4767,
      "achie": 4768,
      "migr": 4769,
      "posed": 4770,
      "significant": 4771,
      "euro": 4772,
      "indow": 4773,
      "distrib": 4774,
      "uses": 4775,
      "rate": 4776,
      "training": 4777,
      "manufact": 4778,
      "mitted": 4779,
      "plain": 4780,
      "rect": 4781,
      "cultural": 4782,
      "stant": 4783,
      "aware": 4784,
      "forts": 4785,
      "responsible": 4786,
      "Part": 4787,
      "ify": 4788,
      "hy": 4789,
      "mal": 4790,
      "aud": 4791,
      "Mon": 4792,
      "changes": 4793,
      "ateg": 4794,
      "required": 4795,
      "uary": 4796,
      "vari": 4797,
      "ri": 4798,
      "2010": 4799,
      "quick": 4800,
      "Internet": 4801,
      "risk": 4802,
      "ished": 4803,
      "My": 4804,
      "Sh": 4805,
      "spect": 4806,
      "clearly": 4807,
      "fair": 4808,
      "pages": 4809,
      "ore": 4810,
      "lig": 4811,
      "meeting": 4812,
      "technical": 4813,
      "looking": 4814,
      "vision": 4815,
      "solid": 4816,
      "Reg": 4817,
      "ared": 4818,
      "authorities": 4819,
      "lease": 4820,
      "EUR": 4821,
      "return": 4822,
      "ler": 4823,
      "Man": 4824,
      "DE": 4825,
      "bath": 4826,
      "assist": 4827,
      "rela": 4828,
      "ilt": 4829,
      "tele": 4830,
      "music": 4831,
      "ME": 4832,
      "cir": 4833,
      "century": 4834,
      "Can": 4835,
      "capital": 4836,
      "stop": 4837,
      "regulation": 4838,
      "hib": 4839,
      "IS": 4840,
      "standard": 4841,
      "iversity": 4842,
      "sustain": 4843,
      "firm": 4844,
      "link": 4845,
      "according": 4846,
      "lack": 4847,
      "check": 4848,
      "aspect": 4849,
      "suggest": 4850,
      "infl": 4851,
      "dial": 4852,
      "cel": 4853,
      "internal": 4854,
      "solutions": 4855,
      "provis": 4856,
      "via": 4857,
      "independ": 4858,
      "directly": 4859,
      "Pe": 4860,
      "currently": 4861,
      "ators": 4862,
      "cop": 4863,
      "2008": 4864,
      "don": 4865,
      "months": 4866,
      "industr": 4867,
      "proposed": 4868,
      "longer": 4869,
      "termin": 4870,
      "nature": 4871,
      "Fir": 4872,
      "developed": 4873,
      "affect": 4874,
      "related": 4875,
      "rad": 4876,
      "requirements": 4877,
      "arity": 4878,
      "administr": 4879,
      "history": 4880,
      "interests": 4881,
      "maintain": 4882,
      "regions": 4883,
      "events": 4884,
      "fight": 4885,
      "mom": 4886,
      "ined": 4887,
      "relax": 4888,
      "apply": 4889,
      "young": 4890,
      "guests": 4891,
      "civil": 4892,
      "enough": 4893,
      "involved": 4894,
      "pub": 4895,
      "aging": 4896,
      "Please": 4897,
      "character": 4898,
      "thems": 4899,
      "Afr": 4900,
      "front": 4901,
      "100": 4902,
      "total": 4903,
      "vill": 4904,
      "needed": 4905,
      "method": 4906,
      "table": 4907,
      "ided": 4908,
      "Qu": 4909,
      "refer": 4910,
      "themselves": 4911,
      "online": 4912,
      "parties": 4913,
      "Do": 4914,
      "democracy": 4915,
      "select": 4916,
      "fundamental": 4917,
      "record": 4918,
      "competition": 4919,
      "mail": 4920,
      "implementation": 4921,
      "happen": 4922,
      "Air": 4923,
      "contract": 4924,
      "upon": 4925,
      "guarantee": 4926,
      "item": 4927,
      "board": 4928,
      "From": 4929,
      "categ": 4930,
      "anced": 4931,
      "efforts": 4932,
      "please": 4933,
      "safe": 4934,
      "forman": 4935,
      "stitution": 4936,
      "foreign": 4937,
      "arian": 4938,
      "iter": 4939,
      "space": 4940,
      "markets": 4941,
      "cases": 4942,
      "language": 4943,
      "Russia": 4944,
      "Serv": 4945,
      "prepare": 4946,
      "station": 4947,
      "First": 4948,
      "extremely": 4949,
      "II": 4950,
      "facilities": 4951,
      "bor": 4952,
      "comput": 4953,
      "positive": 4954,
      "condition": 4955,
      "ah": 4956,
      "held": 4957,
      "aper": 4958,
      "document": 4959,
      "seen": 4960,
      "soon": 4961,
      "democratic": 4962,
      "type": 4963,
      "claim": 4964,
      "rich": 4965,
      "ster": 4966,
      "ordin": 4967,
      "appropriate": 4968,
      "camp": 4969,
      "ideo": 4970,
      "advant": 4971,
      "rench": 4972,
      "decl": 4973,
      "duct": 4974,
      "fall": 4975,
      "atory": 4976,
      "target": 4977,
      "negotiations": 4978,
      "live": 4979,
      "suit": 4980,
      "previous": 4981,
      "offe": 4982,
      "later": 4983,
      "ww": 4984,
      "Gover": 4985,
      "mor": 4986,
      "ibility": 4987,
      "sens": 4988,
      "Sy": 4989,
      "International": 4990,
      "ogue": 4991,
      "lines": 4992,
      "either": 4993,
      "option": 4994,
      "km": 4995,
      "etc": 4996,
      "cure": 4997,
      "regional": 4998,
      "terror": 4999,
      "iting": 5000,
      "final": 5001,
      "broad": 5002,
      "breakfast": 5003,
      "mess": 5004,
      "card": 5005,
      "ush": 5006,
      "May": 5007,
      "created": 5008,
      "indic": 5009,
      "developing": 5010,
      "respond": 5011,
      "sound": 5012,
      "states": 5013,
      "2007": 5014,
      "mp": 5015,
      "clean": 5016,
      "itch": 5017,
      "Presidency": 5018,
      "mind": 5019,
      "cast": 5020,
      "performan": 5021,
      "sites": 5022,
      "works": 5023,
      "true": 5024,
      "gl": 5025,
      "By": 5026,
      "Bel": 5027,
      "mag": 5028,
      "situated": 5029,
      "Room": 5030,
      "funds": 5031,
      "Not": 5032,
      "education": 5033,
      "famous": 5034,
      "ino": 5035,
      "dest": 5036,
      "climate": 5037,
      "ief": 5038,
      "More": 5039,
      "surround": 5040,
      "milit": 5041,
      "unique": 5042,
      "iet": 5043,
      "Po": 5044,
      "ired": 5045,
      "ires": 5046,
      "Direct": 5047,
      "additional": 5048,
      "file": 5049,
      "setting": 5050,
      "living": 5051,
      "charge": 5052,
      "everything": 5053,
      "sun": 5054,
      "Off": 5055,
      "prices": 5056,
      "parts": 5057,
      "phone": 5058,
      "official": 5059,
      "recommend": 5060,
      "rist": 5061,
      "hon": 5062,
      "almost": 5063,
      "French": 5064,
      "immedi": 5065,
      "happ": 5066,
      "ables": 5067,
      "pict": 5068,
      "transparen": 5069,
      "correct": 5070,
      "actually": 5071,
      "super": 5072,
      "receive": 5073,
      "ov": 5074,
      "mentioned": 5075,
      "consul": 5076,
      "concept": 5077,
      "pool": 5078,
      "idea": 5079,
      "40": 5080,
      "commer": 5081,
      "haps": 5082,
      "ried": 5083,
      "Brit": 5084,
      "knowledge": 5085,
      "encour": 5086,
      "Govern": 5087,
      "fortun": 5088,
      "included": 5089,
      "ax": 5090,
      "comfortable": 5091,
      "scho": 5092,
      "abled": 5093,
      "grat": 5094,
      "communication": 5095,
      "accommod": 5096,
      "ands": 5097,
      "bi": 5098,
      "cture": 5099,
      "restaurant": 5100,
      "send": 5101,
      "publish": 5102,
      "2000": 5103,
      "avo": 5104,
      "mountain": 5105,
      "sent": 5106,
      "designed": 5107,
      "mass": 5108,
      "tre": 5109,
      "ean": 5110,
      "STAR": 5111,
      "procedure": 5112,
      "five": 5113,
      "SCO": 5114,
      "dev": 5115,
      "takes": 5116,
      "TV": 5117,
      "oblig": 5118,
      "workers": 5119,
      "ior": 5120,
      "ource": 5121,
      "leading": 5122,
      "rop": 5123,
      "bit": 5124,
      "associ": 5125,
      "qual": 5126,
      "except": 5127,
      "ames": 5128,
      "gas": 5129,
      "Of": 5130,
      "jud": 5131,
      "print": 5132,
      "moment": 5133,
      "majority": 5134,
      "France": 5135,
      "built": 5136,
      "star": 5137,
      "ulate": 5138,
      "win": 5139,
      "eder": 5140,
      "pan": 5141,
      "nu": 5142,
      "fel": 5143,
      "professional": 5144,
      "Port": 5145,
      "early": 5146,
      "ideal": 5147,
      "collect": 5148,
      "discuss": 5149,
      "cat": 5150,
      "emphas": 5151,
      "impact": 5152,
      "amount": 5153,
      "outside": 5154,
      "mis": 5155,
      "customer": 5156,
      "users": 5157,
      "How": 5158,
      "features": 5159,
      "Cour": 5160,
      "vert": 5161,
      "doing": 5162,
      "era": 5163,
      "strict": 5164,
      "60": 5165,
      "struction": 5166,
      "throughout": 5167,
      "lock": 5168,
      "took": 5169,
      "elling": 5170,
      "institution": 5171,
      "satis": 5172,
      "cru": 5173,
      "ilar": 5174,
      "friendly": 5175,
      "exclus": 5176,
      "fill": 5177,
      "certainly": 5178,
      "colleag": 5179,
      "download": 5180,
      "hours": 5181,
      "complet": 5182,
      "connection": 5183,
      "AC": 5184,
      "Lis": 5185,
      "wa": 5186,
      "ternal": 5187,
      "potential": 5188,
      "relations": 5189,
      "existing": 5190,
      "connect": 5191,
      "traditional": 5192,
      "La": 5193,
      "consequ": 5194,
      "joint": 5195,
      "across": 5196,
      "Fund": 5197,
      "travel": 5198,
      "demon": 5199,
      "forms": 5200,
      "Ap": 5201,
      "corpor": 5202,
      "cross": 5203,
      "mission": 5204,
      "walk": 5205,
      "American": 5206,
      "parliament": 5207,
      "writing": 5208,
      "pression": 5209,
      "Car": 5210,
      "concerns": 5211,
      "flex": 5212,
      "idd": 5213,
      "DER": 5214,
      "investment": 5215,
      "eries": 5216,
      "ison": 5217,
      "prec": 5218,
      "sphere": 5219,
      "aring": 5220,
      "programmes": 5221,
      "80": 5222,
      "bour": 5223,
      "ded": 5224,
      "performance": 5225,
      "zer": 5226,
      "Turkey": 5227,
      "hes": 5228,
      "committee": 5229,
      "plied": 5230,
      "orders": 5231,
      "hor": 5232,
      "party": 5233,
      "member": 5234,
      "although": 5235,
      "sess": 5236,
      "monitor": 5237,
      "assess": 5238,
      "omet": 5239,
      "ature": 5240,
      "complex": 5241,
      "ension": 5242,
      "game": 5243,
      "Government": 5244,
      "concerning": 5245,
      "Austr": 5246,
      "ski": 5247,
      "wr": 5248,
      "AL": 5249,
      "thern": 5250,
      "explo": 5251,
      "completely": 5252,
      "media": 5253,
      "agreements": 5254,
      "established": 5255,
      "decisions": 5256,
      "reasons": 5257,
      "threat": 5258,
      "Office": 5259,
      "community": 5260,
      "population": 5261,
      "imes": 5262,
      "door": 5263,
      "separ": 5264,
      "conflic": 5265,
      "vic": 5266,
      "usu": 5267,
      "rail": 5268,
      "ots": 5269,
      "Jo": 5270,
      "ides": 5271,
      "ON": 5272,
      "Let": 5273,
      "culture": 5274,
      "military": 5275,
      "original": 5276,
      "nothing": 5277,
      "allows": 5278,
      "practice": 5279,
      "err": 5280,
      "spir": 5281,
      "ining": 5282,
      "sumer": 5283,
      "Jan": 5284,
      "speed": 5285,
      "AS": 5286,
      "Since": 5287,
      "includes": 5288,
      "cum": 5289,
      "Cl": 5290,
      "initiative": 5291,
      "2006": 5292,
      "basic": 5293,
      "useum": 5294,
      "ses": 5295,
      "equipped": 5296,
      "nel": 5297,
      "ather": 5298,
      "capac": 5299,
      "farm": 5300,
      "conclus": 5301,
      "Aff": 5302,
      "ured": 5303,
      "pleas": 5304,
      "reli": 5305,
      "transl": 5306,
      "23": 5307,
      "objectives": 5308,
      "ze": 5309,
      "values": 5310,
      "guest": 5311,
      "construction": 5312,
      "image": 5313,
      "Christ": 5314,
      "cam": 5315,
      "regarding": 5316,
      "UNDER": 5317,
      "yes": 5318,
      "dan": 5319,
      "sense": 5320,
      "files": 5321,
      "Lisbon": 5322,
      "emer": 5323,
      "received": 5324,
      "jobs": 5325,
      "minim": 5326,
      "Col": 5327,
      "strateg": 5328,
      "eria": 5329,
      "package": 5330,
      "rael": 5331,
      "flow": 5332,
      "unities": 5333,
      "applications": 5334,
      "vered": 5335,
      "South": 5336,
      "wood": 5337,
      "liber": 5338,
      "choice": 5339,
      "dig": 5340,
      "extra": 5341,
      "equipment": 5342,
      "agricultural": 5343,
      "Israel": 5344,
      "efficient": 5345,
      "Just": 5346,
      "doub": 5347,
      "Court": 5348,
      "benefit": 5349,
      "aking": 5350,
      "Here": 5351,
      "purch": 5352,
      "English": 5353,
      "SCORE": 5354,
      "note": 5355,
      "UNDERSCORE": 5356,
      "objective": 5357,
      "infr": 5358,
      "pite": 5359,
      "answer": 5360,
      "wise": 5361,
      "America": 5362,
      "border": 5363,
      "indows": 5364,
      "ley": 5365,
      "tell": 5366,
      "style": 5367,
      "reports": 5368,
      "iddle": 5369,
      "anish": 5370,
      "Artic": 5371,
      "quickly": 5372,
      "integration": 5373,
      "Some": 5374,
      "lik": 5375,
      "Now": 5376,
      "Su": 5377,
      "regular": 5378,
      "wat": 5379,
      "display": 5380,
      "dire": 5381,
      "engine": 5382,
      "fortunately": 5383,
      "transfer": 5384,
      "IC": 5385,
      "industrial": 5386,
      "promise": 5387,
      "goods": 5388,
      "beginning": 5389,
      "treatment": 5390,
      "successful": 5391,
      "popular": 5392,
      "simple": 5393,
      "mechan": 5394,
      "EN": 5395,
      "estern": 5396,
      "below": 5397,
      "learn": 5398,
      "Fe": 5399,
      "achieved": 5400,
      "computer": 5401,
      "influ": 5402,
      "consist": 5403,
      "Go": 5404,
      "affic": 5405,
      "tered": 5406,
      "plies": 5407,
      "oil": 5408,
      "creation": 5409,
      "contains": 5410,
      "six": 5411,
      "gain": 5412,
      "hic": 5413,
      "congrat": 5414,
      "indeed": 5415,
      "stage": 5416,
      "wers": 5417,
      "hind": 5418,
      "enda": 5419,
      "center": 5420,
      "limited": 5421,
      "TO": 5422,
      "gard": 5423,
      "Gree": 5424,
      "Finally": 5425,
      "Affairs": 5426,
      "series": 5427,
      "internet": 5428,
      "seems": 5429,
      "Amend": 5430,
      "placed": 5431,
      "antic": 5432,
      "famil": 5433,
      "asse": 5434,
      "former": 5435,
      "Cont": 5436,
      "iveness": 5437,
      "leaders": 5438,
      "carry": 5439,
      "dialogue": 5440,
      "ES": 5441,
      "recently": 5442,
      "commercial": 5443,
      "absol": 5444,
      "June": 5445,
      "tas": 5446,
      "Bal": 5447,
      "presented": 5448,
      "scient": 5449,
      "Str": 5450,
      "Berlin": 5451,
      "grad": 5452,
      "keyword": 5453,
      "ensu": 5454,
      "highly": 5455,
      "aving": 5456,
      "Gener": 5457,
      "Rep": 5458,
      "relev": 5459,
      "avoid": 5460,
      "rates": 5461,
      "stances": 5462,
      "ously": 5463,
      "pain": 5464,
      "levels": 5465,
      "automat": 5466,
      "everyone": 5467,
      "agreed": 5468,
      "consumers": 5469,
      "theless": 5470,
      "floor": 5471,
      "smo": 5472,
      "carried": 5473,
      "lection": 5474,
      "huge": 5475,
      "acqu": 5476,
      "differen": 5477,
      "East": 5478,
      "empor": 5479,
      "office": 5480,
      "increased": 5481,
      "oks": 5482,
      "atmo": 5483,
      "foot": 5484,
      "asked": 5485,
      "amendment": 5486,
      "added": 5487,
      "reviews": 5488,
      "preh": 5489,
      "Further": 5490,
      "appear": 5491,
      "governments": 5492,
      "attempt": 5493,
      "traffic": 5494,
      "places": 5495,
      "Ma": 5496,
      "enlarge": 5497,
      "za": 5498,
      "park": 5499,
      "covered": 5500,
      "inal": 5501,
      "principles": 5502,
      "supply": 5503,
      "Per": 5504,
      "whose": 5505,
      "modif": 5506,
      "Fran": 5507,
      "attack": 5508,
      "fig": 5509,
      "balance": 5510,
      "Therefore": 5511,
      "challeng": 5512,
      "furn": 5513,
      "clud": 5514,
      "ties": 5515,
      "fit": 5516,
      "news": 5517,
      "subsid": 5518,
      "commitment": 5519,
      "Dr": 5520,
      "choose": 5521,
      "direction": 5522,
      "sustainable": 5523,
      "shows": 5524,
      "higher": 5525,
      "perhaps": 5526,
      "ills": 5527,
      "idered": 5528,
      "possibility": 5529,
      "ony": 5530,
      "crib": 5531,
      "dy": 5532,
      "spac": 5533,
      "unch": 5534,
      "obtain": 5535,
      "Secon": 5536,
      "ike": 5537,
      "scre": 5538,
      "enable": 5539,
      "size": 5540,
      "shown": 5541,
      "prim": 5542,
      "nuclear": 5543,
      "Ju": 5544,
      "matters": 5545,
      "tem": 5546,
      "Second": 5547,
      "organis": 5548,
      "vehic": 5549,
      "analys": 5550,
      "reflect": 5551,
      "San": 5552,
      "olf": 5553,
      "thanks": 5554,
      "Article": 5555,
      "ends": 5556,
      "Val": 5557,
      "considered": 5558,
      "altern": 5559,
      "double": 5560,
      "sco": 5561,
      "effects": 5562,
      "aspects": 5563,
      "stress": 5564,
      "rid": 5565,
      "prepared": 5566,
      "ene": 5567,
      "promote": 5568,
      "ona": 5569,
      "similar": 5570,
      "review": 5571,
      "Web": 5572,
      "optim": 5573,
      "mic": 5574,
      "sufficient": 5575,
      "anti": 5576,
      "2005": 5577,
      "harmon": 5578,
      "rup": 5579,
      "exchange": 5580,
      "iles": 5581,
      "appoint": 5582,
      "capacity": 5583,
      "OR": 5584,
      "latest": 5585,
      "closed": 5586,
      "conv": 5587,
      "hab": 5588,
      "artic": 5589,
      "opportunities": 5590,
      "summer": 5591,
      "Oc": 5592,
      "ye": 5593,
      "Social": 5594,
      "jour": 5595,
      "AG": 5596,
      "behind": 5597,
      "rain": 5598,
      "pressure": 5599,
      "hotels": 5600,
      "materials": 5601,
      "gar": 5602,
      "worth": 5603,
      "Spain": 5604,
      "Me": 5605,
      "reached": 5606,
      "Ge": 5607,
      "fici": 5608,
      "external": 5609,
      "response": 5610,
      "dict": 5611,
      "exhib": 5612,
      "issions": 5613,
      "ken": 5614,
      "urch": 5615,
      "decided": 5616,
      "exe": 5617,
      "tool": 5618,
      "22": 5619,
      "credit": 5620,
      "ering": 5621,
      "Im": 5622,
      "submitted": 5623,
      "providing": 5624,
      "wonder": 5625,
      "Roman": 5626,
      "death": 5627,
      "determin": 5628,
      "easily": 5629,
      "reduce": 5630,
      "encies": 5631,
      "produced": 5632,
      "reser": 5633,
      "70": 5634,
      "Sept": 5635,
      "hous": 5636,
      "AP": 5637,
      "apan": 5638,
      "RO": 5639,
      "Central": 5640,
      "enlargement": 5641,
      "arily": 5642,
      "ees": 5643,
      "resh": 5644,
      "compreh": 5645,
      "atmosphere": 5646,
      "talk": 5647,
      "priority": 5648,
      "Republic": 5649,
      "gives": 5650,
      "relevant": 5651,
      "video": 5652,
      "accommodation": 5653,
      "immigr": 5654,
      "funding": 5655,
      "details": 5656,
      "cember": 5657,
      "multi": 5658,
      "sch": 5659,
      "loss": 5660,
      "labor": 5661,
      "ker": 5662,
      "Italy": 5663,
      "preci": 5664,
      "island": 5665,
      "etary": 5666,
      "ale": 5667,
      "supported": 5668,
      "War": 5669,
      "logies": 5670,
      "conduct": 5671,
      "cand": 5672,
      "neigh": 5673,
      "code": 5674,
      "remains": 5675,
      "2004": 5676,
      "consumer": 5677,
      "announ": 5678,
      "ware": 5679,
      "September": 5680,
      "guarante": 5681,
      "secure": 5682,
      "December": 5683,
      "archite": 5684,
      "numer": 5685,
      "ases": 5686,
      "Africa": 5687,
      "box": 5688,
      "Japan": 5689,
      "manufacture": 5690,
      "grant": 5691,
      "independent": 5692,
      "tober": 5693,
      "Au": 5694,
      "prise": 5695,
      "iterran": 5696,
      "Cor": 5697,
      "iber": 5698,
      "Lo": 5699,
      "standing": 5700,
      "rely": 5701,
      "inste": 5702,
      "istics": 5703,
      "billion": 5704,
      "acceptable": 5705,
      "ites": 5706,
      "leave": 5707,
      "produce": 5708,
      "assistance": 5709,
      "AD": 5710,
      "tation": 5711,
      "purpose": 5712,
      "property": 5713,
      "green": 5714,
      "21": 5715,
      "movement": 5716,
      "thous": 5717,
      "creating": 5718,
      "rule": 5719,
      "March": 5720,
      "ption": 5721,
      "adap": 5722,
      "nice": 5723,
      "Convention": 5724,
      "regulations": 5725,
      "cident": 5726,
      "club": 5727,
      "categories": 5728,
      "prepar": 5729,
      "iterranean": 5730,
      "fix": 5731,
      "track": 5732,
      "highlight": 5733,
      "pleased": 5734,
      "path": 5735,
      "activity": 5736,
      "else": 5737,
      "brought": 5738,
      "territ": 5739,
      "maxim": 5740,
      "Tod": 5741,
      "largest": 5742,
      "Trans": 5743,
      "bey": 5744,
      "pie": 5745,
      "ij": 5746,
      "base": 5747,
      "curren": 5748,
      "source": 5749,
      "January": 5750,
      "steps": 5751,
      "bro": 5752,
      "Gre": 5753,
      "iation": 5754,
      "ening": 5755,
      "una": 5756,
      "fishing": 5757,
      "cup": 5758,
      "perform": 5759,
      "click": 5760,
      "school": 5761,
      "written": 5762,
      "explain": 5763,
      "alu": 5764,
      "CD": 5765,
      "Hu": 5766,
      "discussion": 5767,
      "measure": 5768,
      "mobile": 5769,
      "conference": 5770,
      "org": 5771,
      "strengthen": 5772,
      "neg": 5773,
      "sl": 5774,
      "Ser": 5775,
      "variety": 5776,
      "ana": 5777,
      "ometimes": 5778,
      "message": 5779,
      "Develop": 5780,
      "deep": 5781,
      "danger": 5782,
      "regards": 5783,
      "ays": 5784,
      "forget": 5785,
      "iture": 5786,
      "map": 5787,
      "instead": 5788,
      "ball": 5789,
      "section": 5790,
      "2003": 5791,
      "October": 5792,
      "Mediterranean": 5793,
      "plant": 5794,
      "repe": 5795,
      "Bank": 5796,
      "stability": 5797,
      "counter": 5798,
      "allowed": 5799,
      "became": 5800,
      "PC": 5801,
      "Service": 5802,
      "Italian": 5803,
      "198": 5804,
      "ficiency": 5805,
      "interesting": 5806,
      "obvious": 5807,
      "construct": 5808,
      "relationship": 5809,
      "astic": 5810,
      "spo": 5811,
      "dut": 5812,
      "guid": 5813,
      "scal": 5814,
      "giving": 5815,
      "started": 5816,
      "conven": 5817,
      "structure": 5818,
      "effort": 5819,
      "National": 5820,
      "quare": 5821,
      "Minister": 5822,
      "procedures": 5823,
      "prob": 5824,
      "British": 5825,
      "compromise": 5826,
      "medium": 5827,
      "warm": 5828,
      "Today": 5829,
      "distribution": 5830,
      "compon": 5831,
      "server": 5832,
      "demonstr": 5833,
      "pover": 5834,
      "die": 5835,
      "ada": 5836,
      "Che": 5837,
      "types": 5838,
      "lies": 5839,
      "paid": 5840,
      "study": 5841,
      "advantage": 5842,
      "partner": 5843,
      "Every": 5844,
      "contribution": 5845,
      "exer": 5846,
      "icy": 5847,
      "son": 5848,
      "aily": 5849,
      "wall": 5850,
      "orrow": 5851,
      "cks": 5852,
      "enh": 5853,
      "North": 5854,
      "cul": 5855,
      "exact": 5856,
      "payment": 5857,
      "provisions": 5858,
      "equal": 5859,
      "mem": 5860,
      "status": 5861,
      "statement": 5862,
      "instruments": 5863,
      "damage": 5864,
      "emporary": 5865,
      "task": 5866,
      "prises": 5867,
      "Her": 5868,
      "bad": 5869,
      "depart": 5870,
      "limit": 5871,
      "During": 5872,
      "instrument": 5873,
      "coast": 5874,
      "raq": 5875,
      "quiet": 5876,
      "criteria": 5877,
      "restaurants": 5878,
      "enced": 5879,
      "labour": 5880,
      "ourselves": 5881,
      "violence": 5882,
      "tit": 5883,
      "plat": 5884,
      "documents": 5885,
      "aries": 5886,
      "27": 5887,
      "relig": 5888,
      "served": 5889,
      "poses": 5890,
      "Spanish": 5891,
      "operating": 5892,
      "Mic": 5893,
      "ring": 5894,
      "electron": 5895,
      "lives": 5896,
      "General": 5897,
      "reserv": 5898,
      "El": 5899,
      "apartment": 5900,
      "distance": 5901,
      "draft": 5902,
      "July": 5903,
      "yl": 5904,
      "historical": 5905,
      "bank": 5906,
      "cript": 5907,
      "IM": 5908,
      "Dis": 5909,
      "Mark": 5910,
      "serve": 5911,
      "pread": 5912,
      "ned": 5913,
      "minor": 5914,
      "integrated": 5915,
      "dim": 5916,
      "airport": 5917,
      "EL": 5918,
      "Ko": 5919,
      "thin": 5920,
      "reading": 5921,
      "swim": 5922,
      "wine": 5923,
      "2001": 5924,
      "Sal": 5925,
      "benefits": 5926,
      "sche": 5927,
      "istan": 5928,
      "Many": 5929,
      "constant": 5930,
      "Democr": 5931,
      "ai": 5932,
      "transparency": 5933,
      "drive": 5934,
      "rat": 5935,
      "ision": 5936,
      "highest": 5937,
      "reject": 5938,
      "eth": 5939,
      "elements": 5940,
      "burg": 5941,
      "immediately": 5942,
      "village": 5943,
      "constit": 5944,
      "bot": 5945,
      "growing": 5946,
      "happy": 5947,
      "sou": 5948,
      "finally": 5949,
      "goes": 5950,
      "evalu": 5951,
      "changed": 5952,
      "employees": 5953,
      "forces": 5954,
      "vember": 5955,
      "ny": 5956,
      "Your": 5957,
      "legislative": 5958,
      "Furthermore": 5959,
      "Rights": 5960,
      "liberal": 5961,
      "uted": 5962,
      "agenda": 5963,
      "applied": 5964,
      "Although": 5965,
      "late": 5966,
      "film": 5967,
      "numerous": 5968,
      "Iraq": 5969,
      "ID": 5970,
      "useful": 5971,
      "argu": 5972,
      "poor": 5973,
      "ama": 5974,
      "Windows": 5975,
      "tools": 5976,
      "Ver": 5977,
      "elections": 5978,
      "November": 5979,
      "processes": 5980,
      "links": 5981,
      "solidarity": 5982,
      "astru": 5983,
      "Sol": 5984,
      "challenges": 5985,
      "uel": 5986,
      "reality": 5987,
      "IP": 5988,
      "arter": 5989,
      "Swed": 5990,
      "digital": 5991,
      "analysis": 5992,
      "daily": 5993,
      "copy": 5994,
      "poverty": 5995,
      "lux": 5996,
      "ivity": 5997,
      "lower": 5998,
      "enge": 5999,
      "Apr": 6000,
      "practical": 6001,
      "saying": 6002,
      "crucial": 6003,
      "soft": 6004,
      "OS": 6005,
      "ception": 6006,
      "occas": 6007,
      "King": 6008,
      "victim": 6009,
      "fire": 6010,
      "consequences": 6011,
      "Mus": 6012,
      "trip": 6013,
      "friends": 6014,
      "colleagues": 6015,
      "--": 6016,
      "teach": 6017,
      "conflict": 6018,
      "Lin": 6019,
      "iment": 6020,
      "ane": 6021,
      "sho": 6022,
      "ager": 6023,
      "persons": 6024,
      "Park": 6025,
      "Mal": 6026,
      "West": 6027,
      "Ph": 6028,
      "aign": 6029,
      "historic": 6030,
      "rs": 6031,
      "email": 6032,
      "offering": 6033,
      "ened": 6034,
      "Inter": 6035,
      "hesion": 6036,
      "beyond": 6037,
      "formation": 6038,
      "vere": 6039,
      "occur": 6040,
      "institutional": 6041,
      "cert": 6042,
      "apartments": 6043,
      "ps": 6044,
      "Palest": 6045,
      "vac": 6046,
      "Bu": 6047,
      "2002": 6048,
      "implemented": 6049,
      "thought": 6050,
      "cription": 6051,
      "requires": 6052,
      "weak": 6053,
      "adequ": 6054,
      "congratulate": 6055,
      "hair": 6056,
      "ideas": 6057,
      "sales": 6058,
      "April": 6059,
      "frequ": 6060,
      "terrorism": 6061,
      "tomorrow": 6062,
      "published": 6063,
      "organisations": 6064,
      "offered": 6065,
      "waste": 6066,
      "utely": 6067,
      "season": 6068,
      "minimum": 6069,
      "infrastru": 6070,
      "speech": 6071,
      "oud": 6072,
      "efficiency": 6073,
      "Loc": 6074,
      "renew": 6075,
      "remo": 6076,
      "doubt": 6077,
      "Party": 6078,
      "partnership": 6079,
      "TH": 6080,
      "discrim": 6081,
      "Development": 6082,
      "reference": 6083,
      "starting": 6084,
      "monitoring": 6085,
      "weeks": 6086,
      "Even": 6087,
      "500": 6088,
      "wanted": 6089,
      "circum": 6090,
      "meaning": 6091,
      "Amendment": 6092,
      "buy": 6093,
      "icated": 6094,
      "Tech": 6095,
      "liance": 6096,
      "machine": 6097,
      "stor": 6098,
      "reduction": 6099,
      "Pl": 6100,
      "clients": 6101,
      "Ste": 6102,
      "mous": 6103,
      "comprehensive": 6104,
      "mix": 6105,
      "voting": 6106,
      "AM": 6107,
      "rend": 6108,
      "Sk": 6109,
      "arm": 6110,
      "ilater": 6111,
      "maximum": 6112,
      "options": 6113,
      "relating": 6114,
      "fine": 6115,
      "pursu": 6116,
      "surance": 6117,
      "sometimes": 6118,
      "usion": 6119,
      "spirit": 6120,
      "Western": 6121,
      "tur": 6122,
      "Paris": 6123,
      "advert": 6124,
      "urg": 6125,
      "Directive": 6126,
      "caused": 6127,
      "campaign": 6128,
      "SE": 6129,
      "critic": 6130,
      "morning": 6131,
      "accordance": 6132,
      "cape": 6133,
      "90": 6134,
      "sports": 6135,
      "vital": 6136,
      "itarian": 6137,
      "interested": 6138,
      "farmers": 6139,
      "itors": 6140,
      "accession": 6141,
      "parking": 6142,
      "players": 6143,
      "technologies": 6144,
      "wind": 6145,
      "forest": 6146,
      "anything": 6147,
      "sport": 6148,
      "heav": 6149,
      "ederal": 6150,
      "Te": 6151,
      "ague": 6152,
      "proving": 6153,
      "High": 6154,
      "probably": 6155,
      "scientific": 6156,
      "While": 6157,
      "extent": 6158,
      "City": 6159,
      "methods": 6160,
      "pictures": 6161,
      "marks": 6162,
      "powers": 6163,
      "phys": 6164,
      "bers": 6165,
      "estic": 6166,
      "rapid": 6167,
      "session": 6168,
      "languages": 6169,
      "worldwide": 6170,
      "interpre": 6171,
      "ava": 6172,
      "concent": 6173,
      "cience": 6174,
      "challenge": 6175,
      "Thank": 6176,
      "div": 6177,
      "Aug": 6178,
      "ouch": 6179,
      "ultim": 6180,
      "assu": 6181,
      "release": 6182,
      "describ": 6183,
      "inese": 6184,
      "Austria": 6185,
      "aver": 6186,
      "ney": 6187,
      "sectors": 6188,
      "ients": 6189,
      "ades": 6190,
      "clos": 6191,
      "craft": 6192,
      "processing": 6193,
      "shopping": 6194,
      "arrange": 6195,
      "isters": 6196,
      "player": 6197,
      "ano": 6198,
      "specif": 6199,
      "innovative": 6200,
      "hot": 6201,
      "26": 6202,
      "sil": 6203,
      "Iran": 6204,
      "alone": 6205,
      "images": 6206,
      "omic": 6207,
      "selection": 6208,
      "candid": 6209,
      "chance": 6210,
      "band": 6211,
      "businesses": 6212,
      "sole": 6213,
      "sha": 6214,
      "garden": 6215,
      "She": 6216,
      "suring": 6217,
      "street": 6218,
      "System": 6219,
      "shops": 6220,
      "gg": 6221,
      "fields": 6222,
      "sort": 6223,
      "justice": 6224,
      "config": 6225,
      "sex": 6226,
      "swimming": 6227,
      "scale": 6228,
      "calls": 6229,
      "bathroom": 6230,
      "likely": 6231,
      "ba": 6232,
      "expert": 6233,
      "cities": 6234,
      "appreci": 6235,
      "strategic": 6236,
      "hom": 6237,
      "adjust": 6238,
      "kitch": 6239,
      "visitors": 6240,
      "games": 6241,
      "raised": 6242,
      "valid": 6243,
      "accepted": 6244,
      "initial": 6245,
      "exerc": 6246,
      "annual": 6247,
      "cot": 6248,
      "guard": 6249,
      "join": 6250,
      "ivery": 6251,
      "occup": 6252,
      "lost": 6253,
      "reland": 6254,
      "operate": 6255,
      "bian": 6256,
      "sitting": 6257,
      "influence": 6258,
      "Secondly": 6259,
      "despite": 6260,
      "absolutely": 6261,
      "genu": 6262,
      "Ireland": 6263,
      "honour": 6264,
      "sav": 6265,
      "upd": 6266,
      "28": 6267,
      "affected": 6268,
      "adopt": 6269,
      "ift": 6270,
      "brow": 6271,
      "fre": 6272,
      "trying": 6273,
      "demands": 6274,
      "fresh": 6275,
      "zone": 6276,
      "namely": 6277,
      "trust": 6278,
      "drug": 6279,
      "1999": 6280,
      "izing": 6281,
      "mid": 6282,
      "decor": 6283,
      "earch": 6284,
      "UK": 6285,
      "va": 6286,
      "Econ": 6287,
      "borders": 6288,
      "illa": 6289,
      "urgent": 6290,
      "investig": 6291,
      "involve": 6292,
      "hour": 6293,
      "www": 6294,
      "tick": 6295,
      "restrict": 6296,
      "Chinese": 6297,
      "zz": 6298,
      "iqu": 6299,
      "south": 6300,
      "intended": 6301,
      "innovation": 6302,
      "worked": 6303,
      "abs": 6304,
      "itude": 6305,
      "Tour": 6306,
      "elines": 6307,
      "letter": 6308,
      "lier": 6309,
      "minute": 6310,
      "motor": 6311,
      "representatives": 6312,
      "menu": 6313,
      "cin": 6314,
      "Rooms": 6315,
      "opening": 6316,
      "ilateral": 6317,
      "Moreover": 6318,
      "Conference": 6319,
      "overall": 6320,
      "heard": 6321,
      "san": 6322,
      "spr": 6323,
      "din": 6324,
      "yourself": 6325,
      "raph": 6326,
      "Russian": 6327,
      "proceed": 6328,
      "expected": 6329,
      "berg": 6330,
      "critical": 6331,
      "initiatives": 6332,
      "expressed": 6333,
      "wrong": 6334,
      "Ob": 6335,
      "resort": 6336,
      "LE": 6337,
      "ls": 6338,
      "alternative": 6339,
      "ender": 6340,
      "feed": 6341,
      "eleg": 6342,
      "fest": 6343,
      "posit": 6344,
      "las": 6345,
      "cret": 6346,
      "usually": 6347,
      "Only": 6348,
      "suitable": 6349,
      "Public": 6350,
      "forced": 6351,
      "committed": 6352,
      "illegal": 6353,
      "substant": 6354,
      "isely": 6355,
      "mbH": 6356,
      "remind": 6357,
      "running": 6358,
      "clar": 6359,
      "passeng": 6360,
      "screen": 6361,
      "mainly": 6362,
      "talking": 6363,
      "award": 6364,
      "laws": 6365,
      "plans": 6366,
      "Lu": 6367,
      "approved": 6368,
      "Bus": 6369,
      "Other": 6370,
      "van": 6371,
      "kitchen": 6372,
      "hood": 6373,
      "rise": 6374,
      "hn": 6375,
      "alle": 6376,
      "Lond": 6377,
      "Constitution": 6378,
      "tourist": 6379,
      "white": 6380,
      "Are": 6381,
      "goal": 6382,
      "walking": 6383,
      "virt": 6384,
      "deliver": 6385,
      "uge": 6386,
      "spend": 6387,
      "University": 6388,
      "confidence": 6389,
      "ico": 6390,
      "acts": 6391,
      "Its": 6392,
      "ata": 6393,
      "datab": 6394,
      "scope": 6395,
      "born": 6396,
      "planning": 6397,
      "cohesion": 6398,
      "Gen": 6399,
      "administration": 6400,
      "entr": 6401,
      "Bre": 6402,
      "Centre": 6403,
      "suffer": 6404,
      "cou": 6405,
      "London": 6406,
      "improved": 6407,
      "lick": 6408,
      "evening": 6409,
      "GmbH": 6410,
      "terrace": 6411,
      "mill": 6412,
      "black": 6413,
      "35": 6414,
      "comments": 6415,
      "banks": 6416,
      "currency": 6417,
      "fellow": 6418,
      "Free": 6419,
      "mand": 6420,
      "Star": 6421,
      "automatically": 6422,
      "Lat": 6423,
      "families": 6424,
      "decide": 6425,
      "delivery": 6426,
      "client": 6427,
      "conclusion": 6428,
      "mut": 6429,
      "ease": 6430,
      "univers": 6431,
      "Ter": 6432,
      "feature": 6433,
      "fru": 6434,
      "undred": 6435,
      "competitive": 6436,
      "cluded": 6437,
      "circumstances": 6438,
      "45": 6439,
      "love": 6440,
      "augh": 6441,
      "protected": 6442,
      "reduced": 6443,
      "August": 6444,
      "coordin": 6445,
      "collection": 6446,
      "priorities": 6447,
      "went": 6448,
      "hear": 6449,
      "reforms": 6450,
      "Cz": 6451,
      "whom": 6452,
      "nic": 6453,
      "increasingly": 6454,
      "Security": 6455,
      "satisf": 6456,
      "structural": 6457,
      "helpful": 6458,
      "scr": 6459,
      "supports": 6460,
      "deg": 6461,
      "izes": 6462,
      "contribute": 6463,
      "Sum": 6464,
      "Agree": 6465,
      "crime": 6466,
      "oral": 6467,
      "introduced": 6468,
      "ini": 6469,
      "defined": 6470,
      "CE": 6471,
      "People": 6472,
      "says": 6473,
      "founded": 6474,
      "poll": 6475,
      "roy": 6476,
      "Eas": 6477,
      "stable": 6478,
      "regime": 6479,
      "cele": 6480,
      "began": 6481,
      "emissions": 6482,
      "Accord": 6483,
      "students": 6484,
      "ensuring": 6485,
      "agraph": 6486,
      "wo": 6487,
      "pleasant": 6488,
      "Palestin": 6489,
      "accoun": 6490,
      "perman": 6491,
      "tabled": 6492,
      "ream": 6493,
      "infrastructure": 6494,
      "extensive": 6495,
      "victims": 6496,
      "Play": 6497,
      "museum": 6498,
      "separate": 6499,
      "plants": 6500,
      "lam": 6501,
      "paper": 6502,
      "electronic": 6503,
      "nes": 6504,
      "export": 6505,
      "functions": 6506,
      "encourage": 6507,
      "Os": 6508,
      "197": 6509,
      "brand": 6510,
      "SP": 6511,
      "perspect": 6512,
      "unemployment": 6513,
      "Hung": 6514,
      "motion": 6515,
      "inary": 6516,
      "ford": 6517,
      "idge": 6518,
      "ka": 6519,
      "effectively": 6520,
      "prefer": 6521,
      "29": 6522,
      "medic": 6523,
      "installation": 6524,
      "Cal": 6525,
      "powerful": 6526,
      "played": 6527,
      "los": 6528,
      "agriculture": 6529,
      "participation": 6530,
      "celebr": 6531,
      "specifically": 6532,
      "fur": 6533,
      "acking": 6534,
      "itation": 6535,
      "speaking": 6536,
      "hop": 6537,
      "understanding": 6538,
      "sources": 6539,
      "aves": 6540,
      "referred": 6541,
      "Ab": 6542,
      "comment": 6543,
      "belong": 6544,
      "Nations": 6545,
      "mas": 6546,
      "Each": 6547,
      "manner": 6548,
      "detailed": 6549,
      "Red": 6550,
      "dead": 6551,
      "wards": 6552,
      "animals": 6553,
      "Mer": 6554,
      "da": 6555,
      "Slo": 6556,
      "orient": 6557,
      "Uk": 6558,
      "kers": 6559,
      "stated": 6560,
      "Cas": 6561,
      "listed": 6562,
      "PL": 6563,
      "ferences": 6564,
      "dish": 6565,
      "attle": 6566,
      "larger": 6567,
      "hundred": 6568,
      "purposes": 6569,
      "ür": 6570,
      "ordination": 6571,
      "God": 6572,
      "willing": 6573,
      "umb": 6574,
      "Czech": 6575,
      "opened": 6576,
      "ru": 6577,
      "managed": 6578,
      "aimed": 6579,
      "phas": 6580,
      "Mac": 6581,
      "Also": 6582,
      "Mor": 6583,
      "entry": 6584,
      "resist": 6585,
      "Indeed": 6586,
      "discussed": 6587,
      "deleg": 6588,
      "itzer": 6589,
      "rural": 6590,
      "linked": 6591,
      "booking": 6592,
      "remember": 6593,
      "atively": 6594,
      "winter": 6595,
      "Any": 6596,
      "positions": 6597,
      "precisely": 6598,
      "compar": 6599,
      "According": 6600,
      "exactly": 6601,
      "Sof": 6602,
      "chem": 6603,
      "represents": 6604,
      "dynam": 6605,
      "convin": 6606,
      "assessment": 6607,
      "Sim": 6608,
      "becoming": 6609,
      "getting": 6610,
      "selected": 6611,
      "geo": 6612,
      "cip": 6613,
      "prem": 6614,
      "Febr": 6615,
      "cers": 6616,
      "corporate": 6617,
      "electric": 6618,
      "Program": 6619,
      "confirm": 6620,
      "budgetary": 6621,
      "police": 6622,
      "developments": 6623,
      "constitution": 6624,
      "Human": 6625,
      "wants": 6626,
      "Ukrain": 6627,
      "satisfact": 6628,
      "tt": 6629,
      "pol": 6630,
      "discussions": 6631,
      "300": 6632,
      "His": 6633,
      "button": 6634,
      "camera": 6635,
      "deser": 6636,
      "conver": 6637,
      "Then": 6638,
      "introduction": 6639,
      "risks": 6640,
      "ull": 6641,
      "enterprises": 6642,
      "February": 6643,
      "Sun": 6644,
      "Barcel": 6645,
      "adequate": 6646,
      "normal": 6647,
      "prison": 6648,
      "valu": 6649,
      "rac": 6650,
      "urs": 6651,
      "regret": 6652,
      "thousands": 6653,
      "ulture": 6654,
      "idential": 6655,
      "brief": 6656,
      "otherwise": 6657,
      "format": 6658,
      "medical": 6659,
      "color": 6660,
      "Why": 6661,
      "Ir": 6662,
      "sized": 6663,
      "India": 6664,
      "spread": 6665,
      "houses": 6666,
      "closely": 6667,
      "facilit": 6668,
      "nal": 6669,
      "ios": 6670,
      "operations": 6671,
      "nation": 6672,
      "administrative": 6673,
      "guidelines": 6674,
      "earlier": 6675,
      "mir": 6676,
      "provision": 6677,
      "weap": 6678,
      "gt": 6679,
      "uration": 6680,
      "itzerland": 6681,
      "programs": 6682,
      "belie": 6683,
      "oth": 6684,
      "hosp": 6685,
      "connected": 6686,
      "metres": 6687,
      "kill": 6688,
      "itiveness": 6689,
      "cycl": 6690,
      "wonderful": 6691,
      "discrimination": 6692,
      "followed": 6693,
      "Cy": 6694,
      "Agreement": 6695,
      "profit": 6696,
      "Switzerland": 6697,
      "ault": 6698,
      "supporting": 6699,
      "buildings": 6700,
      "inside": 6701,
      "weight": 6702,
      "correspond": 6703,
      "pas": 6704,
      "wid": 6705,
      "PE": 6706,
      "bio": 6707,
      "Act": 6708,
      "Apart": 6709,
      "pal": 6710,
      "actual": 6711,
      "tourism": 6712,
      "north": 6713,
      "immigration": 6714,
      "degree": 6715,
      "exclusive": 6716,
      "symb": 6717,
      "Hol": 6718,
      "saw": 6719,
      "considerable": 6720,
      "urally": 6721,
      "Sea": 6722,
      "improving": 6723,
      "Tra": 6724,
      "discover": 6725,
      "organisation": 6726,
      "Sub": 6727,
      "compens": 6728,
      "ito": 6729,
      "playing": 6730,
      "gal": 6731,
      "networks": 6732,
      "facing": 6733,
      "ham": 6734,
      "impress": 6735,
      "Enter": 6736,
      "uck": 6737,
      "anks": 6738,
      "ange": 6739,
      "enor": 6740,
      "temper": 6741,
      "duty": 6742,
      "lying": 6743,
      "istered": 6744,
      "properly": 6745,
      "ensions": 6746,
      "ork": 6747,
      "marketing": 6748,
      "tack": 6749,
      "Cap": 6750,
      "graphic": 6751,
      "legit": 6752,
      "MS": 6753,
      "components": 6754,
      "substantial": 6755,
      "save": 6756,
      "Middle": 6757,
      "combat": 6758,
      "owned": 6759,
      "entit": 6760,
      "purchase": 6761,
      "Asia": 6762,
      "enty": 6763,
      "Last": 6764,
      "drawn": 6765,
      "accur": 6766,
      "Greece": 6767,
      "Barcelona": 6768,
      "Christian": 6769,
      "lap": 6770,
      "presence": 6771,
      "debt": 6772,
      "telephone": 6773,
      "ibe": 6774,
      "experts": 6775,
      "block": 6776,
      "suppli": 6777,
      "animal": 6778,
      "31": 6779,
      "CH": 6780,
      "Policy": 6781,
      "income": 6782,
      "typical": 6783,
      "IL": 6784,
      "Swiss": 6785,
      "financing": 6786,
      "offee": 6787,
      "stock": 6788,
      "ti": 6789,
      "relate": 6790,
      "fisheries": 6791,
      "picture": 6792,
      "delay": 6793,
      "presidency": 6794,
      "paragraph": 6795,
      "generation": 6796,
      "Green": 6797,
      "cry": 6798,
      "miss": 6799,
      "ureau": 6800,
      "OL": 6801,
      "Most": 6802,
      "thinking": 6803,
      "yer": 6804,
      "watch": 6805,
      "clude": 6806,
      "compat": 6807,
      "bear": 6808,
      "beds": 6809,
      "DV": 6810,
      "ussels": 6811,
      "coordination": 6812,
      "unic": 6813,
      "Er": 6814,
      "entirely": 6815,
      "criminal": 6816,
      "habit": 6817,
      "rou": 6818,
      "Art": 6819,
      "items": 6820,
      "ordinary": 6821,
      "command": 6822,
      "dealing": 6823,
      "modified": 6824,
      "hands": 6825,
      "competitiveness": 6826,
      "element": 6827,
      "core": 6828,
      "refuge": 6829,
      "flexible": 6830,
      "amber": 6831,
      "drop": 6832,
      "ength": 6833,
      "difficulties": 6834,
      "parliamentary": 6835,
      "cards": 6836,
      "generally": 6837,
      "summit": 6838,
      "Poland": 6839,
      "sell": 6840,
      "Cro": 6841,
      "Open": 6842,
      "slow": 6843,
      "stream": 6844,
      "gave": 6845,
      "authority": 6846,
      "Because": 6847,
      "crete": 6848,
      "stra": 6849,
      "raz": 6850,
      "tot": 6851,
      "informed": 6852,
      "ered": 6853,
      "Brussels": 6854,
      "portion": 6855,
      "expand": 6856,
      "mist": 6857,
      "bound": 6858,
      "Ed": 6859,
      "Turk": 6860,
      "consideration": 6861,
      "court": 6862,
      "syn": 6863,
      "ga": 6864,
      "machines": 6865,
      "iar": 6866,
      "Cast": 6867,
      "Never": 6868,
      "imag": 6869,
      "aint": 6870,
      "196": 6871,
      "spacious": 6872,
      "ella": 6873,
      "Fl": 6874,
      "Unfortunately": 6875,
      "applies": 6876,
      "percent": 6877,
      "average": 6878,
      "bes": 6879,
      "reception": 6880,
      "domin": 6881,
      "fixed": 6882,
      "Click": 6883,
      "vehicles": 6884,
      "chair": 6885,
      "settle": 6886,
      "SS": 6887,
      "plus": 6888,
      "dered": 6889,
      "elegant": 6890,
      "meetings": 6891,
      "abilities": 6892,
      "flexibility": 6893,
      "ids": 6894,
      "stead": 6895,
      "advance": 6896,
      "ado": 6897,
      "USA": 6898,
      "eco": 6899,
      "tocol": 6900,
      "agen": 6901,
      "registr": 6902,
      "ero": 6903,
      "Comp": 6904,
      "signed": 6905,
      "lose": 6906,
      "appears": 6907,
      "Economic": 6908,
      "becomes": 6909,
      "convenient": 6910,
      "square": 6911,
      "onom": 6912,
      "reasonable": 6913,
      "numbers": 6914,
      "Once": 6915,
      "peaceful": 6916,
      "experienced": 6917,
      "district": 6918,
      "isine": 6919,
      "Fo": 6920,
      "Belg": 6921,
      "atta": 6922,
      "Airport": 6923,
      "communications": 6924,
      "succeed": 6925,
      "bodies": 6926,
      "establishment": 6927,
      "aims": 6928,
      "sterdam": 6929,
      "Net": 6930,
      "UR": 6931,
      "beha": 6932,
      "stone": 6933,
      "ower": 6934,
      "estate": 6935,
      "vit": 6936,
      "vely": 6937,
      "courses": 6938,
      "terday": 6939,
      "confir": 6940,
      "Amsterdam": 6941,
      "politics": 6942,
      "sle": 6943,
      "practices": 6944,
      "Fore": 6945,
      "bind": 6946,
      "told": 6947,
      "preser": 6948,
      "ón": 6949,
      "owners": 6950,
      "calling": 6951,
      "promoting": 6952,
      "rout": 6953,
      "easier": 6954,
      "charged": 6955,
      "myself": 6956,
      "defence": 6957,
      "structures": 6958,
      "kept": 6959,
      "database": 6960,
      "blo": 6961,
      "himself": 6962,
      "Rest": 6963,
      "seriously": 6964,
      "Great": 6965,
      "radio": 6966,
      "sets": 6967,
      "Bul": 6968,
      "acknow": 6969,
      "accident": 6970,
      "EM": 6971,
      "shower": 6972,
      "York": 6973,
      "rant": 6974,
      "advanced": 6975,
      "hi": 6976,
      "elim": 6977,
      "Linux": 6978,
      "Over": 6979,
      "domestic": 6980,
      "hr": 6981,
      "ost": 6982,
      "failure": 6983,
      "subsidi": 6984,
      "ias": 6985,
      "FR": 6986,
      "isms": 6987,
      "Priv": 6988,
      "humanitarian": 6989,
      "voice": 6990,
      "cars": 6991,
      "cuisine": 6992,
      "mbly": 6993,
      "glass": 6994,
      "ancient": 6995,
      "kil": 6996,
      "stance": 6997,
      "middle": 6998,
      "ns": 6999,
      "translation": 7000,
      "differences": 7001,
      "continued": 7002,
      "names": 7003,
      "trend": 7004,
      "proof": 7005,
      "cutive": 7006,
      "associated": 7007,
      "Debian": 7008,
      "neighbour": 7009,
      "IV": 7010,
      "length": 7011,
      "buff": 7012,
      "Firstly": 7013,
      "penal": 7014,
      "Museum": 7015,
      "audio": 7016,
      "manage": 7017,
      "Micro": 7018,
      "consult": 7019,
      "zo": 7020,
      "sight": 7021,
      "urban": 7022,
      "implementing": 7023,
      "carefully": 7024,
      "concrete": 7025,
      "osen": 7026,
      "combination": 7027,
      "instance": 7028,
      "coffee": 7029,
      "happened": 7030,
      "models": 7031,
      "producers": 7032,
      "Services": 7033,
      "mm": 7034,
      "grounds": 7035,
      "exhibition": 7036,
      "icians": 7037,
      "statements": 7038,
      "condem": 7039,
      "opposition": 7040,
      "spent": 7041,
      "union": 7042,
      "Environment": 7043,
      "balanced": 7044,
      "song": 7045,
      "simpli": 7046,
      "seven": 7047,
      "Organ": 7048,
      "difference": 7049,
      "omb": 7050,
      "reducing": 7051,
      "DP": 7052,
      "anyone": 7053,
      "availability": 7054,
      "ahead": 7055,
      "sand": 7056,
      "Pre": 7057,
      "mil": 7058,
      "studies": 7059,
      "adoption": 7060,
      "beaches": 7061,
      "attractive": 7062,
      "leader": 7063,
      "released": 7064,
      "Koso": 7065,
      "agencies": 7066,
      "Grand": 7067,
      "recognition": 7068,
      "propose": 7069,
      "passed": 7070,
      "Budget": 7071,
      "Research": 7072,
      "changing": 7073,
      "Kingdom": 7074,
      "Har": 7075,
      "announced": 7076,
      "guarantees": 7077,
      "Up": 7078,
      "introduce": 7079,
      "collabor": 7080,
      "article": 7081,
      "Vien": 7082,
      "architecture": 7083,
      "reservation": 7084,
      "tor": 7085,
      "Bas": 7086,
      "described": 7087,
      "impossible": 7088,
      "governmental": 7089,
      "enn": 7090,
      "lif": 7091,
      "fear": 7092,
      "Vis": 7093,
      "evol": 7094,
      "improvement": 7095,
      "dimension": 7096,
      "rock": 7097,
      "immediate": 7098,
      "dangerous": 7099,
      "possibilities": 7100,
      "capable": 7101,
      "keeping": 7102,
      "membership": 7103,
      "trading": 7104,
      "truly": 7105,
      "genuine": 7106,
      "wishes": 7107,
      "marked": 7108,
      "Booking": 7109,
      "shared": 7110,
      "evidence": 7111,
      "Add": 7112,
      "forth": 7113,
      "ishing": 7114,
      "organiz": 7115,
      "delight": 7116,
      "dol": 7117,
      "unacceptable": 7118,
      "spl": 7119,
      "ulations": 7120,
      "taste": 7121,
      "votes": 7122,
      "bat": 7123,
      "uff": 7124,
      "transparent": 7125,
      "religious": 7126,
      "resto": 7127,
      "tel": 7128,
      "Frank": 7129,
      "fant": 7130,
      "behavi": 7131,
      "negative": 7132,
      "Wal": 7133,
      "quant": 7134,
      "Europeans": 7135,
      "insurance": 7136,
      "territory": 7137,
      "Board": 7138,
      "iling": 7139,
      "excess": 7140,
      "Je": 7141,
      "Due": 7142,
      "ience": 7143,
      "Business": 7144,
      "Associ": 7145,
      "tasks": 7146,
      "figures": 7147,
      "claims": 7148,
      "registered": 7149,
      "unfortunately": 7150,
      "television": 7151,
      "allowing": 7152,
      "river": 7153,
      "consumption": 7154,
      "ships": 7155,
      "Justice": 7156,
      "orial": 7157,
      "replace": 7158,
      "African": 7159,
      "noon": 7160,
      "approxim": 7161,
      "participate": 7162,
      "raise": 7163,
      "store": 7164,
      "installed": 7165,
      "desire": 7166,
      "devices": 7167,
      "respective": 7168,
      "sides": 7169,
      "reliable": 7170,
      "photograph": 7171,
      "learning": 7172,
      "continues": 7173,
      "advis": 7174,
      "matic": 7175,
      "completed": 7176,
      "touch": 7177,
      "Irish": 7178,
      "tenance": 7179,
      "enables": 7180,
      "seek": 7181,
      "WTO": 7182,
      "unless": 7183,
      "strongly": 7184,
      "ulated": 7185,
      "Aud": 7186,
      "Market": 7187,
      "packages": 7188,
      "chemical": 7189,
      "Stud": 7190,
      "combined": 7191,
      "rig": 7192,
      "books": 7193,
      "Pers": 7194,
      "monetary": 7195,
      "Ca": 7196,
      "entertain": 7197,
      "teen": 7198,
      "greatest": 7199,
      "piece": 7200,
      "ato": 7201,
      "Health": 7202,
      "surface": 7203,
      "Turkish": 7204,
      "wit": 7205,
      "NG": 7206,
      "Cam": 7207,
      "itious": 7208,
      "Arab": 7209,
      "Democrats": 7210,
      "transition": 7211,
      "delic": 7212,
      "unto": 7213,
      "Bur": 7214,
      "closer": 7215,
      "ctural": 7216,
      "arrival": 7217,
      "surrounding": 7218,
      "entitled": 7219,
      "hall": 7220,
      "platform": 7221,
      "rein": 7222,
      "Lad": 7223,
      "appeal": 7224,
      "pure": 7225,
      "seeing": 7226,
      "skills": 7227,
      "beauty": 7228,
      "meters": 7229,
      "expend": 7230,
      "ashion": 7231,
      "earth": 7232,
      "restr": 7233,
      "oppos": 7234,
      "sale": 7235,
      "Kar": 7236,
      "elected": 7237,
      "Fol": 7238,
      "tests": 7239,
      "profession": 7240,
      "ifying": 7241,
      "roll": 7242,
      "Prof": 7243,
      "spending": 7244,
      "nearby": 7245,
      "Trade": 7246,
      "icht": 7247,
      "divid": 7248,
      "onto": 7249,
      "1998": 7250,
      "von": 7251,
      "asyl": 7252,
      "ilst": 7253,
      "dedicated": 7254,
      "Ukraine": 7255,
      "isch": 7256,
      "stands": 7257,
      "asylum": 7258,
      "plom": 7259,
      "dispos": 7260,
      "ume": 7261,
      "rightly": 7262,
      "unit": 7263,
      "DVD": 7264,
      "ET": 7265,
      "desk": 7266,
      "fruit": 7267,
      "enormous": 7268,
      "parent": 7269,
      "moving": 7270,
      "Ano": 7271,
      "sensitive": 7272,
      "PS": 7273,
      "ugal": 7274,
      "ko": 7275,
      "vest": 7276,
      "permanent": 7277,
      "perspective": 7278,
      "bum": 7279,
      "Islam": 7280,
      "exercise": 7281,
      "continent": 7282,
      "analy": 7283,
      "Guest": 7284,
      "ube": 7285,
      "ensus": 7286,
      "election": 7287,
      "relaxing": 7288,
      "declar": 7289,
      "establishing": 7290,
      "phil": 7291,
      "satell": 7292,
      "observ": 7293,
      "convinced": 7294,
      "Bl": 7295,
      "Mart": 7296,
      "Nevertheless": 7297,
      "Kosovo": 7298,
      "32": 7299,
      "sta": 7300,
      "Will": 7301,
      "adult": 7302,
      "Nether": 7303,
      "holidays": 7304,
      "totally": 7305,
      "notice": 7306,
      "story": 7307,
      "rep": 7308,
      "Cus": 7309,
      "lex": 7310,
      "....": 7311,
      "Another": 7312,
      "prospect": 7313,
      "citizen": 7314,
      "meant": 7315,
      "advertising": 7316,
      "individuals": 7317,
      "extended": 7318,
      "Sup": 7319,
      "storage": 7320,
      "guide": 7321,
      "window": 7322,
      "atever": 7323,
      "Under": 7324,
      "organised": 7325,
      "compared": 7326,
      "write": 7327,
      "railway": 7328,
      "Lux": 7329,
      "device": 7330,
      "science": 7331,
      "conclusions": 7332,
      "launch": 7333,
      "Sat": 7334,
      "Third": 7335,
      "church": 7336,
      "appointed": 7337,
      "pil": 7338,
      "usual": 7339,
      "definition": 7340,
      "west": 7341,
      "granted": 7342,
      "finance": 7343,
      "Restaur": 7344,
      "signal": 7345,
      "memory": 7346,
      "biggest": 7347,
      "dream": 7348,
      "Club": 7349,
      "strength": 7350,
      "accessible": 7351,
      "laid": 7352,
      "Del": 7353,
      "Eastern": 7354,
      "Such": 7355,
      "controls": 7356,
      "existence": 7357,
      "osop": 7358,
      "colour": 7359,
      "attractions": 7360,
      "sched": 7361,
      "formed": 7362,
      "organization": 7363,
      "failed": 7364,
      "aks": 7365,
      "anned": 7366,
      "imm": 7367,
      "Afgh": 7368,
      "Netherlands": 7369,
      "flight": 7370,
      "Ty": 7371,
      "Where": 7372,
      "wealth": 7373,
      "Prime": 7374,
      "economies": 7375,
      "contrary": 7376,
      "ja": 7377,
      "tend": 7378,
      "edge": 7379,
      "chosen": 7380,
      "OT": 7381,
      "race": 7382,
      "revol": 7383,
      "apers": 7384,
      "dum": 7385,
      "Ps": 7386,
      "ads": 7387,
      "unable": 7388,
      "Mag": 7389,
      "mov": 7390,
      "honourable": 7391,
      "Sa": 7392,
      "ambitious": 7393,
      "Well": 7394,
      "complain": 7395,
      "advice": 7396,
      "Gard": 7397,
      "master": 7398,
      "quar": 7399,
      "interface": 7400,
      "voc": 7401,
      "chain": 7402,
      "vey": 7403,
      "Vienna": 7404,
      "payments": 7405,
      "ione": 7406,
      "Greek": 7407,
      "factors": 7408,
      "Croat": 7409,
      "pun": 7410,
      "disease": 7411,
      "maintenance": 7412,
      "commitments": 7413,
      "destroy": 7414,
      "diver": 7415,
      "iscal": 7416,
      "candidate": 7417,
      "artists": 7418,
      "libr": 7419,
      "perfectly": 7420,
      "Wel": 7421,
      "conditioning": 7422,
      "vehicle": 7423,
      "golf": 7424,
      "expression": 7425,
      "mountains": 7426,
      "Palestinian": 7427,
      "tried": 7428,
      "Instit": 7429,
      "bul": 7430,
      "gage": 7431,
      "Foreign": 7432,
      "bir": 7433,
      "ille": 7434,
      "ert": 7435,
      "renov": 7436,
      "Thus": 7437,
      "Management": 7438,
      "mother": 7439,
      "neither": 7440,
      "Center": 7441,
      "36": 7442,
      "astr": 7443,
      "Portugal": 7444,
      "agency": 7445,
      "achieving": 7446,
      "mann": 7447,
      "register": 7448,
      "weapons": 7449,
      "blood": 7450,
      "Regulation": 7451,
      "AB": 7452,
      "successfully": 7453,
      "Host": 7454,
      "avel": 7455,
      "colleague": 7456,
      "outcome": 7457,
      "background": 7458,
      "Design": 7459,
      "micro": 7460,
      "obviously": 7461,
      "Mont": 7462,
      "Ener": 7463,
      "luxury": 7464,
      "push": 7465,
      "IF": 7466,
      "ips": 7467,
      "promotion": 7468,
      "Ben": 7469,
      "susp": 7470,
      "constantly": 7471,
      "update": 7472,
      "gold": 7473,
      "lake": 7474,
      "emerg": 7475,
      "Emp": 7476,
      "limits": 7477,
      "sequently": 7478,
      "obligations": 7479,
      "Afghan": 7480,
      "proval": 7481,
      "outstanding": 7482,
      "father": 7483,
      "fraud": 7484,
      "harm": 7485,
      "buffet": 7486,
      "approximately": 7487,
      "yesterday": 7488,
      "continuing": 7489,
      "Yet": 7490,
      "sen": 7491,
      "Mil": 7492,
      "intervention": 7493,
      "ding": 7494,
      "Sm": 7495,
      "Found": 7496,
      "contents": 7497,
      "Card": 7498,
      "aus": 7499,
      "bag": 7500,
      "lantic": 7501,
      "equality": 7502,
      "vereign": 7503,
      "utch": 7504,
      "asking": 7505,
      "Sto": 7506,
      "Information": 7507,
      "contained": 7508,
      "title": 7509,
      "iques": 7510,
      "symbol": 7511,
      "disput": 7512,
      "Austrian": 7513,
      "route": 7514,
      "thening": 7515,
      "Techno": 7516,
      "aircraft": 7517,
      "DF": 7518,
      "liter": 7519,
      "itage": 7520,
      "vul": 7521,
      "ari": 7522,
      "reve": 7523,
      "physical": 7524,
      "qualified": 7525,
      "diplom": 7526,
      "independence": 7527,
      "species": 7528,
      "fashion": 7529,
      "binding": 7530,
      "48": 7531,
      "gel": 7532,
      "advantages": 7533,
      "rence": 7534,
      "category": 7535,
      "expenditure": 7536,
      "Gal": 7537,
      "surrounded": 7538,
      "pointed": 7539,
      "distin": 7540,
      "yo": 7541,
      "situations": 7542,
      "filled": 7543,
      "planned": 7544,
      "spot": 7545,
      "recommendations": 7546,
      "drin": 7547,
      "sam": 7548,
      "dete": 7549,
      "prevention": 7550,
      "occasion": 7551,
      "testing": 7552,
      "visual": 7553,
      "Kore": 7554,
      "catal": 7555,
      "Association": 7556,
      "extend": 7557,
      "Pa": 7558,
      "goals": 7559,
      "bars": 7560,
      "employed": 7561,
      "bringing": 7562,
      "error": 7563,
      "merely": 7564,
      "Ear": 7565,
      "Sant": 7566,
      "Tor": 7567,
      "assign": 7568,
      "Liber": 7569,
      "laun": 7570,
      "targets": 7571,
      "concentr": 7572,
      "putting": 7573,
      "surv": 7574,
      "Rot": 7575,
      "bab": 7576,
      "landscape": 7577,
      "factor": 7578,
      "Those": 7579,
      "grade": 7580,
      "fiscal": 7581,
      "furnished": 7582,
      "someone": 7583,
      "75": 7584,
      "jun": 7585,
      "consists": 7586,
      "IB": 7587,
      "rum": 7588,
      "intention": 7589,
      "defic": 7590,
      "disposal": 7591,
      "arms": 7592,
      "acting": 7593,
      "versions": 7594,
      "forum": 7595,
      "named": 7596,
      "mechanism": 7597,
      "proportion": 7598,
      "expensive": 7599,
      "registration": 7600,
      "Rome": 7601,
      "glad": 7602,
      "convent": 7603,
      "participants": 7604,
      "Don": 7605,
      "guaranteed": 7606,
      "Ke": 7607,
      "sold": 7608,
      "tro": 7609,
      "spa": 7610,
      "uer": 7611,
      "Dan": 7612,
      "waiting": 7613,
      "Java": 7614,
      "pleasure": 7615,
      "communities": 7616,
      "fif": 7617,
      "consistent": 7618,
      "cheap": 7619,
      "patent": 7620,
      "faces": 7621,
      "DA": 7622,
      "leads": 7623,
      "Both": 7624,
      "Wi": 7625,
      "stim": 7626,
      "Lab": 7627,
      "fuel": 7628,
      "abol": 7629,
      "1997": 7630,
      "phase": 7631,
      "dynamic": 7632,
      "amen": 7633,
      "determined": 7634,
      "Latin": 7635,
      "trial": 7636,
      "smaller": 7637,
      "seeking": 7638,
      "Out": 7639,
      "Restaurant": 7640,
      "Spe": 7641,
      "Cr": 7642,
      "instruct": 7643,
      "photos": 7644,
      "Control": 7645,
      "Rules": 7646,
      "cook": 7647,
      "steel": 7648,
      "compliance": 7649,
      "responsibilities": 7650,
      "Summit": 7651,
      "conclude": 7652,
      "lev": 7653,
      "ellig": 7654,
      "Tre": 7655,
      "slight": 7656,
      "phen": 7657,
      "sper": 7658,
      "withdraw": 7659,
      "brings": 7660,
      "scen": 7661,
      "spaces": 7662,
      "elimin": 7663,
      "causes": 7664,
      "examples": 7665,
      "ius": 7666,
      "Quest": 7667,
      "Find": 7668,
      "strengthening": 7669,
      "nations": 7670,
      "truth": 7671,
      "Federal": 7672,
      "satellite": 7673,
      "iding": 7674,
      "manufacturing": 7675,
      "sovereign": 7676,
      "Agency": 7677,
      "resulting": 7678,
      "Lan": 7679,
      "skin": 7680,
      "iced": 7681,
      "looks": 7682,
      "zy": 7683,
      "retain": 7684,
      "snow": 7685,
      "submit": 7686,
      "holders": 7687,
      "Located": 7688,
      "Sweden": 7689,
      "fan": 7690,
      "contemporary": 7691,
      "IG": 7692,
      "Enjoy": 7693,
      "default": 7694,
      "philosop": 7695,
      "umn": 7696,
      "venue": 7697,
      "identity": 7698,
      "cool": 7699,
      "Break": 7700,
      "eight": 7701,
      "semin": 7702,
      "cycle": 7703,
      "magn": 7704,
      "association": 7705,
      "safeguard": 7706,
      "veget": 7707,
      "pine": 7708,
      "Hel": 7709,
      "bert": 7710,
      "Lake": 7711,
      "ibr": 7712,
      "nearly": 7713,
      "multiple": 7714,
      "oring": 7715,
      "addressed": 7716,
      "rul": 7717,
      "Thanks": 7718,
      "surpr": 7719,
      "defend": 7720,
      "driving": 7721,
      "discussing": 7722,
      "Mun": 7723,
      "ena": 7724,
      "plug": 7725,
      "cancell": 7726,
      "explan": 7727,
      "patients": 7728,
      "ails": 7729,
      "consensus": 7730,
      "reme": 7731,
      "Cur": 7732,
      "balcon": 7733,
      "gs": 7734,
      "doct": 7735,
      "onia": 7736,
      "isure": 7737,
      "turned": 7738,
      "pa": 7739,
      "Rel": 7740,
      "incorpor": 7741,
      "MP": 7742,
      "extr": 7743,
      "lie": 7744,
      "liability": 7745,
      "previously": 7746,
      "governance": 7747,
      "iff": 7748,
      "evaluation": 7749,
      "primary": 7750,
      "southern": 7751,
      "unders": 7752,
      "ION": 7753,
      "endor": 7754,
      "Pan": 7755,
      "Met": 7756,
      "parame": 7757,
      "sis": 7758,
      "urge": 7759,
      "blue": 7760,
      "Fac": 7761,
      "vulner": 7762,
      "Romania": 7763,
      "birth": 7764,
      "fab": 7765,
      "stations": 7766,
      "Nat": 7767,
      "mode": 7768,
      "representative": 7769,
      "attacks": 7770,
      "primarily": 7771,
      "400": 7772,
      "eye": 7773,
      "IA": 7774,
      "sec": 7775,
      "oub": 7776,
      "wait": 7777,
      "ara": 7778,
      "acted": 7779,
      "ruption": 7780,
      "president": 7781,
      "remove": 7782,
      "blog": 7783,
      "suite": 7784,
      "smoking": 7785,
      "match": 7786,
      "industries": 7787,
      "33": 7788,
      "kinds": 7789,
      "requested": 7790,
      "Sil": 7791,
      "Plan": 7792,
      "consolid": 7793,
      "competence": 7794,
      "thereby": 7795,
      "waters": 7796,
      "recovery": 7797,
      "bia": 7798,
      "ivered": 7799,
      "OF": 7800,
      "gap": 7801,
      "intellig": 7802,
      "concil": 7803,
      "draf": 7804,
      "inations": 7805,
      "decades": 7806,
      "schools": 7807,
      "IR": 7808,
      "Software": 7809,
      "capt": 7810,
      "nav": 7811,
      "ounge": 7812,
      "Char": 7813,
      "Home": 7814,
      "Get": 7815,
      "ein": 7816,
      "gir": 7817,
      "reply": 7818,
      "John": 7819,
      "older": 7820,
      "diversity": 7821,
      "talks": 7822,
      "burden": 7823,
      "preced": 7824,
      "represented": 7825,
      "dealt": 7826,
      "Dutch": 7827,
      "Photo": 7828,
      "exception": 7829,
      "Pat": 7830,
      "mutual": 7831,
      "Yes": 7832,
      "Microsoft": 7833,
      "album": 7834,
      "THE": 7835,
      "apo": 7836,
      "delivered": 7837,
      "hit": 7838,
      "speakers": 7839,
      "Bud": 7840,
      "afford": 7841,
      "awa": 7842,
      "150": 7843,
      "unanim": 7844,
      "manufacturers": 7845,
      "ira": 7846,
      "amongst": 7847,
      "nia": 7848,
      "poly": 7849,
      "holding": 7850,
      "Ven": 7851,
      "felt": 7852,
      "Gold": 7853,
      "intel": 7854,
      "Minutes": 7855,
      "ife": 7856,
      "gall": 7857,
      "controlled": 7858,
      "treated": 7859,
      "PH": 7860,
      "bureau": 7861,
      "none": 7862,
      "Glo": 7863,
      "Bes": 7864,
      "swe": 7865,
      "Check": 7866,
      "Breakfast": 7867,
      "iel": 7868,
      "Despite": 7869,
      "consultation": 7870,
      "app": 7871,
      "compatible": 7872,
      "runs": 7873,
      "ogle": 7874,
      "exec": 7875,
      "corner": 7876,
      "presentation": 7877,
      "sn": 7878,
      "technological": 7879,
      "adow": 7880,
      "approval": 7881,
      "opposite": 7882,
      "NAT": 7883,
      "quir": 7884,
      "razil": 7885,
      "clim": 7886,
      "rer": 7887,
      "investments": 7888,
      "AV": 7889,
      "shut": 7890,
      "gone": 7891,
      "complic": 7892,
      "mechanisms": 7893,
      "east": 7894,
      "feeling": 7895,
      "journal": 7896,
      "Bay": 7897,
      "straight": 7898,
      "ingu": 7899,
      "accounts": 7900,
      "repeated": 7901,
      "gely": 7902,
      "shape": 7903,
      "Best": 7904,
      "boat": 7905,
      "flat": 7906,
      "venture": 7907,
      "heavy": 7908,
      "Fi": 7909,
      "Two": 7910,
      "spring": 7911,
      "atures": 7912,
      "improvements": 7913,
      "atically": 7914,
      "lets": 7915,
      "Set": 7916,
      "knows": 7917,
      "ING": 7918,
      "pension": 7919,
      "moved": 7920,
      "Before": 7921,
      "wered": 7922,
      "gment": 7923,
      "Company": 7924,
      "ju": 7925,
      "Brazil": 7926,
      "Very": 7927,
      "Chamber": 7928,
      "nar": 7929,
      "uries": 7930,
      "mini": 7931,
      "lectual": 7932,
      "attitude": 7933,
      "obligation": 7934,
      "furt": 7935,
      "covers": 7936,
      "exceed": 7937,
      "experiences": 7938,
      "38": 7939,
      "lob": 7940,
      "fing": 7941,
      "gets": 7942,
      "leadership": 7943,
      "zen": 7944,
      "iers": 7945,
      "insist": 7946,
      "expertise": 7947,
      "nels": 7948,
      "trees": 7949,
      "requests": 7950,
      "dex": 7951,
      "AF": 7952,
      "gro": 7953,
      "referen": 7954,
      "significantly": 7955,
      "iction": 7956,
      "helping": 7957,
      "igno": 7958,
      "recognise": 7959,
      "compensation": 7960,
      "Agr": 7961,
      "Follow": 7962,
      "slo": 7963,
      "eties": 7964,
      "launched": 7965,
      "aces": 7966,
      "locations": 7967,
      "Cub": 7968,
      "bedroom": 7969,
      "oples": 7970,
      "Du": 7971,
      "drugs": 7972,
      "nis": 7973,
      "icted": 7974,
      "jection": 7975,
      "Enterprise": 7976,
      "discovered": 7977,
      "Note": 7978,
      "Take": 7979,
      "flu": 7980,
      "Energy": 7981,
      "charges": 7982,
      "websites": 7983,
      "destru": 7984,
      "sanctions": 7985,
      "emphasise": 7986,
      "ek": 7987,
      "dishes": 7988,
      "anda": 7989,
      "units": 7990,
      "output": 7991,
      "browser": 7992,
      "akes": 7993,
      "destination": 7994,
      "recommended": 7995,
      "Prote": 7996,
      "exc": 7997,
      "ya": 7998,
      "rejected": 7999,
      "solve": 8000,
      "engineering": 8001,
      "faced": 8002,
      "1996": 8003,
      "SME": 8004,
      "figure": 8005,
      "PT": 8006,
      "articles": 8007,
      "charming": 8008,
      "hospit": 8009,
      "exists": 8010,
      "fas": 8011,
      "finding": 8012,
      "ares": 8013,
      "pill": 8014,
      "antly": 8015,
      "ries": 8016,
      "operators": 8017,
      "helps": 8018,
      "1990": 8019,
      "rare": 8020,
      "sky": 8021,
      "bloc": 8022,
      "comply": 8023,
      "extension": 8024,
      "estim": 8025,
      "Special": 8026,
      "substances": 8027,
      "streets": 8028,
      "privacy": 8029,
      "Mc": 8030,
      "Sit": 8031,
      "vess": 8032,
      "expectations": 8033,
      "leisure": 8034,
      "audi": 8035,
      "emphasis": 8036,
      "centres": 8037,
      "hun": 8038,
      "stuff": 8039,
      "asts": 8040,
      "producing": 8041,
      "stac": 8042,
      "temperature": 8043,
      "hostels": 8044,
      "Villa": 8045,
      "urb": 8046,
      "resolve": 8047,
      "Aust": 8048,
      "appreciate": 8049,
      "Sam": 8050,
      "entered": 8051,
      "fighting": 8052,
      "incent": 8053,
      "Mex": 8054,
      "ania": 8055,
      "applicable": 8056,
      "appeared": 8057,
      "delegation": 8058,
      "abil": 8059,
      "elled": 8060,
      "noise": 8061,
      "supplement": 8062,
      "objects": 8063,
      "refugees": 8064,
      "recognised": 8065,
      "Day": 8066,
      "Use": 8067,
      "195": 8068,
      "plicit": 8069,
      "Cat": 8070,
      "commission": 8071,
      "suffering": 8072,
      "iny": 8073,
      "proud": 8074,
      "healthy": 8075,
      "furniture": 8076,
      "nut": 8077,
      "holds": 8078,
      "Lord": 8079,
      "sions": 8080,
      "latter": 8081,
      "SD": 8082,
      "mobility": 8083,
      "personally": 8084,
      "domain": 8085,
      "fleet": 8086,
      "uated": 8087,
      "secret": 8088,
      "disaster": 8089,
      "riers": 8090,
      "relatively": 8091,
      "intend": 8092,
      "Black": 8093,
      "enses": 8094,
      "Stre": 8095,
      "ende": 8096,
      "naturally": 8097,
      "affairs": 8098,
      "pick": 8099,
      "Auto": 8100,
      "confirmed": 8101,
      "bran": 8102,
      "trib": 8103,
      "eases": 8104,
      "Deut": 8105,
      "texts": 8106,
      "abling": 8107,
      "handling": 8108,
      "whatever": 8109,
      "renewable": 8110,
      "ula": 8111,
      "prop": 8112,
      "vast": 8113,
      "Oper": 8114,
      "Programme": 8115,
      "Munich": 8116,
      "involving": 8117,
      "graphical": 8118,
      "inc": 8119,
      "Book": 8120,
      "Finan": 8121,
      "valuable": 8122,
      "peoples": 8123,
      "whilst": 8124,
      "happens": 8125,
      "fulfil": 8126,
      "cold": 8127,
      "Paper": 8128,
      "phr": 8129,
      "MA": 8130,
      "tours": 8131,
      "grand": 8132,
      "taxes": 8133,
      "fem": 8134,
      "exclusively": 8135,
      "Li": 8136,
      "uni": 8137,
      "Georg": 8138,
      "01": 8139,
      "Ann": 8140,
      "arrangements": 8141,
      "bureaucr": 8142,
      "arus": 8143,
      "bedrooms": 8144,
      "Den": 8145,
      "opposed": 8146,
      "volume": 8147,
      "thorough": 8148,
      "politicians": 8149,
      "simplif": 8150,
      "Google": 8151,
      "repeat": 8152,
      "Good": 8153,
      "cable": 8154,
      "dependent": 8155,
      "creative": 8156,
      "journey": 8157,
      "termine": 8158,
      "Real": 8159,
      "dollar": 8160,
      "enhance": 8161,
      "automatic": 8162,
      "34": 8163,
      "mel": 8164,
      "dining": 8165,
      "serves": 8166,
      "és": 8167,
      "meat": 8168,
      "frag": 8169,
      "diseases": 8170,
      "Flo": 8171,
      "ML": 8172,
      "plause": 8173,
      "disci": 8174,
      "Station": 8175,
      "amic": 8176,
      "cohe": 8177,
      "constructive": 8178,
      "nom": 8179,
      "combating": 8180,
      "Private": 8181,
      "Bet": 8182,
      "familiar": 8183,
      "37": 8184,
      "Mos": 8185,
      "Rule": 8186,
      "definit": 8187,
      "ED": 8188,
      "directives": 8189,
      "pes": 8190,
      "Swedish": 8191,
      "passengers": 8192,
      "ador": 8193,
      "helped": 8194,
      "Whe": 8195,
      "intellectual": 8196,
      "gypt": 8197,
      "servers": 8198,
      "lots": 8199,
      "criticism": 8200,
      "offices": 8201,
      "obtained": 8202,
      "bridge": 8203,
      "Pak": 8204,
      "reaching": 8205,
      "White": 8206,
      "mine": 8207,
      "weather": 8208,
      "Old": 8209,
      "entertainment": 8210,
      "determine": 8211,
      "dinner": 8212,
      "ourg": 8213,
      "protecting": 8214,
      "zu": 8215,
      "aside": 8216,
      "prosper": 8217,
      "fee": 8218,
      "exceptional": 8219,
      "involvement": 8220,
      "Sing": 8221,
      "Safety": 8222,
      "remot": 8223,
      "nd": 8224,
      "Ministers": 8225,
      "iant": 8226,
      "oman": 8227,
      "equally": 8228,
      "dele": 8229,
      "cow": 8230,
      "vak": 8231,
      "Institute": 8232,
      "tes": 8233,
      "Welcome": 8234,
      "obstac": 8235,
      "temporary": 8236,
      "outdoor": 8237,
      "courage": 8238,
      "isol": 8239,
      "Afghanistan": 8240,
      "Egypt": 8241,
      "treaty": 8242,
      "util": 8243,
      "tees": 8244,
      "minister": 8245,
      "See": 8246,
      "Moun": 8247,
      "prev": 8248,
      "Bulgar": 8249,
      "impressive": 8250,
      "Charter": 8251,
      "eller": 8252,
      "carbon": 8253,
      "chap": 8254,
      "firstly": 8255,
      "quis": 8256,
      "99": 8257,
      "Proced": 8258,
      "awareness": 8259,
      "mur": 8260,
      "rapporteurs": 8261,
      "removed": 8262,
      "Def": 8263,
      "millions": 8264,
      "Fer": 8265,
      "amounts": 8266,
      "happening": 8267,
      "strugg": 8268,
      "bill": 8269,
      "stake": 8270,
      "QL": 8271,
      "Strate": 8272,
      "ops": 8273,
      "panor": 8274,
      "Luxemb": 8275,
      "Foundation": 8276,
      "Time": 8277,
      "eyes": 8278,
      "discharge": 8279,
      "spectac": 8280,
      "Strategy": 8281,
      "fers": 8282,
      "leaving": 8283,
      "contributions": 8284,
      "migration": 8285,
      "ache": 8286,
      "Desk": 8287,
      "parents": 8288,
      "battle": 8289,
      "walls": 8290,
      "largely": 8291,
      "Britain": 8292,
      "strategies": 8293,
      "mandate": 8294,
      "reserve": 8295,
      "Instead": 8296,
      "password": 8297,
      "lymp": 8298,
      "itime": 8299,
      "cutting": 8300,
      "define": 8301,
      "inhabit": 8302,
      "enforce": 8303,
      "rob": 8304,
      "stal": 8305,
      "gun": 8306,
      "formal": 8307,
      "increases": 8308,
      "precise": 8309,
      "ethnic": 8310,
      "liberalisation": 8311,
      "iam": 8312,
      "Global": 8313,
      "HT": 8314,
      "residence": 8315,
      "Bos": 8316,
      "inj": 8317,
      "citing": 8318,
      "Like": 8319,
      "faith": 8320,
      "assure": 8321,
      "maintained": 8322,
      "preparation": 8323,
      "creates": 8324,
      "issued": 8325,
      "metal": 8326,
      "ampion": 8327,
      "fantastic": 8328,
      "depth": 8329,
      "partial": 8330,
      "heat": 8331,
      "debates": 8332,
      "requirement": 8333,
      "Super": 8334,
      "sexual": 8335,
      "finished": 8336,
      "remaining": 8337,
      "River": 8338,
      "Belarus": 8339,
      "ör": 8340,
      "collective": 8341,
      "restrictions": 8342,
      "drink": 8343,
      "announce": 8344,
      "til": 8345,
      "Frankfurt": 8346,
      "conserv": 8347,
      "arrest": 8348,
      "legally": 8349,
      "Croatia": 8350,
      "officials": 8351,
      "organizations": 8352,
      "resolutions": 8353,
      "accompan": 8354,
      "enthus": 8355,
      "NATO": 8356,
      "opinions": 8357,
      "apparent": 8358,
      "ticket": 8359,
      "plate": 8360,
      "iger": 8361,
      "couple": 8362,
      "Prov": 8363,
      "ici": 8364,
      "contracts": 8365,
      "resolved": 8366,
      "connections": 8367,
      "Nice": 8368,
      "organized": 8369,
      "sleep": 8370,
      "Ve": 8371,
      "characteristics": 8372,
      "reported": 8373,
      "Their": 8374,
      "impression": 8375,
      "Em": 8376,
      "ander": 8377,
      "doors": 8378,
      "depends": 8379,
      "pieces": 8380,
      "seat": 8381,
      "abroad": 8382,
      "Sky": 8383,
      "DS": 8384,
      "doesn": 8385,
      "Fam": 8386,
      "Data": 8387,
      "illustr": 8388,
      "calcul": 8389,
      "Ladies": 8390,
      "Rad": 8391,
      "advoc": 8392,
      "sor": 8393,
      "prohib": 8394,
      "ateful": 8395,
      "witness": 8396,
      "psy": 8397,
      "classic": 8398,
      "newly": 8399,
      "Hotels": 8400,
      "castle": 8401,
      "Costa": 8402,
      "Japanese": 8403,
      "ola": 8404,
      "Polish": 8405,
      "flag": 8406,
      "invent": 8407,
      "volunt": 8408,
      "Bulgaria": 8409,
      "loyment": 8410,
      "Dub": 8411,
      "pattern": 8412,
      "MEPs": 8413,
      "regularly": 8414,
      "roads": 8415,
      "Vol": 8416,
      "operational": 8417,
      "theat": 8418,
      "identify": 8419,
      "Read": 8420,
      "Street": 8421,
      "dates": 8422,
      "root": 8423,
      "Financial": 8424,
      "settlement": 8425,
      "ederation": 8426,
      "roof": 8427,
      "quarter": 8428,
      "GDP": 8429,
      "andon": 8430,
      "western": 8431,
      "returned": 8432,
      "certainty": 8433,
      "ros": 8434,
      "messages": 8435,
      "revolution": 8436,
      "elfare": 8437,
      "ugu": 8438,
      "Through": 8439,
      "cab": 8440,
      "verse": 8441,
      "ailing": 8442,
      "Procedure": 8443,
      "license": 8444,
      "Olymp": 8445,
      "label": 8446,
      "favor": 8447,
      "topic": 8448,
      "joined": 8449,
      "divided": 8450,
      "SQL": 8451,
      "conflicts": 8452,
      "Agric": 8453,
      "surroundings": 8454,
      "Alliance": 8455,
      "GN": 8456,
      "hardware": 8457,
      "tood": 8458,
      "Ha": 8459,
      "uting": 8460,
      "universal": 8461,
      "plen": 8462,
      "ds": 8463,
      "wing": 8464,
      "contrast": 8465,
      "ouble": 8466,
      "youth": 8467,
      "95": 8468,
      "drawing": 8469,
      "customs": 8470,
      "throw": 8471,
      "regulatory": 8472,
      "understood": 8473,
      "toler": 8474,
      "realistic": 8475,
      "massive": 8476,
      "ais": 8477,
      "owner": 8478,
      "facilitate": 8479,
      "acquis": 8480,
      "dark": 8481,
      "sauna": 8482,
      "frequently": 8483,
      "Front": 8484,
      "Bon": 8485,
      "discipl": 8486,
      "tun": 8487,
      "copyright": 8488,
      "string": 8489,
      "recommendation": 8490,
      "performed": 8491,
      "renovated": 8492,
      "parliaments": 8493,
      "visa": 8494,
      "pin": 8495,
      "Luxembourg": 8496,
      "Law": 8497,
      "Die": 8498,
      "Balk": 8499,
      "htt": 8500,
      "listen": 8501,
      "Stru": 8502,
      "displayed": 8503,
      "magaz": 8504,
      "conducted": 8505,
      "98": 8506,
      "Arch": 8507,
      "Dom": 8508,
      "idden": 8509,
      "supposed": 8510,
      "properties": 8511,
      "reserves": 8512,
      "64": 8513,
      "gender": 8514,
      "autom": 8515,
      "mobil": 8516,
      "switch": 8517,
      "decorated": 8518,
      "oured": 8519,
      "hundreds": 8520,
      "umin": 8521,
      "Scot": 8522,
      "actively": 8523,
      "focused": 8524,
      "Roma": 8525,
      "reveal": 8526,
      "rupt": 8527,
      "boot": 8528,
      "Friday": 8529,
      "Sta": 8530,
      "demanding": 8531,
      "depending": 8532,
      "minority": 8533,
      "SMEs": 8534,
      "career": 8535,
      "Austral": 8536,
      "iti": 8537,
      "cohol": 8538,
      "intent": 8539,
      "printing": 8540,
      "deals": 8541,
      "graphy": 8542,
      "correctly": 8543,
      "diag": 8544,
      "Pakistan": 8545,
      "Ti": 8546,
      "settings": 8547,
      "emot": 8548,
      "phenomen": 8549,
      "balcony": 8550,
      "hyd": 8551,
      "noted": 8552,
      "somewhat": 8553,
      "worse": 8554,
      "remark": 8555,
      "grateful": 8556,
      "driver": 8557,
      "heating": 8558,
      "Cypr": 8559,
      "Child": 8560,
      "northern": 8561,
      "extreme": 8562,
      "transportation": 8563,
      "Fest": 8564,
      "answers": 8565,
      "cash": 8566,
      "judicial": 8567,
      "unicip": 8568,
      "emergency": 8569,
      "orge": 8570,
      "absolute": 8571,
      "artist": 8572,
      "islands": 8573,
      "faster": 8574,
      "scan": 8575,
      "abandon": 8576,
      "Stand": 8577,
      "symp": 8578,
      "follows": 8579,
      "2020": 8580,
      "Cyprus": 8581,
      "Roy": 8582,
      "vacation": 8583,
      "comed": 8584,
      "COM": 8585,
      "ki": 8586,
      "Church": 8587,
      "lobby": 8588,
      "definitely": 8589,
      "Dav": 8590,
      "painting": 8591,
      "Canada": 8592,
      "entre": 8593,
      "Power": 8594,
      "bottom": 8595,
      "hagen": 8596,
      "Square": 8597,
      "ultimately": 8598,
      "delighted": 8599,
      "visible": 8600,
      "Scho": 8601,
      "updated": 8602,
      "firms": 8603,
      "CS": 8604,
      "welfare": 8605,
      "shap": 8606,
      "leged": 8607,
      "ifications": 8608,
      "eastern": 8609,
      "library": 8610,
      "valley": 8611,
      "Saint": 8612,
      "wines": 8613,
      "electricity": 8614,
      "worry": 8615,
      "Phil": 8616,
      "productive": 8617,
      "Vo": 8618,
      "Product": 8619,
      "dule": 8620,
      "mostly": 8621,
      "techniques": 8622,
      "contacts": 8623,
      "accompanied": 8624,
      "Non": 8625,
      "dram": 8626,
      "conciliation": 8627,
      "Bro": 8628,
      "chen": 8629,
      "intens": 8630,
      "uguese": 8631,
      "spoken": 8632,
      "Whether": 8633,
      "effectiveness": 8634,
      "pollution": 8635,
      "amaz": 8636,
      "visited": 8637,
      "expan": 8638,
      "statistics": 8639,
      "indicated": 8640,
      "44": 8641,
      "ication": 8642,
      "ump": 8643,
      "invite": 8644,
      "winning": 8645,
      "adapt": 8646,
      "profile": 8647,
      "pir": 8648,
      "1995": 8649,
      "ita": 8650,
      "icking": 8651,
      "heritage": 8652,
      "tran": 8653,
      "protocol": 8654,
      "complement": 8655,
      "satisfied": 8656,
      "Cong": 8657,
      "wild": 8658,
      "sac": 8659,
      "engen": 8660,
      "margin": 8661,
      "explore": 8662,
      "declaration": 8663,
      "Monetary": 8664,
      "saf": 8665,
      "relaxation": 8666,
      "ora": 8667,
      "Sou": 8668,
      "rub": 8669,
      "inhabitants": 8670,
      "finish": 8671,
      "functioning": 8672,
      "http": 8673,
      "ura": 8674,
      "involves": 8675,
      "acco": 8676,
      "presents": 8677,
      "flights": 8678,
      "ISO": 8679,
      "Year": 8680,
      "interior": 8681,
      "drivers": 8682,
      "arts": 8683,
      "subsidies": 8684,
      "lists": 8685,
      "ADS": 8686,
      "für": 8687,
      "starts": 8688,
      "Camp": 8689,
      "rd": 8690,
      "solar": 8691,
      "terrorist": 8692,
      "catch": 8693,
      "stored": 8694,
      "Israeli": 8695,
      "GB": 8696,
      "declared": 8697,
      "orn": 8698,
      "woman": 8699,
      "speaker": 8700,
      "mi": 8701,
      "Pack": 8702,
      "trafficking": 8703,
      "TR": 8704,
      "eva": 8705,
      "tourists": 8706,
      "passenger": 8707,
      "widely": 8708,
      "cies": 8709,
      "provider": 8710,
      "arrive": 8711,
      "Portuguese": 8712,
      "promises": 8713,
      "bs": 8714,
      "auf": 8715,
      "imposed": 8716,
      "Sovi": 8717,
      "aria": 8718,
      "suites": 8719,
      "competent": 8720,
      "careful": 8721,
      "Main": 8722,
      "stall": 8723,
      "afternoon": 8724,
      "detect": 8725,
      "corresponding": 8726,
      "orate": 8727,
      "rot": 8728,
      "committees": 8729,
      "exciting": 8730,
      "planet": 8731,
      "55": 8732,
      "channels": 8733,
      "nights": 8734,
      "bird": 8735,
      "department": 8736,
      "phrase": 8737,
      "hum": 8738,
      "showing": 8739,
      "demonstrate": 8740,
      "Wik": 8741,
      "attend": 8742,
      "demonstrated": 8743,
      "collaboration": 8744,
      "bra": 8745,
      "configuration": 8746,
      "incident": 8747,
      "uzz": 8748,
      "pm": 8749,
      "maintaining": 8750,
      "ulating": 8751,
      "iano": 8752,
      "monu": 8753,
      "stylish": 8754,
      "asters": 8755,
      "signs": 8756,
      "metro": 8757,
      "Palace": 8758,
      "Question": 8759,
      "istry": 8760,
      "hill": 8761,
      "mac": 8762,
      "ancy": 8763,
      "Ham": 8764,
      "coal": 8765,
      "magnific": 8766,
      "input": 8767,
      "alcohol": 8768,
      "39": 8769,
      "entrance": 8770,
      "Fil": 8771,
      "facts": 8772,
      "federal": 8773,
      "investors": 8774,
      "imper": 8775,
      "ancing": 8776,
      "colon": 8777,
      "Spa": 8778,
      "MO": 8779,
      "tickets": 8780,
      "Slovak": 8781,
      "Est": 8782,
      "appearance": 8783,
      "49": 8784,
      "towns": 8785,
      "desired": 8786,
      "justified": 8787,
      "corruption": 8788,
      "visiting": 8789,
      "lip": 8790,
      "hostel": 8791,
      "Vice": 8792,
      "ils": 8793,
      "personnel": 8794,
      "Pact": 8795,
      "tery": 8796,
      "thr": 8797,
      "pret": 8798,
      "expansion": 8799,
      "lovely": 8800,
      "AND": 8801,
      "documentation": 8802,
      "Custo": 8803,
      "functional": 8804,
      "resistance": 8805,
      "theme": 8806,
      "duc": 8807,
      "aming": 8808,
      "concluded": 8809,
      "Muslim": 8810,
      "ni": 8811,
      "newsp": 8812,
      "navig": 8813,
      "perior": 8814,
      "Transport": 8815,
      "lift": 8816,
      "Amendments": 8817,
      "lasting": 8818,
      "remote": 8819,
      "channel": 8820,
      "apy": 8821,
      "Protection": 8822,
      "looked": 8823,
      "gardens": 8824,
      "recorded": 8825,
      "shadow": 8826,
      "moral": 8827,
      "oriented": 8828,
      "Mat": 8829,
      "liqu": 8830,
      "Baltic": 8831,
      "pul": 8832,
      "ongoing": 8833,
      "urious": 8834,
      "contrad": 8835,
      "sugar": 8836,
      "Schengen": 8837,
      "insp": 8838,
      "distingu": 8839,
      "possibly": 8840,
      "regarded": 8841,
      "Copen": 8842,
      "mono": 8843,
      "fitness": 8844,
      "MB": 8845,
      "lounge": 8846,
      "norm": 8847,
      "Perhaps": 8848,
      "crow": 8849,
      "Applause": 8850,
      "Korea": 8851,
      "Four": 8852,
      "explicit": 8853,
      "behaviour": 8854,
      "minorities": 8855,
      "determination": 8856,
      "constitutional": 8857,
      "igen": 8858,
      "Copenhagen": 8859,
      "Prague": 8860,
      "containing": 8861,
      "actors": 8862,
      "awarded": 8863,
      "respected": 8864,
      "foundation": 8865,
      "VAT": 8866,
      "III": 8867,
      "Soviet": 8868,
      "icans": 8869,
      "spectacular": 8870,
      "windows": 8871,
      "cosy": 8872,
      "etic": 8873,
      "thentic": 8874,
      "occasions": 8875,
      "tackle": 8876,
      "Funds": 8877,
      "crimes": 8878,
      "manufacturer": 8879,
      "bilateral": 8880,
      "educational": 8881,
      "tag": 8882,
      "tos": 8883,
      "ental": 8884,
      "plays": 8885,
      "satisfaction": 8886,
      "bing": 8887,
      "asser": 8888,
      "65": 8889,
      "immigrants": 8890,
      "iron": 8891,
      "replaced": 8892,
      "routes": 8893,
      "motiv": 8894,
      "Hungary": 8895,
      "facility": 8896,
      "EP": 8897,
      "ette": 8898,
      "inflation": 8899,
      "assume": 8900,
      "paralle": 8901,
      "han": 8902,
      "Belgium": 8903,
      "Gar": 8904,
      "eless": 8905,
      "chron": 8906,
      "Ba": 8907,
      "distributed": 8908,
      "subsidiarity": 8909,
      "Hall": 8910,
      "scheme": 8911,
      "virtual": 8912,
      "rote": 8913,
      "overcome": 8914,
      "patient": 8915,
      "Ze": 8916,
      "diction": 8917,
      "rapidly": 8918,
      "Person": 8919,
      "tob": 8920,
      "legitimate": 8921,
      "Report": 8922,
      "bike": 8923,
      "endorse": 8924,
      "Media": 8925,
      "professionals": 8926,
      "boost": 8927,
      "Description": 8928,
      "belief": 8929,
      "fered": 8930,
      "credibility": 8931,
      "47": 8932,
      "transactions": 8933,
      "08": 8934,
      "sending": 8935,
      "destruction": 8936,
      "warrant": 8937,
      "prompt": 8938,
      "certific": 8939,
      "films": 8940,
      "identified": 8941,
      "upper": 8942,
      "ictory": 8943,
      "smooth": 8944,
      "bond": 8945,
      "thumb": 8946,
      "milk": 8947,
      "Fre": 8948,
      "Yu": 8949,
      "Who": 8950,
      "plenty": 8951,
      "HO": 8952,
      "Town": 8953,
      "ikes": 8954,
      "Nos": 8955,
      "index": 8956,
      "infring": 8957,
      "Down": 8958,
      "NT": 8959,
      "partly": 8960,
      "falls": 8961,
      "Following": 8962,
      "Profess": 8963,
      "vised": 8964,
      "specially": 8965,
      "consent": 8966,
      "generated": 8967,
      "globalisation": 8968,
      "proven": 8969,
      "suppliers": 8970,
      "exit": 8971,
      "Structural": 8972,
      "Action": 8973,
      "centuries": 8974,
      "component": 8975,
      "Hungarian": 8976,
      "adopting": 8977,
      "flood": 8978,
      "deposit": 8979,
      "embr": 8980,
      "shares": 8981,
      "inspe": 8982,
      "conce": 8983,
      "cession": 8984,
      "inser": 8985,
      "Within": 8986,
      "compe": 8987,
      "demo": 8988,
      "stronger": 8989,
      "si": 8990,
      "edition": 8991,
      "visory": 8992,
      "taxation": 8993,
      "addresses": 8994,
      "Bush": 8995,
      "sharing": 8996,
      "Nord": 8997,
      "600": 8998,
      "argument": 8999,
      "assets": 9000,
      "plenary": 9001,
      "Thurs": 9002,
      "Sur": 9003,
      "proposes": 9004,
      "ranging": 9005,
      "wear": 9006,
      "uris": 9007,
      "Madrid": 9008,
      "Dol": 9009,
      "saving": 9010,
      "reput": 9011,
      "rental": 9012,
      "Class": 9013,
      "died": 9014,
      "providers": 9015,
      "extraordinary": 9016,
      "Van": 9017,
      "fold": 9018,
      "Chair": 9019,
      "tast": 9020,
      "Given": 9021,
      "preparing": 9022,
      "quarters": 9023,
      "disk": 9024,
      "thousand": 9025,
      "narrow": 9026,
      "Tun": 9027,
      "Thirdly": 9028,
      "division": 9029,
      "encouraging": 9030,
      "ensures": 9031,
      "iders": 9032,
      "dign": 9033,
      "icon": 9034,
      "courts": 9035,
      "fal": 9036,
      "dry": 9037,
      "Vir": 9038,
      "considering": 9039,
      "wash": 9040,
      "05": 9041,
      "magnificent": 9042,
      "Asse": 9043,
      "Script": 9044,
      "wrote": 9045,
      "Ban": 9046,
      "scene": 9047,
      "bright": 9048,
      "decisive": 9049,
      "undertaking": 9050,
      "Code": 9051,
      "tight": 9052,
      "housing": 9053,
      "FA": 9054,
      "lined": 9055,
      "09": 9056,
      "substance": 9057,
      "inclusion": 9058,
      "Northern": 9059,
      "slightly": 9060,
      "eat": 9061,
      "ige": 9062,
      "examine": 9063,
      "vide": 9064,
      "earn": 9065,
      "iled": 9066,
      "interpretation": 9067,
      "subs": 9068,
      "igu": 9069,
      "Mexico": 9070,
      "adults": 9071,
      "vary": 9072,
      "warning": 9073,
      "updates": 9074,
      "artistic": 9075,
      "army": 9076,
      "Cho": 9077,
      "assum": 9078,
      "honest": 9079,
      "3D": 9080,
      "lean": 9081,
      "miles": 9082,
      "tobacco": 9083,
      "authentic": 9084,
      "packaging": 9085,
      "concepts": 9086,
      "evolution": 9087,
      "horse": 9088,
      "university": 9089,
      "duties": 9090,
      "Earth": 9091,
      "tries": 9092,
      "Pla": 9093,
      "eting": 9094,
      "weekend": 9095,
      "len": 9096,
      "carrying": 9097,
      "SC": 9098,
      "agers": 9099,
      "proposing": 9100,
      "ACP": 9101,
      "Without": 9102,
      "Site": 9103,
      "800": 9104,
      "fat": 9105,
      "Hamb": 9106,
      "07": 9107,
      "everyday": 9108,
      "voluntary": 9109,
      "rev": 9110,
      "Mill": 9111,
      "applying": 9112,
      "crew": 9113,
      "tested": 9114,
      "bourg": 9115,
      "forests": 9116,
      "representation": 9117,
      "Technology": 9118,
      "subjects": 9119,
      "claimed": 9120,
      "cuts": 9121,
      "emerging": 9122,
      "Inn": 9123,
      "renowned": 9124,
      "appointment": 9125,
      "maritime": 9126,
      "luxurious": 9127,
      "solely": 9128,
      "offic": 9129,
      "nevertheless": 9130,
      "distort": 9131,
      "Page": 9132,
      "specified": 9133,
      "traditions": 9134,
      "clubs": 9135,
      "eventually": 9136,
      "vulnerable": 9137,
      "Wall": 9138,
      "restruct": 9139,
      "fourth": 9140,
      "complicated": 9141,
      "decre": 9142,
      "privi": 9143,
      "shipping": 9144,
      "gence": 9145,
      "impose": 9146,
      "prene": 9147,
      "EX": 9148,
      "Elect": 9149,
      "intensive": 9150,
      "Beach": 9151,
      "supplies": 9152,
      "Bad": 9153,
      "sop": 9154,
      "Framework": 9155,
      "accurate": 9156,
      "diverse": 9157,
      "Among": 9158,
      "Paul": 9159,
      "hael": 9160,
      "uds": 9161,
      "defect": 9162,
      "legitim": 9163,
      "selling": 9164,
      "Secret": 9165,
      "ahn": 9166,
      "Thursday": 9167,
      "abuse": 9168,
      "ams": 9169,
      "cycling": 9170,
      "Ru": 9171,
      "supplier": 9172,
      "03": 9173,
      "gained": 9174,
      "unning": 9175,
      "Qual": 9176,
      "suggestions": 9177,
      "Besides": 9178,
      "theory": 9179,
      "topics": 9180,
      "musical": 9181,
      "Women": 9182,
      "tables": 9183,
      "ationally": 9184,
      "Treat": 9185,
      "EADS": 9186,
      "absence": 9187,
      "culation": 9188,
      "England": 9189,
      "enabled": 9190,
      "makers": 9191,
      "2011": 9192,
      "lessons": 9193,
      "elsewhere": 9194,
      "Satur": 9195,
      "strain": 9196,
      "Author": 9197,
      "Assembly": 9198,
      "greatly": 9199,
      "Hy": 9200,
      "directory": 9201,
      "frame": 9202,
      "colours": 9203,
      "Island": 9204,
      "villages": 9205,
      "execut": 9206,
      "skill": 9207,
      "unforget": 9208,
      "countryside": 9209,
      "drinks": 9210,
      "departure": 9211,
      "arrived": 9212,
      "Santa": 9213,
      "teams": 9214,
      "autonom": 9215,
      "philosophy": 9216,
      "farming": 9217,
      "School": 9218,
      "celer": 9219,
      "excessive": 9220,
      "Stock": 9221,
      "ida": 9222,
      "ema": 9223,
      "Guests": 9224,
      "module": 9225,
      "Kur": 9226,
      "orf": 9227,
      "acknowledge": 9228,
      "deficit": 9229,
      "resident": 9230,
      "invited": 9231,
      "notes": 9232,
      "tea": 9233,
      "View": 9234,
      "inated": 9235,
      "phones": 9236,
      "PHP": 9237,
      "receiving": 9238,
      "reservations": 9239,
      "lich": 9240,
      "het": 9241,
      "wheel": 9242,
      "difficulty": 9243,
      "ological": 9244,
      "description": 9245,
      "Atlantic": 9246,
      "Legal": 9247,
      "itz": 9248,
      "spoke": 9249,
      "46": 9250,
      "rical": 9251,
      "deter": 9252,
      "Sunday": 9253,
      "tree": 9254,
      "uniform": 9255,
      "skiing": 9256,
      "Agriculture": 9257,
      "icing": 9258,
      "ride": 9259,
      "Fish": 9260,
      "exports": 9261,
      "disabled": 9262,
      "equival": 9263,
      "comparison": 9264,
      "Tha": 9265,
      "kilomet": 9266,
      "Congress": 9267,
      "Mot": 9268,
      "ibly": 9269,
      "lunch": 9270,
      "Having": 9271,
      "inner": 9272,
      "stars": 9273,
      "CC": 9274,
      "thedr": 9275,
      "suggested": 9276,
      "Royal": 9277,
      "PDF": 9278,
      "reaction": 9279,
      "paying": 9280,
      "ology": 9281,
      "satisfactory": 9282,
      "cean": 9283,
      "Tip": 9284,
      "hof": 9285,
      "attempts": 9286,
      "breach": 9287,
      "pursue": 9288,
      "Hamburg": 9289,
      "handle": 9290,
      "periods": 9291,
      "savings": 9292,
      "06": 9293,
      "permitted": 9294,
      "uggage": 9295,
      "princip": 9296,
      "Festival": 9297,
      "retail": 9298,
      "Bol": 9299,
      "tric": 9300,
      "trips": 9301,
      "mental": 9302,
      "united": 9303,
      "constitute": 9304,
      "Vill": 9305,
      "oration": 9306,
      "cher": 9307,
      "arguments": 9308,
      "fisher": 9309,
      "Sloven": 9310,
      "Op": 9311,
      "stabil": 9312,
      "promised": 9313,
      "significance": 9314,
      "flows": 9315,
      "42": 9316,
      "cock": 9317,
      "ultane": 9318,
      "enjoyed": 9319,
      "Barro": 9320,
      "lived": 9321,
      "manual": 9322,
      "banking": 9323,
      "destroyed": 9324,
      "religion": 9325,
      "aughter": 9326,
      "Monday": 9327,
      "football": 9328,
      "cooperate": 9329,
      "Exe": 9330,
      "obliged": 9331,
      "confirmation": 9332,
      "iring": 9333,
      "wan": 9334,
      "continuous": 9335,
      "portfol": 9336,
      "leaves": 9337,
      "politically": 9338,
      "necessarily": 9339,
      "delicious": 9340,
      "refers": 9341,
      "enabling": 9342,
      "sett": 9343,
      "festival": 9344,
      "97": 9345,
      "Food": 9346,
      "sheet": 9347,
      "uk": 9348,
      "Invest": 9349,
      "tennis": 9350,
      "revision": 9351,
      "Ul": 9352,
      "1994": 9353,
      "director": 9354,
      "ido": 9355,
      "plications": 9356,
      "ae": 9357,
      "resource": 9358,
      "negotiating": 9359,
      "uls": 9360,
      "Stras": 9361,
      "homes": 9362,
      "Cit": 9363,
      "harmonisation": 9364,
      "overview": 9365,
      "judge": 9366,
      "toile": 9367,
      "Addition": 9368,
      "municip": 9369,
      "specialist": 9370,
      "Educ": 9371,
      "CO2": 9372,
      "directed": 9373,
      "publication": 9374,
      "matically": 9375,
      "reserved": 9376,
      "Fort": 9377,
      "Alex": 9378,
      "cious": 9379,
      "freedoms": 9380,
      "unforgettable": 9381,
      "twenty": 9382,
      "cha": 9383,
      "Ros": 9384,
      "96": 9385,
      "Mob": 9386,
      "ante": 9387,
      "posing": 9388,
      "02": 9389,
      "didn": 9390,
      "placing": 9391,
      "cleaning": 9392,
      "tedly": 9393,
      "referendum": 9394,
      "ky": 9395,
      "Alban": 9396,
      "crop": 9397,
      "stick": 9398,
      "passion": 9399,
      "radical": 9400,
      "ECU": 9401,
      "programming": 9402,
      "sought": 9403,
      "Strasbourg": 9404,
      "imports": 9405,
      "welcomed": 9406,
      "killed": 9407,
      "covering": 9408,
      "entreprene": 9409,
      "edia": 9410,
      "oker": 9411,
      "ria": 9412,
      "Federation": 9413,
      "Express": 9414,
      "Finland": 9415,
      "manager": 9416,
      "introducing": 9417,
      "rising": 9418,
      "gallery": 9419,
      "supervision": 9420,
      "info": 9421,
      "collap": 9422,
      "Auditors": 9423,
      "instructions": 9424,
      "fly": 9425,
      "Online": 9426,
      "prosperity": 9427,
      "forthcoming": 9428,
      "Post": 9429,
      "rier": 9430,
      "USB": 9431,
      "allocated": 9432,
      "sections": 9433,
      "Tourism": 9434,
      "iro": 9435,
      "organic": 9436,
      "characters": 9437,
      "sounds": 9438,
      "Cre": 9439,
      "Socialist": 9440,
      "brid": 9441,
      "vine": 9442,
      "generate": 9443,
      "RA": 9444,
      "attrib": 9445,
      "Barroso": 9446,
      "cere": 9447,
      "Facilities": 9448,
      "labelling": 9449,
      "enterprise": 9450,
      "adding": 9451,
      "societies": 9452,
      "thedral": 9453,
      "1st": 9454,
      "sad": 9455,
      "surely": 9456,
      "welcomes": 9457,
      "secur": 9458,
      "proceedings": 9459,
      "recognized": 9460,
      "suffered": 9461,
      "Situated": 9462,
      "undoub": 9463,
      "trag": 9464,
      "fans": 9465,
      "excur": 9466,
      "neighb": 9467,
      "modules": 9468,
      "architect": 9469,
      "otic": 9470,
      "indirect": 9471,
      "contributed": 9472,
      "beings": 9473,
      "Fire": 9474,
      "haz": 9475,
      "surve": 9476,
      "parameters": 9477,
      "everybody": 9478,
      "preventing": 9479,
      "firmly": 9480,
      "Las": 9481,
      "armed": 9482,
      "realise": 9483,
      "stad": 9484,
      "exempt": 9485,
      "Gran": 9486,
      "wider": 9487,
      "raising": 9488,
      "acade": 9489,
      "ieval": 9490,
      "Pass": 9491,
      "yle": 9492,
      "broadcast": 9493,
      "indicate": 9494,
      "Hist": 9495,
      "originally": 9496,
      "turning": 9497,
      "acknowled": 9498,
      "ulous": 9499,
      "remained": 9500,
      "horiz": 9501,
      "missing": 9502,
      "wellness": 9503,
      "explained": 9504,
      "dies": 9505,
      "evident": 9506,
      "restricted": 9507,
      "SA": 9508,
      "odo": 9509,
      "cells": 9510,
      "Secretary": 9511,
      "gather": 9512,
      "logo": 9513,
      "Peter": 9514,
      "Golf": 9515,
      "mouth": 9516,
      "ista": 9517,
      "hat": 9518,
      "Tibet": 9519,
      "remarks": 9520,
      "shar": 9521,
      "actor": 9522,
      "sustainability": 9523,
      "Serbia": 9524,
      "Salz": 9525,
      "usal": 9526,
      "romantic": 9527,
      "Should": 9528,
      "fees": 9529,
      "functionality": 9530,
      "ili": 9531,
      "Moroc": 9532,
      "prime": 9533,
      "stret": 9534,
      "euros": 9535,
      "barriers": 9536,
      "Music": 9537,
      "classes": 9538,
      "Project": 9539,
      "CP": 9540,
      "vig": 9541,
      "studio": 9542,
      "stein": 9543,
      "Blue": 9544,
      "CAP": 9545,
      "chant": 9546,
      "Islamic": 9547,
      "Press": 9548,
      "iest": 9549,
      "reless": 9550,
      "PRO": 9551,
      "mits": 9552,
      "shr": 9553,
      "hardly": 9554,
      "bitr": 9555,
      "Michael": 9556,
      "Ref": 9557,
      "encing": 9558,
      "transmission": 9559,
      "Tar": 9560,
      "azz": 9561,
      "breath": 9562,
      "Mol": 9563,
      "ee": 9564,
      "nine": 9565,
      "Stability": 9566,
      "simultane": 9567,
      "enhanced": 9568,
      "Put": 9569,
      "Pet": 9570,
      "errors": 9571,
      "hospitality": 9572,
      "vessels": 9573,
      "hearing": 9574,
      "avia": 9575,
      "exclusion": 9576,
      "ministers": 9577,
      "collected": 9578,
      "Americans": 9579,
      "Indian": 9580,
      "obstacles": 9581,
      "Tom": 9582,
      "welcoming": 9583,
      "layer": 9584,
      "accus": 9585,
      "whereas": 9586,
      "combine": 9587,
      "movements": 9588,
      "uster": 9589,
      "saved": 9590,
      "fu": 9591,
      "stocks": 9592,
      "UT": 9593,
      "wireless": 9594,
      "pra": 9595,
      "sequent": 9596,
      "adapted": 9597,
      "commerce": 9598,
      "movie": 9599,
      "acceler": 9600,
      "Does": 9601,
      "Tal": 9602,
      "Start": 9603,
      "filter": 9604,
      "250": 9605,
      "permit": 9606,
      "Stat": 9607,
      "ika": 9608,
      "bomb": 9609,
      "thetic": 9610,
      "Tele": 9611,
      "pi": 9612,
      "icts": 9613,
      "ellers": 9614,
      "investigation": 9615,
      "ented": 9616,
      "dog": 9617,
      "HD": 9618,
      "museums": 9619,
      "internationally": 9620,
      "usage": 9621,
      "regardless": 9622,
      "exploitation": 9623,
      "imagine": 9624,
      "Pay": 9625,
      "tu": 9626,
      "considerably": 9627,
      "contro": 9628,
      "diagno": 9629,
      "Commissioners": 9630,
      "acceptance": 9631,
      "aza": 9632,
      "disasters": 9633,
      "para": 9634,
      "script": 9635,
      "productivity": 9636,
      "amazing": 9637,
      "User": 9638,
      "iversary": 9639,
      "Regional": 9640,
      "showed": 9641,
      "coordinated": 9642,
      "juris": 9643,
      "bug": 9644,
      "CF": 9645,
      "ün": 9646,
      "severe": 9647,
      "liked": 9648,
      "rational": 9649,
      "News": 9650,
      "reflected": 9651,
      "universities": 9652,
      "Asian": 9653,
      "worthy": 9654,
      "fascin": 9655,
      "motive": 9656,
      "fairly": 9657,
      "dignity": 9658,
      "68": 9659,
      "cking": 9660,
      "computers": 9661,
      "agg": 9662,
      "cancer": 9663,
      "discre": 9664,
      "restructuring": 9665,
      "Cop": 9666,
      "heim": 9667,
      "Partners": 9668,
      "oul": 9669,
      "deliber": 9670,
      "iance": 9671,
      "compact": 9672,
      "acies": 9673,
      "nament": 9674,
      "excluded": 9675,
      "timet": 9676,
      "plastic": 9677,
      "Resort": 9678,
      "penalty": 9679,
      "Cer": 9680,
      "female": 9681,
      "cribe": 9682,
      "än": 9683,
      "agre": 9684,
      "undoubtedly": 9685,
      "avour": 9686,
      "ultural": 9687,
      "ror": 9688,
      "meal": 9689,
      "dictator": 9690,
      "19th": 9691,
      "Train": 9692,
      "violations": 9693,
      "gate": 9694,
      "aling": 9695,
      "consulting": 9696,
      "ingred": 9697,
      "Saturday": 9698,
      "PPE": 9699,
      "inevit": 9700,
      "pled": 9701,
      "distinct": 9702,
      "ashing": 9703,
      "stic": 9704,
      "Casino": 9705,
      "novel": 9706,
      "generations": 9707,
      "songs": 9708,
      "Venice": 9709,
      "thes": 9710,
      "Mult": 9711,
      "cm": 9712,
      "Systems": 9713,
      "believes": 9714,
      "04": 9715,
      "Geneva": 9716,
      "managing": 9717,
      "videos": 9718,
      "amed": 9719,
      "sophist": 9720,
      "AK": 9721,
      "roots": 9722,
      "Inte": 9723,
      "Director": 9724,
      "aga": 9725,
      "Christmas": 9726,
      "transferred": 9727,
      "Balkans": 9728,
      "clause": 9729,
      "Box": 9730,
      "travelling": 9731,
      "printed": 9732,
      "reliability": 9733,
      "proves": 9734,
      "assembly": 9735,
      "dens": 9736,
      "ía": 9737,
      "guided": 9738,
      "udsman": 9739,
      "BC": 9740,
      "concentrate": 9741,
      "sq": 9742,
      "ws": 9743,
      "acks": 9744,
      "Valley": 9745,
      "enem": 9746,
      "supplied": 9747,
      "joining": 9748,
      "Smo": 9749,
      "pressed": 9750,
      "approve": 9751,
      "massage": 9752,
      "schedul": 9753,
      "Zim": 9754,
      "restored": 9755,
      "Gall": 9756,
      "Kir": 9757,
      "driven": 9758,
      "1980": 9759,
      "tracks": 9760,
      "experiment": 9761,
      "satisfy": 9762,
      "stages": 9763,
      "processed": 9764,
      "incred": 9765,
      "Organisation": 9766,
      "conventional": 9767,
      "Mountain": 9768,
      "thermal": 9769,
      "anticip": 9770,
      "arise": 9771,
      "commod": 9772,
      "filling": 9773,
      "disco": 9774,
      "undertaken": 9775,
      "ordered": 9776,
      "freely": 9777,
      "amenities": 9778,
      "Poker": 9779,
      "reflects": 9780,
      "Mod": 9781,
      "Corpor": 9782,
      "superior": 9783,
      "fishermen": 9784,
      "Kr": 9785,
      "subsequent": 9786,
      "ECB": 9787,
      "parallel": 9788,
      "NI": 9789,
      "rating": 9790,
      "quiry": 9791,
      "caf": 9792,
      "repair": 9793,
      "FOR": 9794,
      "Australia": 9795,
      "cue": 9796,
      "till": 9797,
      "85": 9798,
      "cultures": 9799,
      "Yugo": 9800,
      "worst": 9801,
      "designs": 9802,
      "Agenda": 9803,
      "reconstruction": 9804,
      "outs": 9805,
      "GM": 9806,
      "Av": 9807,
      "strengthened": 9808,
      "sovereignty": 9809,
      "Yugosl": 9810,
      "Next": 9811,
      "restore": 9812,
      "eu": 9813,
      "checks": 9814,
      "Friend": 9815,
      "infringe": 9816,
      "traged": 9817,
      "Team": 9818,
      "missions": 9819,
      "engage": 9820,
      "losses": 9821,
      "DI": 9822,
      "clin": 9823,
      "900": 9824,
      "factory": 9825,
      "learned": 9826,
      "breed": 9827,
      "liquid": 9828,
      "operates": 9829,
      "Far": 9830,
      "omas": 9831,
      "wed": 9832,
      "Wed": 9833,
      "partment": 9834,
      "interven": 9835,
      "beat": 9836,
      "heads": 9837,
      "Culture": 9838,
      "hiking": 9839,
      "cket": 9840,
      "calm": 9841,
      "ored": 9842,
      "pip": 9843,
      "Shop": 9844,
      "prest": 9845,
      "neighbouring": 9846,
      "listings": 9847,
      "lah": 9848,
      "2013": 9849,
      "eline": 9850,
      "oting": 9851,
      "cles": 9852,
      "anywhere": 9853,
      "Martin": 9854,
      "120": 9855,
      "endar": 9856,
      "underground": 9857,
      "province": 9858,
      "presenting": 9859,
      "raid": 9860,
      "grown": 9861,
      "panel": 9862,
      "briefly": 9863,
      "trends": 9864,
      "targeted": 9865,
      "produces": 9866,
      "passing": 9867,
      "Castle": 9868,
      "equivalent": 9869,
      "arbitr": 9870,
      "height": 9871,
      "treatments": 9872,
      "nail": 9873,
      "floors": 9874,
      "territorial": 9875,
      "endors": 9876,
      "43": 9877,
      "sights": 9878,
      "yard": 9879,
      "ecological": 9880,
      "Education": 9881,
      "Civil": 9882,
      "41": 9883,
      "coherent": 9884,
      "irty": 9885,
      "normally": 9886,
      "constitu": 9887,
      "LO": 9888,
      "absor": 9889,
      "panoramic": 9890,
      "Common": 9891,
      "Trek": 9892,
      "editor": 9893,
      "Water": 9894,
      "deeply": 9895,
      "kernel": 9896,
      "Omb": 9897,
      "Consequently": 9898,
      "anniversary": 9899,
      "Lim": 9900,
      "Server": 9901,
      "portfolio": 9902,
      "varied": 9903,
      "Executive": 9904,
      "counts": 9905,
      "individually": 9906,
      "engaged": 9907,
      "picturesque": 9908,
      "multilateral": 9909,
      "Islands": 9910,
      "agon": 9911,
      "Georgia": 9912,
      "das": 9913,
      "damages": 9914,
      "PR": 9915,
      "student": 9916,
      "Sud": 9917,
      "Denmark": 9918,
      "pretty": 9919,
      "sensible": 9920,
      "attached": 9921,
      "pillar": 9922,
      "EW": 9923,
      "ifies": 9924,
      "clock": 9925,
      "petition": 9926,
      "splend": 9927,
      "adds": 9928,
      "usive": 9929,
      "ody": 9930,
      "formats": 9931,
      "tough": 9932,
[...]
