<unk>	0
<s>	0
</s>	0
▁t	-0
▁a	-1
he	-2
in	-3
re	-4
▁the	-5
on	-6
er	-7
▁o	-8
at	-9
▁,	-10
▁s	-11
en	-12
▁w	-13
is	-14
▁c	-15
▁.	-16
it	-17
nd	-18
or	-19
es	-20
▁p	-21
▁f	-22
▁of	-23
▁b	-24
an	-25
▁in	-26
ion	-27
al	-28
##	-29
ou	-30
▁to	-31
ed	-32
▁and	-33
ar	-34
ing	-35
▁m	-36
ic	-37
ro	-38
▁d	-39
▁th	-40
ent	-41
le	-42
▁h	-43
as	-44
▁re	-45
om	-46
▁n	-47
il	-48
st	-49
AT	-50
ve	-51
ct	-52
▁e	-53
▁is	-54
ot	-55
▁T	-56
▁be	-57
▁I	-58
▁l	-59
ly	-60
ation	-61
▁for	-62
ur	-63
▁on	-64
os	-65
▁that	-66
ut	-67
▁g	-68
▁C	-69
et	-70
id	-71
ce	-72
im	-73
ment	-74
ol	-75
us	-76
▁S	-77
▁pro	-78
ra	-79
▁y	-80
el	-81
▁A	-82
▁M	-83
ith	-84
ver	-85
▁con	-86
pe	-87
▁&	-88
▁E	-89
ig	-90
▁The	-91
▁with	-92
▁al	-93
ch	-94
▁P	-95
▁##	-96
ow	-97
▁wh	-98
ul	-99
▁st	-100
qu	-101
##-	-102
##-##	-103
▁are	-104
▁it	-105
ort	-106
ay	-107
▁as	-108
▁we	-109
▁you	-110
ir	-111
ap	-112
res	-113
▁de	-114
ad	-115
ill	-116
▁an	-117
un	-118
▁com	-119
ers	-120
ld	-121
am	-122
ies	-123
ate	-124
▁this	-125
▁ha	-126
ter	-127
▁W	-128
▁su	-129
ble	-130
ity	-131
ess	-132
if	-133
▁ex	-134
ge	-135
her	-136
▁or	-137
▁v	-138
▁B	-139
port	-140
▁not	-141
op	-142
em	-143
▁ne	-144
est	-145
ive	-146
ke	-147
▁by	-148
ant	-149
▁have	-150
▁at	-151
ich	-152
ore	-153
ist	-154
ain	-155
apos	-156
ust	-157
▁F	-158
nt	-159
se	-160
art	-161
ould	-162
▁r	-163
uro	-164
rom	-165
oc	-166
igh	-167
▁se	-168
od	-169
▁will	-170
▁sh	-171
iv	-172
▁which	-173
▁Euro	-174
▁1	-175
▁H	-176
ial	-177
ac	-178
▁en	-179
▁Europe	-180
▁from	-181
▁G	-182
ia	-183
um	-184
ect	-185
▁2	-186
▁us	-187
▁D	-188
ure	-189
▁(	-190
▁R	-191
▁can	-192
▁)	-193
▁he	-194
ions	-195
▁has	-196
▁all	-197
▁im	-198
our	-199
omm	-200
ard	-201
and	-202
▁le	-203
▁L	-204
ight	-205
sion	-206
▁u	-207
pl	-208
end	-209
ri	-210
▁U	-211
▁wor	-212
▁was	-213
▁our	-214
te	-215
▁res	-216
▁O	-217
▁ch	-218
▁In	-219
ie	-220
▁Comm	-221
▁European	-222
all	-223
ber	-224
▁comp	-225
▁Th	-226
th	-227
▁N	-228
so	-229
ud	-230
ff	-231
ther	-232
▁ad	-233
rou	-234
ical	-235
ak	-236
ated	-237
cc	-238
ount	-239
quot	-240
ast	-241
00	-242
▁cont	-243
▁:	-244
able	-245
▁also	-246
ous	-247
very	-248
ost	-249
▁ag	-250
du	-251
▁part	-252
▁me	-253
ab	-254
▁pl	-255
▁-	-256
ire	-257
ations	-258
ans	-259
ide	-260
age	-261
ult	-262
▁ap	-263
out	-264
▁do	-265
ome	-266
ag	-267
▁your	-268
pt	-269
▁un	-270
▁its	-271
ission	-272
vel	-273
▁We	-274
are	-275
▁ab	-276
ice	-277
▁St	-278
ree	-279
ell	-280
per	-281
▁whe	-282
act	-283
ake	-284
ip	-285
▁but	-286
ance	-287
▁there	-288
orm	-289
▁go	-290
ine	-291
▁It	-292
og	-293
▁j	-294
▁Commission	-295
▁Mr	-296
▁qu	-297
gh	-298
ments	-299
ary	-300
▁reg	-301
ue	-302
▁inc	-303
▁would	-304
ident	-305
▁k	-306
▁more	-307
ction	-308
ong	-309
ates	-310
ition	-311
▁tr	-312
▁their	-313
iz	-314
▁dis	-315
▁man	-316
▁so	-317
▁cl	-318
▁int	-319
▁been	-320
▁pol	-321
ose	-322
tern	-323
ere	-324
ind	-325
ime	-326
▁am	-327
reat	-328
ear	-329
▁one	-330
▁This	-331
con	-332
▁li	-333
form	-334
erv	-335
▁Un	-336
ark	-337
ail	-338
▁should	-339
ally	-340
pport	-341
▁acc	-342
ru	-343
▁up	-344
▁ro	-345
▁other	-346
erm	-347
ish	-348
▁work	-349
▁tra	-350
▁new	-351
ign	-352
▁off	-353
▁count	-354
▁comm	-355
▁’	-356
si	-357
▁Pres	-358
ry	-359
ase	-360
▁out	-361
▁spe	-362
ite	-363
ok	-364
ace	-365
ub	-366
ach	-367
pos	-368
▁must	-369
ence	-370
▁pr	-371
cial	-372
▁pre	-373
▁V	-374
▁who	-375
ress	-376
ational	-377
ack	-378
▁te	-379
▁like	-380
▁J	-381
ities	-382
ord	-383
▁pos	-384
otel	-385
▁co	-386
▁very	-387
▁need	-388
ens	-389
▁they	-390
▁pe	-391
one	-392
arl	-393
▁year	-394
nc	-395
▁President	-396
▁ind	-397
▁K	-398
▁produ	-399
▁ev	-400
int	-401
▁200	-402
▁time	-403
▁only	-404
ame	-405
▁cons	-406
▁ar	-407
▁bec	-408
▁/	-409
ject	-410
aus	-411
▁about	-412
▁than	-413
▁und	-414
ember	-415
▁any	-416
▁per	-417
ious	-418
pro	-419
▁prov	-420
▁right	-421
velop	-422
ise	-423
▁no	-424
▁?	-425
av	-426
cess	-427
▁po	-428
arlia	-429
▁bet	-430
ll	-431
▁these	-432
▁rel	-433
ep	-434
fore	-435
▁rec	-436
ple	-437
arliament	-438
▁sy	-439
ram	-440
▁import	-441
▁sp	-442
▁3	-443
ution	-444
▁report	-445
ass	-446
ility	-447
▁ra	-448
▁develop	-449
ors	-450
ks	-451
enc	-452
▁if	-453
ople	-454
▁Union	-455
wn	-456
▁&#	-457
irst	-458
▁act	-459
ob	-460
now	-461
▁them	-462
ern	-463
ian	-464
▁serv	-465
▁Y	-466
ries	-467
▁trans	-468
▁fe	-469
ures	-470
fere	-471
▁em	-472
▁over	-473
stem	-474
▁Parliament	-475
oy	-476
ause	-477
ings	-478
▁inst	-479
lic	-480
▁conc	-481
ert	-482
▁dec	-483
lud	-484
ang	-485
ular	-486
▁eff	-487
▁EU	-488
ile	-489
get	-490
▁people	-491
▁into	-492
we	-493
ays	-494
▁sub	-495
▁19	-496
ific	-497
▁des	-498
pect	-499
▁well	-500
red	-501
▁my	-502
iew	-503
ov	-504
ook	-505
▁support	-506
▁some	-507
▁use	-508
ual	-509
ounc	-510
▁were	-511
▁what	-512
▁Ch	-513
▁such	-514
▁sa	-515
ful	-516
▁States	-517
▁op	-518
ft	-519
▁system	-520
ade	-521
▁add	-522
▁ob	-523
xt	-524
und	-525
▁Member	-526
▁dif	-527
conom	-528
ices	-529
ced	-530
▁sc	-531
▁mark	-532
lect	-533
ric	-534
▁under	-535
▁first	-536
▁inform	-537
ient	-538
▁countries	-539
resent	-540
▁fin	-541
▁when	-542
der	-543
▁most	-544
▁inv	-545
▁!	-546
▁;	-547
▁loc	-548
ouncil	-549
▁&#9	-550
ating	-551
▁partic	-552
ild	-553
▁his	-554
rit	-555
ater	-556
irect	-557
▁know	-558
ative	-559
▁Council	-560
rough	-561
▁polic	-562
▁cent	-563
▁..	-564
▁now	-565
sible	-566
▁important	-567
ound	-568
ory	-569
▁again	-570
▁just	-571
▁how	-572
▁make	-573
ever	-574
▁tw	-575
low	-576
▁includ	-577
▁prog	-578
▁hotel	-579
▁gu	-580
hen	-581
ange	-582
ween	-583
▁econom	-584
▁–	-585
▁ent	-586
▁inte	-587
▁many	-588
▁bas	-589
▁att	-590
▁between	-591
ink	-592
hed	-593
ren	-594
▁propos	-595
ces	-596
▁requ	-597
▁ass	-598
▁intern	-599
cept	-600
ough	-601
▁...	-602
▁dem	-603
roup	-604
▁market	-605
ove	-606
▁because	-607
▁take	-608
ted	-609
fter	-610
ied	-611
▁sit	-612
▁world	-613
▁As	-614
pon	-615
▁mod	-616
▁la	-617
▁form	-618
▁col	-619
ural	-620
▁room	-621
any	-622
ention	-623
ublic	-624
▁soc	-625
▁rem	-626
▁where	-627
ards	-628
▁ext	-629
▁4	-630
▁made	-631
ality	-632
▁leg	-633
▁disc	-634
▁ac	-635
▁information	-636
ph	-637
▁two	-638
▁cle	-639
▁high	-640
▁point	-641
▁great	-642
ives	-643
oth	-644
▁see	-645
▁good	-646
▁years	-647
▁every	-648
uring	-649
chn	-650
▁av	-651
▁5	-652
▁If	-653
▁pers	-654
▁way	-655
▁product	-656
▁even	-657
round	-658
▁iss	-659
▁through	-660
▁Con	-661
olog	-662
ract	-663
▁bu	-664
als	-665
rib	-666
▁sol	-667
▁those	-668
▁direct	-669
ener	-670
▁set	-671
▁had	-672
ax	-673
▁want	-674
▁min	-675
ood	-676
▁polit	-677
blem	-678
ues	-679
arm	-680
▁On	-681
own	-682
gy	-683
▁agree	-684
▁policy	-685
▁own	-686
vern	-687
▁tak	-688
▁aut	-689
abl	-690
▁being	-691
▁problem	-692
▁may	-693
ieve	-694
day	-695
ited	-696
arge	-697
row	-698
ism	-699
ages	-700
ew	-701
ick	-702
ib	-703
vers	-704
▁There	-705
▁str	-706
▁appro	-707
▁fact	-708
▁long	-709
▁prot	-710
▁view	-711
▁particular	-712
▁num	-713
unity	-714
▁ke	-715
urn	-716
amp	-717
▁bel	-718
gan	-719
ck	-720
uch	-721
▁process	-722
lp	-723
▁vot	-724
elf	-725
ting	-726
rest	-727
emb	-728
land	-729
▁trad	-730
▁sm	-731
▁respon	-732
▁program	-733
▁You	-734
air	-735
▁cur	-736
▁order	-737
▁differe	-738
▁quest	-739
read	-740
▁area	-741
▁cour	-742
▁bus	-743
▁main	-744
▁car	-745
▁here	-746
▁end	-747
▁rest	-748
▁cre	-749
▁find	-750
▁mon	-751
ision	-752
ines	-753
▁call	-754
ince	-755
▁Se	-756
▁Re	-757
▁For	-758
me	-759
▁techn	-760
▁def	-761
▁Am	-762
▁ful	-763
▁after	-764
▁political	-765
▁comple	-766
uman	-767
▁situ	-768
▁ref	-769
▁place	-770
▁deb	-771
▁term	-772
ork	-773
▁ph	-774
ower	-775
iet	-776
▁person	-777
▁exp	-778
▁inter	-779
▁concern	-780
▁possible	-781
▁public	-782
▁help	-783
ruct	-784
▁conf	-785
▁20	-786
▁same	-787
▁provid	-788
ency	-789
▁Wh	-790
ouse	-791
iness	-792
ning	-793
▁fl	-794
▁appl	-795
▁exper	-796
rat	-797
▁economic	-798
▁effect	-799
▁access	-800
rent	-801
▁protect	-802
ved	-803
▁clear	-804
▁country	-805
▁“	-806
ath	-807
▁contin	-808
▁ser	-809
▁say	-810
▁sim	-811
▁incre	-812
iron	-813
▁development	-814
▁De	-815
▁rep	-816
ents	-817
▁does	-818
▁could	-819
▁interest	-820
▁aw	-821
ily	-822
▁level	-823
uss	-824
▁then	-825
ten	-826
▁within	-827
ised	-828
▁rights	-829
itte	-830
hes	-831
▁result	-832
▁stand	-833
▁del	-834
▁sec	-835
▁exam	-836
▁%	-837
▁free	-838
▁avail	-839
ertain	-840
▁present	-841
▁against	-842
▁therefore	-843
▁both	-844
arch	-845
▁used	-846
ner	-847
io	-848
ts	-849
▁equ	-850
▁val	-851
ron	-852
▁How	-853
▁dist	-854
▁much	-855
▁fol	-856
▁Pro	-857
ason	-858
▁met	-859
▁est	-860
▁get	-861
▁gener	-862
▁det	-863
ute	-864
▁Al	-865
itions	-866
ustom	-867
viron	-868
utions	-869
▁dat	-870
▁play	-871
▁gl	-872
hip	-873
iven	-874
ploy	-875
▁fund	-876
▁social	-877
▁Germ	-878
▁mak	-879
▁finan	-880
not	-881
▁vis	-882
▁human	-883
ply	-884
ically	-885
▁different	-886
▁”	-887
▁mat	-888
▁cr	-889
▁group	-890
ict	-891
▁fam	-892
▁sign	-893
▁Hotel	-894
▁without	-895
▁sur	-896
▁lead	-897
▁meas	-898
ittee	-899
▁spec	-900
ran	-901
aj	-902
eration	-903
vironment	-904
uc	-905
▁number	-906
old	-907
▁think	-908
▁ens	-909
▁last	-910
▁international	-911
▁var	-912
its	-913
cond	-914
▁allow	-915
▁govern	-916
▁services	-917
▁bl	-918
▁real	-919
▁cond	-920
▁organ	-921
ration	-922
▁oper	-923
▁still	-924
embers	-925
▁available	-926
▁cap	-927
▁hand	-928
ng	-929
▁require	-930
ene	-931
▁back	-932
ists	-933
▁6	-934
▁adv	-935
les	-936
sib	-937
ics	-938
urther	-939
▁const	-940
▁special	-941
▁fut	-942
▁open	-943
ready	-944
▁business	-945
alk	-946
▁look	-947
▁compet	-948
hing	-949
▁custom	-950
▁current	-951
▁offer	-952
ty	-953
els	-954
nce	-955
▁believe	-956
▁follow	-957
▁project	-958
▁already	-959
▁before	-960
ulation	-961
1;	-962
▁&#91;	-963
ug	-964
▁future	-965
ional	-966
▁start	-967
3;	-968
▁&#93;	-969
▁small	-970
ants	-971
ope	-972
▁air	-973
▁down	-974
▁national	-975
▁That	-976
pr	-977
▁course	-978
▁prev	-979
▁today	-980
led	-981
▁products	-982
ience	-983
▁cor	-984
▁state	-985
ral	-986
plement	-987
alth	-988
▁ins	-989
▁med	-990
▁able	-991
▁environment	-992
▁He	-993
ness	-994
omet	-995
▁indust	-996
▁too	-997
▁design	-998
▁All	-999
▁quality	-1000
itiz	-1001
▁prom	-1002
▁Ar	-1003
ital	-1004
▁ide	-1005
ving	-1006
▁service	-1007
ier	-1008
▁cannot	-1009
ication	-1010
▁data	-1011
hor	-1012
▁certain	-1013
▁case	-1014
▁day	-1015
tle	-1016
urity	-1017
▁lif	-1018
▁art	-1019
ss	-1020
▁rev	-1021
▁che	-1022
eld	-1023
ately	-1024
▁Commissioner	-1025
▁contro	-1026
▁regard	-1027
ished	-1028
▁offers	-1029
▁question	-1030
▁fac	-1031
ank	-1032
com	-1033
ves	-1034
▁put	-1035
▁law	-1036
▁br	-1037
▁impro	-1038
ajor	-1039
lease	-1040
▁since	-1041
▁pur	-1042
▁But	-1043
▁meet	-1044
▁bo	-1045
fort	-1046
ix	-1047
▁eas	-1048
udget	-1049
▁At	-1050
app	-1051
▁inf	-1052
▁best	-1053
iving	-1054
ually	-1055
less	-1056
▁financial	-1057
▁citiz	-1058
arg	-1059
▁reason	-1060
▁during	-1061
inc	-1062
▁debate	-1063
▁nat	-1064
▁ach	-1065
▁ter	-1066
▁said	-1067
ccess	-1068
▁199	-1069
ock	-1070
▁issue	-1071
▁7	-1072
▁city	-1073
ered	-1074
▁proposal	-1075
▁means	-1076
▁respect	-1077
▁her	-1078
ird	-1079
▁saf	-1080
▁10	-1081
ains	-1082
▁cost	-1083
▁web	-1084
▁example	-1085
ather	-1086
▁0	-1087
▁beh	-1088
▁ask	-1089
▁prof	-1090
ars	-1091
▁large	-1092
▁ed	-1093
▁implement	-1094
ination	-1095
▁major	-1096
▁list	-1097
▁8	-1098
▁However	-1099
ining	-1100
▁dra	-1101
▁show	-1102
▁including	-1103
▁sect	-1104
▁found	-1105
▁elect	-1106
▁situation	-1107
que	-1108
▁necess	-1109
▁coop	-1110
▁9	-1111
ider	-1112
▁Our	-1113
ined	-1114
isation	-1115
ified	-1116
ivid	-1117
▁common	-1118
▁amend	-1119
▁And	-1120
▁ener	-1121
▁resol	-1122
▁es	-1123
▁With	-1124
ys	-1125
ina	-1126
iss	-1127
▁child	-1128
▁few	-1129
▁based	-1130
▁each	-1131
ways	-1132
▁fun	-1133
▁adop	-1134
ential	-1135
▁object	-1136
ability	-1137
ized	-1138
▁citizens	-1139
▁redu	-1140
ne	-1141
reed	-1142
▁Sp	-1143
▁sup	-1144
▁hist	-1145
lus	-1146
▁activ	-1147
mit	-1148
▁instit	-1149
pare	-1150
▁imp	-1151
imes	-1152
ilities	-1153
▁ret	-1154
▁Committee	-1155
▁rooms	-1156
men	-1157
▁democ	-1158
ware	-1159
▁cult	-1160
▁read	-1161
▁three	-1162
illion	-1163
▁measures	-1164
▁represent	-1165
▁invest	-1166
▁author	-1167
▁areas	-1168
▁employ	-1169
▁power	-1170
ivers	-1171
▁Intern	-1172
▁give	-1173
come	-1174
▁ensure	-1175
▁success	-1176
▁energy	-1177
▁next	-1178
▁opt	-1179
▁build	-1180
▁account	-1181
▁rece	-1182
ased	-1183
▁ty	-1184
▁further	-1185
ology	-1186
▁budget	-1187
▁grow	-1188
▁neg	-1189
ven	-1190
▁provide	-1191
ield	-1192
▁taken	-1193
ward	-1194
▁US	-1195
▁establ	-1196
▁agreement	-1197
▁dep	-1198
▁An	-1199
other	-1200
▁To	-1201
itional	-1202
ently	-1203
▁Is	-1204
▁Z	-1205
omen	-1206
▁stay	-1207
alf	-1208
itive	-1209
▁far	-1210
▁second	-1211
ann	-1212
▁pay	-1213
ium	-1214
ec	-1215
▁pass	-1216
joy	-1217
line	-1218
fic	-1219
eur	-1220
▁expl	-1221
aut	-1222
▁company	-1223
▁key	-1224
ising	-1225
ik	-1226
▁opport	-1227
ible	-1228
▁accept	-1229
▁come	-1230
▁problems	-1231
▁shall	-1232
▁necessary	-1233
▁fore	-1234
isl	-1235
▁somet	-1236
▁position	-1237
ases	-1238
▁change	-1239
ross	-1240
ests	-1241
nect	-1242
▁security	-1243
ules	-1244
oint	-1245
▁hope	-1246
az	-1247
aur	-1248
▁priv	-1249
▁princ	-1250
▁stud	-1251
reak	-1252
utes	-1253
▁health	-1254
▁given	-1255
▁why	-1256
▁init	-1257
▁pract	-1258
▁Le	-1259
▁however	-1260
tain	-1261
▁pres	-1262
stand	-1263
▁cooperation	-1264
▁old	-1265
obal	-1266
▁fil	-1267
▁ele	-1268
▁dr	-1269
▁invol	-1270
▁vote	-1271
ER	-1272
pecial	-1273
ond	-1274
raph	-1275
▁life	-1276
▁protection	-1277
here	-1278
▁wel	-1279
▁imm	-1280
▁while	-1281
riend	-1282
▁aff	-1283
▁did	-1284
▁complete	-1285
▁control	-1286
cell	-1287
▁tour	-1288
sibility	-1289
▁needs	-1290
▁pop	-1291
▁always	-1292
▁commun	-1293
▁close	-1294
▁legisl	-1295
▁sk	-1296
iety	-1297
▁name	-1298
▁exc	-1299
▁They	-1300
▁located	-1301
eng	-1302
▁individ	-1303
▁comb	-1304
eric	-1305
ante	-1306
▁strate	-1307
▁deal	-1308
▁happ	-1309
ize	-1310
agement	-1311
000	-1312
▁short	-1313
▁action	-1314
oad	-1315
▁ver	-1316
▁better	-1317
▁full	-1318
ave	-1319
▁consum	-1320
cy	-1321
▁using	-1322
inal	-1323
ling	-1324
ference	-1325
▁fav	-1326
▁mus	-1327
▁What	-1328
ret	-1329
▁Group	-1330
wards	-1331
▁United	-1332
ek	-1333
▁less	-1334
▁visit	-1335
urg	-1336
▁consider	-1337
▁unt	-1338
cing	-1339
▁integ	-1340
▁cho	-1341
▁connect	-1342
▁lit	-1343
▁par	-1344
irm	-1345
rad	-1346
ury	-1347
▁15	-1348
▁net	-1349
▁working	-1350
▁production	-1351
▁Americ	-1352
▁So	-1353
ners	-1354
▁transport	-1355
▁pri	-1356
▁around	-1357
▁When	-1358
▁legal	-1359
au	-1360
▁crit	-1361
▁enjoy	-1362
▁Ex	-1363
▁specific	-1364
ung	-1365
▁chang	-1366
par	-1367
▁Mrs	-1368
▁word	-1369
ources	-1370
▁whether	-1371
ify	-1372
▁el	-1373
▁terms	-1374
▁particularly	-1375
▁Community	-1376
▁rapport	-1377
▁care	-1378
gether	-1379
▁together	-1380
sel	-1381
▁Ind	-1382
▁trade	-1383
▁become	-1384
▁step	-1385
ons	-1386
ins	-1387
▁subject	-1388
ises	-1389
▁rapporteur	-1390
por	-1391
▁making	-1392
▁Q	-1393
ficult	-1394
▁House	-1395
▁she	-1396
▁sing	-1397
iod	-1398
▁run	-1399
▁difficult	-1400
ale	-1401
▁These	-1402
▁field	-1403
▁modern	-1404
▁rese	-1405
▁individual	-1406
▁another	-1407
oura	-1408
ands	-1409
gg	-1410
▁global	-1411
▁Mad	-1412
aff	-1413
ets	-1414
▁contrib	-1415
anies	-1416
▁friend	-1417
▁whole	-1418
▁children	-1419
ims	-1420
▁proper	-1421
over	-1422
▁issues	-1423
▁12	-1424
▁bene	-1425
▁water	-1426
▁promot	-1427
▁plan	-1428
▁non	-1429
pecially	-1430
ights	-1431
orth	-1432
up	-1433
▁lim	-1434
▁exist	-1435
arante	-1436
▁centre	-1437
▁conditions	-1438
▁text	-1439
▁beg	-1440
olid	-1441
▁local	-1442
iation	-1443
▁address	-1444
▁sector	-1445
▁systems	-1446
ftware	-1447
▁third	-1448
▁equip	-1449
ense	-1450
iver	-1451
ocu	-1452
▁speak	-1453
fer	-1454
▁accord	-1455
▁various	-1456
▁role	-1457
inist	-1458
mental	-1459
▁industry	-1460
AR	-1461
▁commit	-1462
▁guarante	-1463
▁companies	-1464
▁tax	-1465
selves	-1466
▁experience	-1467
angu	-1468
▁women	-1469
▁month	-1470
▁basis	-1471
ively	-1472
▁writ	-1473
▁book	-1474
12	-1475
▁matter	-1476
ux	-1477
▁appe	-1478
▁near	-1479
▁occ	-1480
▁pack	-1481
▁Ad	-1482
▁18	-1483
▁especially	-1484
▁perform	-1485
reaty	-1486
▁gent	-1487
fact	-1488
▁sum	-1489
▁called	-1490
▁site	-1491
▁members	-1492
▁effort	-1493
reen	-1494
▁Cent	-1495
▁orig	-1496
▁done	-1497
▁ris	-1498
nov	-1499
▁Sw	-1500
▁break	-1501
▁discuss	-1502
imate	-1503
▁proced	-1504
▁research	-1505
▁fram	-1506
▁beaut	-1507
▁though	-1508
▁bed	-1509
▁negot	-1510
▁move	-1511
isions	-1512
▁German	-1513
▁really	-1514
▁gentle	-1515
▁Be	-1516
▁bro	-1517
▁create	-1518
thing	-1519
▁region	-1520
10	-1521
aterial	-1522
▁pat	-1523
▁top	-1524
ived	-1525
▁docu	-1526
▁Ag	-1527
▁wish	-1528
▁prior	-1529
▁period	-1530
ilit	-1531
▁feat	-1532
ique	-1533
▁strong	-1534
▁improve	-1535
▁press	-1536
ences	-1537
▁war	-1538
▁arr	-1539
▁z	-1540
rodu	-1541
▁food	-1542
▁No	-1543
▁turn	-1544
oney	-1545
ances	-1546
▁sever	-1547
icient	-1548
▁decision	-1549
▁government	-1550
ety	-1551
ption	-1552
ah	-1553
ool	-1554
ours	-1555
▁million	-1556
▁Go	-1557
ended	-1558
adies	-1559
▁among	-1560
▁Pl	-1561
▁Sh	-1562
▁comfort	-1563
▁thank	-1564
ization	-1565
▁something	-1566
▁struct	-1567
▁resolution	-1568
▁ann	-1569
▁job	-1570
▁page	-1571
▁itself	-1572
▁ple	-1573
▁eng	-1574
▁several	-1575
▁single	-1576
▁langu	-1577
ogn	-1578
▁restaur	-1579
ications	-1580
▁general	-1581
tic	-1582
▁excell	-1583
co	-1584
ending	-1585
atic	-1586
▁line	-1587
▁programme	-1588
asing	-1589
▁initi	-1590
▁continue	-1591
▁home	-1592
▁personal	-1593
▁lab	-1594
▁gentlemen	-1595
▁Germany	-1596
OR	-1597
▁webs	-1598
▁netw	-1599
▁material	-1600
▁mult	-1601
▁Fin	-1602
▁contact	-1603
▁let	-1604
▁introdu	-1605
▁going	-1606
ories	-1607
▁dou	-1608
▁enc	-1609
ishing	-1610
▁serious	-1611
▁management	-1612
▁town	-1613
isis	-1614
▁often	-1615
ither	-1616
▁detail	-1617
ped	-1618
ably	-1619
▁peace	-1620
room	-1621
▁opin	-1622
▁directive	-1623
iple	-1624
▁relations	-1625
▁adm	-1626
▁Bar	-1627
▁sl	-1628
outh	-1629
▁gr	-1630
ody	-1631
ST	-1632
pri	-1633
ework	-1634
▁least	-1635
▁ve	-1636
▁rules	-1637
▁following	-1638
▁mot	-1639
▁kind	-1640
ricult	-1641
ification	-1642
▁understand	-1643
▁benef	-1644
▁En	-1645
ipl	-1646
rand	-1647
▁crisis	-1648
ror	-1649
▁Pol	-1650
▁forward	-1651
▁range	-1652
ried	-1653
▁away	-1654
▁family	-1655
▁particip	-1656
side	-1657
leg	-1658
▁reform	-1659
▁class	-1660
▁negoti	-1661
▁towards	-1662
lev	-1663
ash	-1664
ared	-1665
▁hard	-1666
▁bar	-1667
▁mention	-1668
▁progress	-1669
▁Com	-1670
▁once	-1671
▁welcome	-1672
ering	-1673
▁ess	-1674
▁express	-1675
▁char	-1676
▁Tur	-1677
▁feel	-1678
though	-1679
▁bal	-1680
▁recogn	-1681
▁tot	-1682
▁software	-1683
▁Madam	-1684
▁money	-1685
▁et	-1686
▁review	-1687
▁things	-1688
▁customers	-1689
▁apart	-1690
▁institutions	-1691
rict	-1692
▁Cl	-1693
▁30	-1694
▁excellent	-1695
▁aid	-1696
▁until	-1697
▁price	-1698
ister	-1699
▁expect	-1700
▁sw	-1701
▁Treaty	-1702
▁location	-1703
▁Af	-1704
▁colle	-1705
▁keep	-1706
▁known	-1707
▁post	-1708
▁favour	-1709
▁little	-1710
▁Mon	-1711
▁days	-1712
▁Ap	-1713
▁install	-1714
▁approach	-1715
▁Mar	-1716
iol	-1717
airs	-1718
▁staff	-1719
ze	-1720
▁begin	-1721
▁extre	-1722
▁increase	-1723
▁opportunity	-1724
aps	-1725
▁bring	-1726
idency	-1727
▁function	-1728
▁him	-1729
▁profess	-1730
▁Members	-1731
▁achieve	-1732
sequ	-1733
oor	-1734
way	-1735
▁private	-1736
▁activities	-1737
atives	-1738
fect	-1739
▁Ital	-1740
▁clos	-1741
ator	-1742
▁suff	-1743
▁2009	-1744
▁rather	-1745
by	-1746
iful	-1747
ping	-1748
vention	-1749
istic	-1750
▁partners	-1751
eed	-1752
▁Pr	-1753
most	-1754
gt	-1755
▁resources	-1756
▁mean	-1757
▁New	-1758
ters	-1759
osp	-1760
▁app	-1761
ides	-1762
▁try	-1763
ians	-1764
▁quite	-1765
▁growth	-1766
▁tre	-1767
▁treat	-1768
▁wide	-1769
▁provided	-1770
▁fully	-1771
reedom	-1772
▁dev	-1773
▁State	-1774
▁foc	-1775
itor	-1776
text	-1777
▁might	-1778
▁seem	-1779
▁Gu	-1780
▁big	-1781
na	-1782
racy	-1783
ery	-1784
▁tas	-1785
▁walk	-1786
▁technology	-1787
▁ladies	-1788
▁four	-1789
▁request	-1790
▁port	-1791
▁Sc	-1792
mb	-1793
▁signific	-1794
af	-1795
▁light	-1796
▁yet	-1797
▁hig	-1798
▁proposals	-1799
▁aim	-1800
▁value	-1801
▁amendments	-1802
▁travel	-1803
mber	-1804
▁stat	-1805
aces	-1806
▁Fr	-1807
erg	-1808
▁include	-1809
▁Te	-1810
▁bord	-1811
▁left	-1812
▁educ	-1813
▁Wor	-1814
ront	-1815
▁phot	-1816
▁heart	-1817
▁having	-1818
▁After	-1819
ule	-1820
▁solution	-1821
▁safety	-1822
fast	-1823
▁Or	-1824
▁framework	-1825
▁along	-1826
▁taking	-1827
ratic	-1828
▁stren	-1829
▁remain	-1830
▁regul	-1831
▁event	-1832
▁instru	-1833
▁Ro	-1834
pose	-1835
idence	-1836
irc	-1837
▁sat	-1838
▁costs	-1839
fully	-1840
▁above	-1841
▁adopted	-1842
icial	-1843
▁abs	-1844
▁times	-1845
▁ear	-1846
▁Pal	-1847
▁content	-1848
▁essential	-1849
▁addition	-1850
▁creat	-1851
▁recomm	-1852
124	-1853
▁viol	-1854
▁men	-1855
ND	-1856
▁test	-1857
▁week	-1858
▁past	-1859
▁i	-1860
▁histor	-1861
▁makes	-1862
▁extreme	-1863
uge	-1864
124;	-1865
▁&#124;	-1866
aster	-1867
▁opinion	-1868
▁shop	-1869
▁behalf	-1870
▁economy	-1871
▁agricult	-1872
sw	-1873
▁tool	-1874
▁beautiful	-1875
▁entire	-1876
ames	-1877
▁building	-1878
▁fail	-1879
▁legislation	-1880
▁head	-1881
ival	-1882
▁focus	-1883
SC	-1884
▁dest	-1885
rated	-1886
▁chall	-1887
iting	-1888
▁charact	-1889
▁application	-1890
ilt	-1891
lish	-1892
▁effective	-1893
▁projects	-1894
▁others	-1895
▁results	-1896
ites	-1897
▁easy	-1898
▁context	-1899
▁points	-1900
imum	-1901
▁Sch	-1902
ivil	-1903
▁website	-1904
▁provides	-1905
▁freedom	-1906
▁sure	-1907
epend	-1908
▁never	-1909
hod	-1910
▁return	-1911
orn	-1912
▁minutes	-1913
▁Med	-1914
▁concerned	-1915
▁responsibility	-1916
ension	-1917
▁attention	-1918
▁compl	-1919
▁Eng	-1920
▁prec	-1921
lin	-1922
▁One	-1923
▁perfect	-1924
stit	-1925
stain	-1926
▁er	-1927
▁autom	-1928
lex	-1929
▁simply	-1930
▁tar	-1931
▁team	-1932
▁park	-1933
oot	-1934
▁appropri	-1935
▁due	-1936
▁policies	-1937
amental	-1938
▁importance	-1939
▁China	-1940
▁questions	-1941
▁11	-1942
ledge	-1943
ode	-1944
ufact	-1945
▁groups	-1946
▁house	-1947
▁farm	-1948
▁ident	-1949
▁reach	-1950
gu	-1951
▁prevent	-1952
ows	-1953
▁sty	-1954
▁young	-1955
▁X	-1956
▁lot	-1957
isc	-1958
▁enter	-1959
▁environmental	-1960
▁Min	-1961
load	-1962
▁society	-1963
▁bath	-1964
▁tem	-1965
▁Rom	-1966
mes	-1967
rate	-1968
bon	-1969
ior	-1970
▁continu	-1971
▁greater	-1972
▁strategy	-1973
▁host	-1974
▁innov	-1975
▁Res	-1976
▁World	-1977
word	-1978
▁win	-1979
mer	-1980
▁road	-1981
ceed	-1982
▁anal	-1983
▁perm	-1984
ncy	-1985
▁natural	-1986
▁version	-1987
▁increasing	-1988
▁typ	-1989
▁mount	-1990
▁holid	-1991
▁check	-1992
▁sch	-1993
▁principle	-1994
▁standards	-1995
▁Des	-1996
man	-1997
▁achie	-1998
▁talk	-1999
▁cred	-2000
▁25	-2001
edi	-2002
▁sea	-2003
▁amount	-2004
▁manufact	-2005
ured	-2006
▁euro	-2007
idd	-2008
▁Part	-2009
of	-2010
▁14	-2011
▁mach	-2012
▁risk	-2013
▁16	-2014
▁pot	-2015
▁answ	-2016
▁words	-2017
▁method	-2018
ler	-2019
▁Reg	-2020
▁required	-2021
▁training	-2022
▁significant	-2023
▁Internet	-2024
lig	-2025
▁clearly	-2026
▁EUR	-2027
▁via	-2028
▁sal	-2029
duct	-2030
▁lear	-2031
▁meeting	-2032
▁authorities	-2033
▁won	-2034
▁Can	-2035
▁super	-2036
▁technical	-2037
▁Aust	-2038
▁quick	-2039
▁works	-2040
ological	-2041
ators	-2042
▁network	-2043
ruction	-2044
▁demand	-2045
▁cou	-2046
▁My	-2047
▁link	-2048
ike	-2049
▁Off	-2050
rop	-2051
▁user	-2052
ided	-2053
ograph	-2054
▁assist	-2055
▁music	-2056
use	-2057
▁side	-2058
▁administ	-2059
▁century	-2060
to	-2061
▁stop	-2062
▁aware	-2063
ats	-2064
▁Bl	-2065
iversity	-2066
▁recent	-2067
▁pages	-2068
for	-2069
▁central	-2070
▁share	-2071
▁La	-2072
▁according	-2073
▁aspect	-2074
arity	-2075
rist	-2076
▁larg	-2077
▁sugg	-2078
▁cultural	-2079
▁standard	-2080
▁capital	-2081
▁ban	-2082
ateg	-2083
▁internal	-2084
hib	-2085
rect	-2086
▁dial	-2087
▁gra	-2088
▁solutions	-2089
▁safe	-2090
▁independ	-2091
▁distrib	-2092
▁directly	-2093
ients	-2094
▁employment	-2095
une	-2096
▁log	-2097
▁positive	-2098
▁responsible	-2099
▁proposed	-2100
▁months	-2101
▁longer	-2102
▁infl	-2103
ensive	-2104
▁circ	-2105
ring	-2106
▁fight	-2107
▁currently	-2108
▁arch	-2109
▁nature	-2110
▁desc	-2111
che	-2112
▁affect	-2113
▁requirements	-2114
▁2010	-2115
▁Man	-2116
▁mom	-2117
▁interests	-2118
ean	-2119
ports	-2120
oss	-2121
▁history	-2122
▁regions	-2123
▁subs	-2124
▁sustain	-2125
▁events	-2126
▁2008	-2127
▁enough	-2128
▁guests	-2129
▁relax	-2130
▁record	-2131
▁apply	-2132
▁civil	-2133
▁involved	-2134
▁lat	-2135
▁Russ	-2136
ead	-2137
▁character	-2138
▁Please	-2139
▁developed	-2140
▁needed	-2141
▁voted	-2142
▁themselves	-2143
▁don	-2144
▁vol	-2145
▁total	-2146
▁democracy	-2147
▁fundamental	-2148
arian	-2149
▁parties	-2150
▁regulation	-2151
▁Afric	-2152
ored	-2153
▁competition	-2154
▁17	-2155
▁online	-2156
▁implementation	-2157
▁refer	-2158
▁happen	-2159
▁dam	-2160
▁night	-2161
▁mar	-2162
▁select	-2163
▁vill	-2164
▁related	-2165
▁guarantee	-2166
anced	-2167
▁mov	-2168
▁dom	-2169
go	-2170
▁force	-2171
erous	-2172
▁efforts	-2173
▁13	-2174
▁please	-2175
▁foreign	-2176
uly	-2177
▁From	-2178
ogue	-2179
▁categ	-2180
ached	-2181
ien	-2182
▁pub	-2183
▁upon	-2184
▁Qu	-2185
▁item	-2186
▁contain	-2187
▁24	-2188
▁low	-2189
▁language	-2190
▁Russia	-2191
▁extremely	-2192
▁live	-2193
ca	-2194
▁Serv	-2195
▁changes	-2196
▁First	-2197
▁facilities	-2198
▁ago	-2199
amb	-2200
iter	-2201
▁gen	-2202
▁stre	-2203
lear	-2204
acy	-2205
▁comput	-2206
▁mob	-2207
▁date	-2208
aged	-2209
▁caus	-2210
▁contract	-2211
▁document	-2212
▁Air	-2213
▁anim	-2214
▁hold	-2215
▁views	-2216
ria	-2217
▁constit	-2218
▁etc	-2219
▁reserv	-2220
rench	-2221
▁soon	-2222
▁target	-2223
▁camp	-2224
▁negotiations	-2225
▁establish	-2226
▁cases	-2227
▁harm	-2228
▁previous	-2229
▁Port	-2230
ming	-2231
ton	-2232
▁unique	-2233
▁comes	-2234
▁cut	-2235
▁International	-2236
▁oppos	-2237
▁either	-2238
▁Govern	-2239
ired	-2240
▁prepare	-2241
▁50	-2242
key	-2243
atory	-2244
▁submit	-2245
ires	-2246
ibility	-2247
▁terror	-2248
▁breakfast	-2249
ommod	-2250
▁democratic	-2251
▁mess	-2252
▁maintain	-2253
▁developing	-2254
▁markets	-2255
▁More	-2256
▁Ber	-2257
▁broad	-2258
▁May	-2259
▁sound	-2260
▁subst	-2261
▁draw	-2262
▁pool	-2263
▁Presidency	-2264
▁created	-2265
▁states	-2266
▁100	-2267
▁regional	-2268
▁mind	-2269
▁wind	-2270
ression	-2271
▁final	-2272
ged	-2273
▁Tr	-2274
▁situated	-2275
▁education	-2276
ony	-2277
▁der	-2278
▁2007	-2279
▁cong	-2280
▁cat	-2281
▁Not	-2282
▁surround	-2283
aced	-2284
▁suggest	-2285
▁milit	-2286
▁true	-2287
▁type	-2288
▁clean	-2289
▁ground	-2290
▁Sy	-2291
▁additional	-2292
aper	-2293
▁attract	-2294
self	-2295
▁later	-2296
▁Bel	-2297
utional	-2298
▁everything	-2299
▁By	-2300
▁prices	-2301
▁living	-2302
▁climate	-2303
▁pict	-2304
▁recommend	-2305
▁Direct	-2306
▁beach	-2307
ti	-2308
rim	-2309
▁ship	-2310
rip	-2311
▁jo	-2312
▁emph	-2313
gthen	-2314
▁almost	-2315
▁French	-2316
▁immedi	-2317
▁Su	-2318
▁thus	-2319
▁actually	-2320
▁transpare	-2321
▁receive	-2322
▁‘	-2323
▁looking	-2324
haps	-2325
▁fair	-2326
isher	-2327
▁famous	-2328
oid	-2329
▁Brit	-2330
▁file	-2331
▁seen	-2332
▁enl	-2333
ulate	-2334
▁land	-2335
▁idea	-2336
▁rate	-2337
▁knowledge	-2338
▁encoura	-2339
▁held	-2340
▁included	-2341
▁strengthen	-2342
▁appropriate	-2343
abled	-2344
de	-2345
▁accommod	-2346
▁news	-2347
ots	-2348
▁Par	-2349
ctions	-2350
▁funds	-2351
▁restaurant	-2352
▁official	-2353
ception	-2354
▁Do	-2355
▁cal	-2356
▁designed	-2357
▁procedure	-2358
▁five	-2359
▁moment	-2360
▁send	-2361
▁oblig	-2362
ource	-2363
▁mass	-2364
▁station	-2365
▁school	-2366
▁determ	-2367
be	-2368
▁mail	-2369
▁Rep	-2370
▁consult	-2371
empt	-2372
▁workers	-2373
▁assoc	-2374
▁Soc	-2375
▁France	-2376
▁majority	-2377
yc	-2378
rial	-2379
▁lack	-2380
eria	-2381
▁thing	-2382
▁2000	-2383
STAR	-2384
▁Me	-2385
▁conv	-2386
▁island	-2387
▁impact	-2388
▁comfortable	-2389
▁mor	-2390
ches	-2391
▁outside	-2392
▁professional	-2393
ison	-2394
▁customer	-2395
▁ideal	-2396
ms	-2397
▁features	-2398
▁communication	-2399
▁exch	-2400
▁emphas	-2401
▁collect	-2402
inks	-2403
▁throughout	-2404
ino	-2405
▁Cour	-2406
▁hon	-2407
ai	-2408
▁users	-2409
icated	-2410
▁cop	-2411
▁takes	-2412
▁Ph	-2413
▁Br	-2414
ilar	-2415
▁doing	-2416
▁exclus	-2417
▁colleag	-2418
▁mentioned	-2419
onst	-2420
▁certainly	-2421
▁download	-2422
▁draft	-2423
▁rad	-2424
▁Cont	-2425
▁parts	-2426
▁ce	-2427
▁space	-2428
ternal	-2429
▁transl	-2430
▁hours	-2431
▁potential	-2432
▁obs	-2433
IN	-2434
▁Christ	-2435
▁mag	-2436
ORE	-2437
▁traditional	-2438
▁Lis	-2439
▁Fund	-2440
▁across	-2441
▁existing	-2442
▁early	-2443
let	-2444
▁correct	-2445
▁consequ	-2446
▁displ	-2447
▁commer	-2448
▁extra	-2449
▁ever	-2450
▁friendly	-2451
▁concept	-2452
▁joint	-2453
bo	-2454
▁American	-2455
aring	-2456
▁concerns	-2457
ables	-2458
ici	-2459
▁adopt	-2460
▁investment	-2461
▁programmes	-2462
▁Room	-2463
▁vide	-2464
▁built	-2465
inary	-2466
▁EC	-2467
▁amb	-2468
▁Turkey	-2469
▁cross	-2470
▁guest	-2471
▁performance	-2472
▁Co	-2473
▁leading	-2474
▁took	-2475
rast	-2476
erc	-2477
atically	-2478
▁connection	-2479
▁although	-2480
▁coord	-2481
▁complex	-2482
fortun	-2483
▁monitor	-2484
ON	-2485
▁party	-2486
▁concerning	-2487
▁member	-2488
▁Let	-2489
▁writing	-2490
▁reasons	-2491
▁decisions	-2492
▁completely	-2493
▁threat	-2494
▁Government	-2495
▁established	-2496
den	-2497
▁committee	-2498
▁flex	-2499
AN	-2500
▁game	-2501
▁conflic	-2502
▁demonst	-2503
▁model	-2504
▁community	-2505
▁card	-2506
ster	-2507
▁assess	-2508
chan	-2509
▁km	-2510
▁military	-2511
▁Aff	-2512
▁cla	-2513
iable	-2514
▁nothing	-2515
▁Bo	-2516
▁TV	-2517
▁+	-2518
ef	-2519
nces	-2520
▁decl	-2521
▁population	-2522
bour	-2523
UND	-2524
▁agreements	-2525
▁practice	-2526
▁Jan	-2527
▁sent	-2528
▁allows	-2529
▁repl	-2530
▁includes	-2531
▁UN	-2532
▁Since	-2533
▁basic	-2534
▁original	-2535
▁culture	-2536
▁initiative	-2537
▁media	-2538
ones	-2539
▁equipped	-2540
▁body	-2541
▁holiday	-2542
▁separ	-2543
▁fall	-2544
▁becom	-2545
▁wr	-2546
▁depend	-2547
▁speed	-2548
▁upd	-2549
▁Col	-2550
▁fre	-2551
▁advant	-2552
▁tell	-2553
▁objectives	-2554
▁conclus	-2555
▁2006	-2556
▁solid	-2557
▁front	-2558
vert	-2559
cel	-2560
eb	-2561
▁values	-2562
▁half	-2563
iab	-2564
,000	-2565
▁star	-2566
▁Lisbon	-2567
▁Ass	-2568
uted	-2569
itable	-2570
▁received	-2571
▁00	-2572
▁Office	-2573
▁jobs	-2574
▁firm	-2575
rag	-2576
▁satis	-2577
ature	-2578
urs	-2579
rael	-2580
oph	-2581
erve	-2582
▁ten	-2583
▁package	-2584
▁South	-2585
unities	-2586
UNDER	-2587
▁applications	-2588
▁Sec	-2589
▁choice	-2590
▁sens	-2591
▁agricultural	-2592
▁confirm	-2593
▁Israel	-2594
▁equipment	-2595
▁files	-2596
▁Court	-2597
▁capac	-2598
▁Just	-2599
▁liber	-2600
▁regarding	-2601
▁Here	-2602
▁benefit	-2603
aches	-2604
▁strateg	-2605
SCORE	-2606
UNDERSCORE	-2607
▁English	-2608
▁objective	-2609
▁jud	-2610
▁keyword	-2611
pite	-2612
▁condition	-2613
▁publ	-2614
rary	-2615
▁America	-2616
▁198	-2617
▁Ne	-2618
▁search	-2619
▁doub	-2620
▁efficient	-2621
▁purch	-2622
iddle	-2623
▁reports	-2624
ley	-2625
▁Artic	-2626
▁wat	-2627
▁quickly	-2628
iance	-2629
▁image	-2630
yn	-2631
aging	-2632
▁self	-2633
▁suppl	-2634
anish	-2635
▁impos	-2636
▁aud	-2637
enda	-2638
urb	-2639
▁goods	-2640
vious	-2641
▁Now	-2642
▁style	-2643
ush	-2644
▁print	-2645
▁transfer	-2646
▁dire	-2647
▁simple	-2648
estern	-2649
▁defin	-2650
▁industrial	-2651
▁wa	-2652
▁click	-2653
▁treatment	-2654
▁below	-2655
▁engine	-2656
▁Fl	-2657
ott	-2658
▁achieved	-2659
▁face	-2660
▁mechan	-2661
ee	-2662
▁influ	-2663
uclear	-2664
▁contains	-2665
▁computer	-2666
iveness	-2667
▁experi	-2668
▁sense	-2669
ills	-2670
▁attack	-2671
▁gard	-2672
▁regist	-2673
▁congrat	-2674
amic	-2675
more	-2676
▁huge	-2677
iples	-2678
▁indeed	-2679
▁pleas	-2680
▁rail	-2681
ned	-2682
▁sun	-2683
ying	-2684
▁qual	-2685
▁Affairs	-2686
▁Gree	-2687
sian	-2688
▁urg	-2689
▁Finally	-2690
olute	-2691
▁seems	-2692
▁Amend	-2693
▁internet	-2694
▁cru	-2695
▁oil	-2696
▁popular	-2697
yl	-2698
▁di	-2699
20	-2700
▁vict	-2701
▁carry	-2702
▁Im	-2703
▁dialogue	-2704
▁successful	-2705
raft	-2706
▁leaders	-2707
▁active	-2708
▁cover	-2709
▁recently	-2710
▁beginning	-2711
▁Comp	-2712
ees	-2713
▁dig	-2714
▁stage	-2715
▁answer	-2716
▁June	-2717
just	-2718
ude	-2719
▁presented	-2720
▁highly	-2721
hic	-2722
▁analys	-2723
▁commercial	-2724
aving	-2725
▁comprom	-2726
▁age	-2727
▁scient	-2728
lection	-2729
▁border	-2730
▁series	-2731
▁seek	-2732
▁integration	-2733
▁Gener	-2734
fortunately	-2735
▁Some	-2736
▁warm	-2737
▁everyone	-2738
▁center	-2739
▁levels	-2740
▁consumers	-2741
aid	-2742
heless	-2743
▁famil	-2744
▁carried	-2745
▁Berlin	-2746
ges	-2747
olf	-2748
▁bank	-2749
▁cam	-2750
▁increased	-2751
mosp	-2752
▁East	-2753
▁il	-2754
rap	-2755
ched	-2756
▁amendment	-2757
ta	-2758
ript	-2759
▁agreed	-2760
▁reviews	-2761
▁attempt	-2762
▁governments	-2763
▁Pe	-2764
▁origin	-2765
▁office	-2766
▁Further	-2767
▁enlarge	-2768
face	-2769
▁principles	-2770
▁traff	-2771
▁absolute	-2772
▁whose	-2773
▁atmosp	-2774
▁floor	-2775
▁six	-2776
▁supply	-2777
▁Therefore	-2778
▁former	-2779
▁dang	-2780
.5	-2781
▁added	-2782
▁choose	-2783
▁furn	-2784
eral	-2785
▁commitment	-2786
resh	-2787
▁Fran	-2788
▁direction	-2789
icro	-2790
▁ste	-2791
▁vir	-2792
▁higher	-2793
▁challeng	-2794
ij	-2795
itect	-2796
▁subsid	-2797
▁perhaps	-2798
▁ord	-2799
iles	-2800
▁den	-2801
▁shows	-2802
alu	-2803
▁shown	-2804
▁Second	-2805
▁nuclear	-2806
orrow	-2807
▁matters	-2808
hens	-2809
▁vehic	-2810
▁asked	-2811
▁reflect	-2812
▁Article	-2813
▁ren	-2814
▁pain	-2815
▁cohe	-2816
▁thanks	-2817
▁tele	-2818
▁relev	-2819
era	-2820
▁avoid	-2821
▁DE	-2822
▁foot	-2823
idered	-2824
▁double	-2825
▁aspects	-2826
▁effects	-2827
▁Dem	-2828
▁max	-2829
▁enable	-2830
▁promote	-2831
iber	-2832
▁stress	-2833
▁consist	-2834
▁23	-2835
▁note	-2836
▁hy	-2837
▁obtain	-2838
▁considered	-2839
▁exchange	-2840
race	-2841
▁size	-2842
▁Ser	-2843
rought	-2844
▁similar	-2845
▁table	-2846
▁latest	-2847
▁altern	-2848
igration	-2849
wise	-2850
▁prepared	-2851
▁opportunities	-2852
itz	-2853
ously	-2854
▁2005	-2855
ania	-2856
▁®	-2857
unch	-2858
▁Social	-2859
▁possibility	-2860
EN	-2861
▁setting	-2862
▁coll	-2863
▁ill	-2864
urch	-2865
uary	-2866
▁behind	-2867
▁Web	-2868
▁materials	-2869
illed	-2870
▁lo	-2871
▁came	-2872
▁Spain	-2873
▁reached	-2874
▁pressure	-2875
▁prim	-2876
▁pan	-2877
▁external	-2878
▁creation	-2879
▁response	-2880
ployment	-2881
▁exhib	-2882
issions	-2883
▁Acc	-2884
▁40	-2885
ground	-2886
▁norm	-2887
.0	-2888
rec	-2889
▁Em	-2890
rid	-2891
hest	-2892
▁ut	-2893
▁sustainable	-2894
▁rates	-2895
▁artic	-2896
▁capacity	-2897
▁providing	-2898
ma	-2899
▁lay	-2900
▁wonder	-2901
▁submitted	-2902
▁easily	-2903
▁death	-2904
▁reduce	-2905
encies	-2906
▁reject	-2907
▁decided	-2908
▁Sept	-2909
▁Ab	-2910
ana	-2911
▁red	-2912
arily	-2913
oh	-2914
▁coming	-2915
▁emb	-2916
▁21	-2917
apan	-2918
▁hotels	-2919
▁enlargement	-2920
▁emerg	-2921
▁fit	-2922
▁summer	-2923
▁Val	-2924
nter	-2925
▁ge	-2926
▁precise	-2927
▁atmosphere	-2928
▁priority	-2929
ona	-2930
▁Republic	-2931
▁gives	-2932
la	-2933
inated	-2934
rade	-2935
▁accommodation	-2936
▁actions	-2937
▁love	-2938
▁nice	-2939
▁Central	-2940
▁charg	-2941
cember	-2942
▁details	-2943
OM	-2944
▁Net	-2945
▁Italy	-2946
▁closed	-2947
▁round	-2948
ussion	-2949
▁regular	-2950
▁Wind	-2951
▁Of	-2952
▁San	-2953
▁remains	-2954
▁neigh	-2955
sibilities	-2956
ologies	-2957
▁operation	-2958
▁consumer	-2959
▁funding	-2960
▁board	-2961
▁September	-2962
▁display	-2963
▁December	-2964
chen	-2965
iers	-2966
▁cause	-2967
ira	-2968
▁supported	-2969
▁balance	-2970
omp	-2971
▁2004	-2972
▁Africa	-2973
▁deg	-2974
▁pow	-2975
▁grant	-2976
▁Japan	-2977
▁manufacture	-2978
▁independent	-2979
▁places	-2980
▁Oct	-2981
light	-2982
antly	-2983
ane	-2984
iterran	-2985
▁purpose	-2986
▁$	-2987
istics	-2988
▁sites	-2989
▁bathroom	-2990
ening	-2991
▁billion	-2992
▁fig	-2993
▁architect	-2994
▁leave	-2995
▁Convention	-2996
▁assistance	-2997
▁describ	-2998
▁video	-2999
▁property	-3000
▁conduct	-3001
equ	-3002
▁limited	-3003
iated	-3004
▁Bank	-3005
val	-3006
astic	-3007
▁movement	-3008
etary	-3009
▁conclud	-3010
▁appear	-3011
ores	-3012
▁forms	-3013
▁Tod	-3014
ober	-3015
▁charge	-3016
▁regulations	-3017
ume	-3018
▁prepar	-3019
iterranean	-3020
▁adap	-3021
▁creating	-3022
ift	-3023
▁categories	-3024
gen	-3025
▁rule	-3026
ese	-3027
▁March	-3028
arth	-3029
▁pleased	-3030
▁relevant	-3031
▁brought	-3032
▁produced	-3033
▁flow	-3034
pid	-3035
▁Tra	-3036
▁fa	-3037
▁Che	-3038
▁Per	-3039
▁largest	-3040
▁green	-3041
▁credit	-3042
▁organis	-3043
▁spir	-3044
▁fisher	-3045
▁territ	-3046
ief	-3047
▁January	-3048
oll	-3049
▁lic	-3050
▁construction	-3051
▁acqu	-3052
ream	-3053
▁else	-3054
▁compre	-3055
▁II	-3056
▁exec	-3057
iciency	-3058
▁discussion	-3059
▁Book	-3060
ote	-3061
▁measure	-3062
where	-3063
▁variety	-3064
50	-3065
ging	-3066
▁message	-3067
▁conference	-3068
▁Develop	-3069
▁Trans	-3070
▁deep	-3071
imately	-3072
▁except	-3073
iture	-3074
▁thous	-3075
uff	-3076
▁instead	-3077
▁source	-3078
aries	-3079
▁Cons	-3080
dom	-3081
▁October	-3082
▁friends	-3083
▁fishing	-3084
ES	-3085
▁became	-3086
▁Mediterranean	-3087
▁Italian	-3088
▁stability	-3089
▁Car	-3090
▁pros	-3091
▁El	-3092
▁repe	-3093
▁train	-3094
▁obvious	-3095
▁interesting	-3096
raq	-3097
ronic	-3098
▁regards	-3099
▁ways	-3100
burg	-3101
▁2003	-3102
IT	-3103
▁wood	-3104
▁relationship	-3105
▁parliament	-3106
▁started	-3107
▁guid	-3108
umb	-3109
▁National	-3110
▁dut	-3111
▁Minister	-3112
▁procedures	-3113
prise	-3114
▁British	-3115
▁compromise	-3116
▁produce	-3117
▁medium	-3118
lands	-3119
▁Service	-3120
▁task	-3121
▁steps	-3122
.2	-3123
▁Today	-3124
▁compon	-3125
▁hous	-3126
▁bit	-3127
ties	-3128
▁depart	-3129
▁allowed	-3130
▁activity	-3131
▁study	-3132
▁option	-3133
gar	-3134
▁contribution	-3135
▁prob	-3136
▁base	-3137
aily	-3138
elling	-3139
▁Park	-3140
▁Every	-3141
.1	-3142
▁Sl	-3143
org	-3144
▁North	-3145
▁partner	-3146
▁jour	-3147
▁status	-3148
rol	-3149
▁optim	-3150
▁provisions	-3151
▁exact	-3152
▁22	-3153
▁Ge	-3154
▁instruments	-3155
▁written	-3156
▁damage	-3157
porary	-3158
▁giving	-3159
yond	-3160
▁relation	-3161
▁purs	-3162
▁coast	-3163
▁quiet	-3164
▁limit	-3165
▁criteria	-3166
uel	-3167
enced	-3168
▁labour	-3169
▁ourselves	-3170
▁During	-3171
▁restaurants	-3172
▁documents	-3173
▁gain	-3174
oking	-3175
▁statement	-3176
▁violence	-3177
▁fast	-3178
rs	-3179
▁War	-3180
ivity	-3181
IS	-3182
ex	-3183
▁Spanish	-3184
▁tom	-3185
▁mountain	-3186
vere	-3187
▁pen	-3188
▁apartment	-3189
▁distance	-3190
▁bat	-3191
▁led	-3192
▁relig	-3193
▁July	-3194
▁General	-3195
enge	-3196
▁film	-3197
▁IT	-3198
▁minor	-3199
▁historical	-3200
ras	-3201
▁section	-3202
orks	-3203
▁code	-3204
mark	-3205
▁path	-3206
▁worth	-3207
▁airport	-3208
▁types	-3209
▁dise	-3210
ellow	-3211
ada	-3212
ened	-3213
▁structure	-3214
▁loss	-3215
rug	-3216
put	-3217
▁benefits	-3218
▁dim	-3219
▁rent	-3220
ding	-3221
▁wine	-3222
▁integrated	-3223
▁Democ	-3224
▁Aut	-3225
▁Many	-3226
▁2001	-3227
▁transparency	-3228
▁mechanism	-3229
▁highest	-3230
itude	-3231
▁Mark	-3232
ixed	-3233
icate	-3234
▁swim	-3235
IC	-3236
▁000	-3237
▁immediately	-3238
▁kit	-3239
▁elements	-3240
▁village	-3241
antic	-3242
cent	-3243
rian	-3244
▁distribution	-3245
▁Rights	-3246
ental	-3247
▁useful	-3248
hold	-3249
▁nor	-3250
olution	-3251
zz	-3252
wide	-3253
▁Sal	-3254
▁finally	-3255
orpor	-3256
▁sus	-3257
▁employees	-3258
▁€	-3259
▁payment	-3260
▁evalu	-3261
▁Nove	-3262
▁legislative	-3263
▁Furthermore	-3264
▁ski	-3265
istan	-3266
▁rich	-3267
▁agenda	-3268
▁liberal	-3269
▁drive	-3270
▁trip	-3271
▁197	-3272
ses	-3273
▁Although	-3274
▁cand	-3275
▁growing	-3276
▁numerous	-3277
▁applied	-3278
▁Iraq	-3279
▁sou	-3280
▁equal	-3281
▁quot	-3282
▁reading	-3283
ger	-3284
vent	-3285
▁poor	-3286
▁elections	-3287
▁November	-3288
quare	-3289
▁rat	-3290
ager	-3291
ishes	-3292
▁processes	-3293
▁gas	-3294
reg	-3295
▁solidarity	-3296
▁challenges	-3297
▁pover	-3298
▁sufficient	-3299
▁Swed	-3300
ica	-3301
▁mem	-3302
▁tools	-3303
▁poverty	-3304
▁reality	-3305
rastruct	-3306
▁digital	-3307
▁daily	-3308
▁illeg	-3309
▁die	-3310
▁paid	-3311
▁Windows	-3312
ession	-3313
▁saying	-3314
▁Rus	-3315
▁crucial	-3316
▁occas	-3317
▁consequences	-3318
▁colleagues	-3319
ull	-3320
▁conflict	-3321
▁{	-3322
▁Apr	-3323
▁analysis	-3324
▁comprehens	-3325
▁harmon	-3326
ka	-3327
aign	-3328
▁West	-3329
eks	-3330
arter	-3331
EC	-3332
▁unem	-3333
▁Your	-3334
▁undert	-3335
▁practical	-3336
▁construct	-3337
ued	-3338
▁Loc	-3339
▁ey	-3340
▁offering	-3341
▁King	-3342
▁beyond	-3343
urance	-3344
▁Inter	-3345
ife	-3346
▁conven	-3347
▁Palest	-3348
▁apartments	-3349
oon	-3350
▁goes	-3351
▁forest	-3352
▁instrument	-3353
ends	-3354
▁Ste	-3355
▁late	-3356
▁persons	-3357
▁Fed	-3358
ription	-3359
iate	-3360
▁lux	-3361
▁conver	-3362
▁Mal	-3363
▁requires	-3364
▁bi	-3365
▁implemented	-3366
▁congratulate	-3367
▁brand	-3368
dam	-3369
▁vo	-3370
aking	-3371
▁ideas	-3372
AD	-3373
▁April	-3374
▁Portug	-3375
▁tomorrow	-3376
ades	-3377
▁Inst	-3378
▁copy	-3379
▁renew	-3380
ples	-3381
▁waste	-3382
▁happy	-3383
▁sales	-3384
AL	-3385
ares	-3386
▁offered	-3387
aw	-3388
▁curre	-3389
▁lower	-3390
▁organisations	-3391
▁terrorism	-3392
▁2002	-3393
▁email	-3394
▁minimum	-3395
▁enh	-3396
▁mobile	-3397
▁thought	-3398
ection	-3399
▁infrastruct	-3400
▁efficiency	-3401
alls	-3402
▁season	-3403
▁links	-3404
▁She	-3405
▁forces	-3406
.3	-3407
vis	-3408
ont	-3409
▁ir	-3410
▁doubt	-3411
▁advantage	-3412
▁arm	-3413
▁anti	-3414
▁mis	-3415
▁consid	-3416
▁welcom	-3417
▁weak	-3418
▁react	-3419
▁Party	-3420
▁partnership	-3421
▁operating	-3422
▁starting	-3423
▁weeks	-3424
▁frequ	-3425
▁monitoring	-3426
▁secure	-3427
▁Development	-3428
▁discrim	-3429
▁circum	-3430
▁Gl	-3431
▁vac	-3432
▁Amendment	-3433
▁cast	-3434
▁server	-3435
▁lines	-3436
▁historic	-3437
▁reference	-3438
▁Even	-3439
▁published	-3440
▁meaning	-3441
▁reduction	-3442
▁buy	-3443
▁ready	-3444
▁clients	-3445
▁comprehensive	-3446
cer	-3447
▁bad	-3448
▁machine	-3449
AS	-3450
ano	-3451
theless	-3452
ser	-3453
ilater	-3454
▁argu	-3455
▁maximum	-3456
▁sometimes	-3457
▁relating	-3458
▁Western	-3459
leb	-3460
uis	-3461
▁lives	-3462
▁spirit	-3463
▁Directive	-3464
▁Op	-3465
▁learn	-3466
▁got	-3467
▁Paris	-3468
cks	-3469
▁bedroom	-3470
▁campaign	-3471
▁caused	-3472
▁yes	-3473
ha	-3474
.00	-3475
▁critic	-3476
▁ult	-3477
▁eth	-3478
▁accordance	-3479
abor	-3480
▁plant	-3481
itarian	-3482
itors	-3483
hol	-3484
pective	-3485
▁Sk	-3486
▁Mus	-3487
▁farmers	-3488
▁pie	-3489
▁options	-3490
▁tou	-3491
▁explain	-3492
▁accession	-3493
▁remind	-3494
▁sports	-3495
rative	-3496
▁technologies	-3497
▁players	-3498
▁voting	-3499
▁fulf	-3500
▁anything	-3501
▁remov	-3502
▁interp	-3503
▁cert	-3504
bian	-3505
▁chance	-3506
▁interested	-3507
▁parking	-3508
rant	-3509
▁recon	-3510
▁probably	-3511
▁extent	-3512
▁advert	-3513
view	-3514
▁methods	-3515
▁pictures	-3516
▁While	-3517
▁hor	-3518
▁Ob	-3519
▁scientific	-3520
▁worldwide	-3521
▁counter	-3522
▁languages	-3523
cl	-3524
estic	-3525
▁simpl	-3526
▁ones	-3527
▁Thank	-3528
ulated	-3529
▁Ant	-3530
▁60	-3531
▁Aug	-3532
▁challenge	-3533
▁lands	-3534
ocol	-3535
▁rapid	-3536
▁release	-3537
gram	-3538
AP	-3539
▁innovative	-3540
uck	-3541
▁concent	-3542
▁morning	-3543
icit	-3544
▁sectors	-3545
▁fine	-3546
inese	-3547
ech	-3548
▁Austria	-3549
▁shopping	-3550
ifically	-3551
▁track	-3552
▁sport	-3553
▁Iran	-3554
inate	-3555
ini	-3556
iability	-3557
AC	-3558
▁candid	-3559
hern	-3560
▁businesses	-3561
ques	-3562
▁ded	-3563
▁rele	-3564
ney	-3565
▁Sm	-3566
know	-3567
▁crim	-3568
iction	-3569
▁arrange	-3570
▁selection	-3571
▁initial	-3572
illa	-3573
▁swimming	-3574
▁encourage	-3575
▁fire	-3576
▁27	-3577
ourable	-3578
▁expert	-3579
unt	-3580
uine	-3581
▁bur	-3582
▁City	-3583
respon	-3584
▁plat	-3585
▁apprec	-3586
▁powers	-3587
▁visitors	-3588
▁adjust	-3589
▁alternative	-3590
▁exerc	-3591
▁sche	-3592
▁raised	-3593
▁accepted	-3594
▁annual	-3595
ivery	-3596
▁garden	-3597
▁street	-3598
asc	-3599
reland	-3600
cape	-3601
▁wanted	-3602
▁sav	-3603
▁influence	-3604
▁processing	-3605
▁absolutely	-3606
ape	-3607
▁despite	-3608
▁Secondly	-3609
▁Ireland	-3610
▁images	-3611
▁valid	-3612
head	-3613
▁heav	-3614
▁lost	-3615
ops	-3616
▁tick	-3617
▁games	-3618
▁export	-3619
va	-3620
▁trying	-3621
▁demands	-3622
▁strategic	-3623
▁namely	-3624
▁controll	-3625
▁201	-3626
ums	-3627
phone	-3628
ata	-3629
▁System	-3630
ght	-3631
▁fields	-3632
▁borders	-3633
▁genuine	-3634
▁join	-3635
▁ww	-3636
▁1999	-3637
▁drug	-3638
▁involve	-3639
poses	-3640
▁div	-3641
▁Bal	-3642
▁vers	-3643
▁restrict	-3644
▁investig	-3645
anks	-3646
berg	-3647
▁Chinese	-3648
▁www	-3649
▁scale	-3650
ari	-3651
▁tal	-3652
▁south	-3653
rain	-3654
▁hour	-3655
izing	-3656
▁screen	-3657
elines	-3658
▁innovation	-3659
force	-3660
▁Econom	-3661
lick	-3662
▁representatives	-3663
TO	-3664
▁sil	-3665
▁196	-3666
▁alone	-3667
▁Ed	-3668
enn	-3669
▁highlight	-3670
ilateral	-3671
▁Moreover	-3672
▁sort	-3673
hers	-3674
▁Conference	-3675
una	-3676
▁observ	-3677
▁changed	-3678
prises	-3679
▁claim	-3680
▁yourself	-3681
elt	-3682
▁earl	-3683
▁approx	-3684
▁High	-3685
▁Russian	-3686
▁club	-3687
▁overall	-3688
▁proceed	-3689
▁decor	-3690
▁calls	-3691
▁trust	-3692
▁prem	-3693
▁motor	-3694
▁initiatives	-3695
▁wrong	-3696
▁expressed	-3697
▁Are	-3698
▁occur	-3699
▁minute	-3700
earch	-3701
▁Bus	-3702
▁player	-3703
ava	-3704
▁Constit	-3705
▁cell	-3706
▁resort	-3707
▁circumst	-3708
ür	-3709
bers	-3710
▁respond	-3711
▁intended	-3712
verage	-3713
▁Tour	-3714
rely	-3715
▁fresh	-3716
▁ME	-3717
▁sex	-3718
▁illegal	-3719
▁Public	-3720
▁eleg	-3721
▁Prot	-3722
▁passeng	-3723
▁Only	-3724
itation	-3725
ama	-3726
▁committed	-3727
▁worked	-3728
▁mainly	-3729
▁running	-3730
▁talking	-3731
▁Pet	-3732
▁vital	-3733
▁heard	-3734
▁award	-3735
▁config	-3736
▁plans	-3737
▁Lond	-3738
illing	-3739
▁que	-3740
▁kitchen	-3741
ocks	-3742
ender	-3743
▁traffic	-3744
▁approved	-3745
▁Other	-3746
▁occup	-3747
▁feed	-3748
▁CD	-3749
▁substant	-3750
▁AG	-3751
▁opening	-3752
▁goal	-3753
▁tourist	-3754
▁placed	-3755
▁deliver	-3756
▁cities	-3757
▁phys	-3758
▁University	-3759
▁white	-3760
▁menu	-3761
▁dri	-3762
uts	-3763
▁confidence	-3764
▁walking	-3765
tings	-3766
▁virt	-3767
▁helpful	-3768
▁datab	-3769
▁Its	-3770
▁cohesion	-3771
▁affected	-3772
▁ability	-3773
▁planning	-3774
▁spect	-3775
▁box	-3776
▁Lin	-3777
akes	-3778
▁cove	-3779
body	-3780
▁London	-3781
mbH	-3782
posed	-3783
▁improved	-3784
▁du	-3785
▁Fore	-3786
▁compos	-3787
▁evening	-3788
dra	-3789
orage	-3790
▁appoint	-3791
▁univers	-3792
▁comments	-3793
▁terrace	-3794
▁uns	-3795
▁August	-3796
▁black	-3797
▁fear	-3798
▁Centre	-3799
▁GmbH	-3800
▁corpor	-3801
▁automatically	-3802
▁chann	-3803
▁families	-3804
▁decide	-3805
▁delivery	-3806
▁justice	-3807
▁currency	-3808
▁conclusion	-3809
▁PC	-3810
amed	-3811
▁Bu	-3812
▁Int	-3813
▁Lat	-3814
▁feature	-3815
undred	-3816
urt	-3817
ps	-3818
▁client	-3819
▁circumstances	-3820
formation	-3821
thern	-3822
▁Pre	-3823
ole	-3824
▁Cal	-3825
▁banks	-3826
▁suitable	-3827
reement	-3828
SE	-3829
▁provision	-3830
▁reduced	-3831
▁Her	-3832
▁disp	-3833
▁competitive	-3834
rief	-3835
▁Techn	-3836
▁Hung	-3837
▁laws	-3838
▁priorities	-3839
standing	-3840
▁reforms	-3841
▁whom	-3842
▁dyn	-3843
▁increasingly	-3844
▁Sum	-3845
ifying	-3846
▁usually	-3847
rab	-3848
▁supports	-3849
▁administration	-3850
iff	-3851
ID	-3852
▁contribute	-3853
▁Security	-3854
▁sem	-3855
hood	-3856
▁collection	-3857
▁tim	-3858
▁applic	-3859
anned	-3860
▁tradition	-3861
▁structural	-3862
▁hom	-3863
ording	-3864
▁phone	-3865
▁fru	-3866
▁People	-3867
ray	-3868
▁regime	-3869
rete	-3870
▁impl	-3871
▁students	-3872
▁emissions	-3873
agraph	-3874
▁Dr	-3875
tt	-3876
▁began	-3877
▁protected	-3878
▁Palestin	-3879
▁electronic	-3880
▁infrastructure	-3881
▁scope	-3882
▁victims	-3883
▁Eas	-3884
▁Tw	-3885
▁extensive	-3886
▁separate	-3887
craft	-3888
▁ensuring	-3889
▁says	-3890
ault	-3891
▁tabled	-3892
rew	-3893
▁platform	-3894
▁Mor	-3895
▁cyc	-3896
▁rise	-3897
▁poll	-3898
▁powerful	-3899
▁celeb	-3900
▁Free	-3901
▁UK	-3902
▁anc	-3903
oo	-3904
▁Feb	-3905
▁unemployment	-3906
▁miss	-3907
▁tit	-3908
▁prefer	-3909
▁effectively	-3910
▁crime	-3911
▁critical	-3912
▁fellow	-3913
lines	-3914
zech	-3915
▁fish	-3916
▁belong	-3917
▁specifically	-3918
mp	-3919
▁introduced	-3920
▁agriculture	-3921
▁participation	-3922
▁block	-3923
icy	-3924
ought	-3925
▁sources	-3926
▁Nations	-3927
▁IS	-3928
▁hot	-3929
▁manner	-3930
▁Sim	-3931
ressive	-3932
erland	-3933
▁detailed	-3934
▁speaking	-3935
right	-3936
▁san	-3937
raz	-3938
▁Each	-3939
▁played	-3940
▁af	-3941
▁animals	-3942
▁comment	-3943
▁installation	-3944
▁photo	-3945
▁Red	-3946
▁Ma	-3947
kt	-3948
▁hear	-3949
▁charm	-3950
▁perman	-3951
▁Uk	-3952
▁motion	-3953
▁referred	-3954
▁satisf	-3955
▁God	-3956
rats	-3957
ferences	-3958
▁covered	-3959
ounced	-3960
▁larger	-3961
▁purposes	-3962
▁hundred	-3963
▁Czech	-3964
acious	-3965
▁sitting	-3966
▁functions	-3967
hab	-3968
wh	-3969
▁Cro	-3970
▁aimed	-3971
enty	-3972
▁muse	-3973
▁80	-3974
ara	-3975
cers	-3976
▁Indeed	-3977
▁discussed	-3978
▁rural	-3979
▁deleg	-3980
▁served	-3981
iding	-3982
▁remember	-3983
▁dead	-3984
▁managed	-3985
ching	-3986
▁exactly	-3987
ox	-3988
▁Also	-3989
▁According	-3990
orthern	-3991
▁precisely	-3992
▁represents	-3993
▁Belg	-3994
▁forget	-3995
▁trend	-3996
aint	-3997
▁stated	-3998
▁Any	-3999
▁becoming	-4000
▁serve	-4001
▁budgetary	-4002
▁lies	-4003
▁Program	-4004
▁getting	-4005
ruary	-4006
▁developments	-4007
used	-4008
▁police	-4009
▁slow	-4010
▁ec	-4011
▁Sol	-4012
▁wants	-4013
▁rein	-4014
▁founded	-4015
AM	-4016
▁selected	-4017
▁entry	-4018
bit	-4019
▁discussions	-4020
▁sold	-4021
▁session	-4022
▁Ver	-4023
aves	-4024
odies	-4025
▁remark	-4026
▁risks	-4027
▁camera	-4028
cast	-4029
▁assessment	-4030
▁February	-4031
▁Then	-4032
▁mid	-4033
▁listed	-4034
▁administrative	-4035
▁enterprises	-4036
▁TH	-4037
▁Barcel	-4038
▁Play	-4039
idential	-4040
▁His	-4041
▁regret	-4042
ns	-4043
▁thousands	-4044
▁cos	-4045
▁mand	-4046
▁otherwise	-4047
▁Cas	-4048
▁mut	-4049
▁hands	-4050
▁wonderful	-4051
▁x	-4052
▁facilit	-4053
▁institutional	-4054
▁closely	-4055
omb	-4056
▁India	-4057
▁medical	-4058
▁Why	-4059
▁Ir	-4060
▁linked	-4061
▁guidelines	-4062
▁earlier	-4063
imb	-4064
uration	-4065
idents	-4066
▁spread	-4067
▁introduction	-4068
OS	-4069
itzerland	-4070
ovo	-4071
▁paper	-4072
▁resist	-4073
▁28	-4074
▁buff	-4075
▁opened	-4076
▁programs	-4077
itiveness	-4078
▁Slov	-4079
▁correspon	-4080
▁Human	-4081
▁brow	-4082
▁symb	-4083
look	-4084
▁followed	-4085
▁Agreement	-4086
▁Apart	-4087
▁magn	-4088
oke	-4089
▁metres	-4090
▁weap	-4091
▁orient	-4092
▁supporting	-4093
▁discrimination	-4094
▁inside	-4095
nder	-4096
ulations	-4097
▁likely	-4098
▁spend	-4099
▁electric	-4100
▁Add	-4101
▁Switzerland	-4102
▁FR	-4103
▁immigration	-4104
▁Joh	-4105
urally	-4106
▁degree	-4107
▁north	-4108
▁tourism	-4109
▁operations	-4110
▁Star	-4111
▁improving	-4112
urd	-4113
▁buildings	-4114
▁exclusive	-4115
▁relative	-4116
▁26	-4117
▁defined	-4118
lim	-4119
▁networks	-4120
▁actual	-4121
▁speech	-4122
▁expected	-4123
▁Sub	-4124
▁Most	-4125
▁considerable	-4126
▁coff	-4127
▁Enter	-4128
▁load	-4129
EL	-4130
▁duty	-4131
oring	-4132
ensions	-4133
hr	-4134
▁temper	-4135
▁winter	-4136
house	-4137
▁cod	-4138
▁uses	-4139
▁compens	-4140
▁Sea	-4141
▁SM	-4142
ya	-4143
▁mill	-4144
▁stock	-4145
▁Last	-4146
▁components	-4147
▁combat	-4148
▁understanding	-4149
▁Middle	-4150
▁Bec	-4151
lying	-4152
▁save	-4153
▁marketing	-4154
▁normal	-4155
▁explo	-4156
▁Greece	-4157
▁Act	-4158
▁Art	-4159
▁substantial	-4160
▁Christian	-4161
▁Swiss	-4162
▁format	-4163
▁playing	-4164
▁Rest	-4165
▁Sant	-4166
▁telephone	-4167
▁debt	-4168
▁brief	-4169
ki	-4170
▁entit	-4171
▁experts	-4172
sp	-4173
▁Barcelona	-4174
▁presence	-4175
▁Asia	-4176
amet	-4177
▁destro	-4178
▁animal	-4179
▁purchase	-4180
▁income	-4181
▁Policy	-4182
ils	-4183
▁Click	-4184
▁compar	-4185
▁properly	-4186
▁fisheries	-4187
▁accomp	-4188
▁delay	-4189
▁presidency	-4190
▁map	-4191
▁alloc	-4192
▁color	-4193
▁facing	-4194
▁Green	-4195
ico	-4196
ussels	-4197
▁typical	-4198
▁coordination	-4199
▁Muse	-4200
▁Minist	-4201
▁entirely	-4202
road	-4203
▁strict	-4204
▁discover	-4205
▁sized	-4206
▁dealing	-4207
ingu	-4208
▁items	-4209
▁tack	-4210
▁relate	-4211
▁picture	-4212
▁competitiveness	-4213
▁refuge	-4214
▁plants	-4215
iant	-4216
▁500	-4217
ength	-4218
work	-4219
▁difficulties	-4220
▁symbol	-4221
▁born	-4222
▁generally	-4223
hel	-4224
▁summit	-4225
▁chem	-4226
▁command	-4227
posit	-4228
▁Poland	-4229
▁authority	-4230
▁indic	-4231
▁criminal	-4232
▁Because	-4233
▁paragraph	-4234
▁organisation	-4235
▁Cast	-4236
▁financing	-4237
▁element	-4238
▁Brussels	-4239
ula	-4240
▁modified	-4241
▁Cap	-4242
▁gave	-4243
iment	-4244
▁AC	-4245
▁expand	-4246
ios	-4247
▁incorpor	-4248
▁pleasant	-4249
▁went	-4250
▁Rooms	-4251
uth	-4252
▁legit	-4253
▁Turk	-4254
▁Never	-4255
▁machines	-4256
iling	-4257
▁thinking	-4258
▁spacious	-4259
rich	-4260
▁applies	-4261
▁Unfortunately	-4262
▁suc	-4263
levision	-4264
▁percent	-4265
▁average	-4266
▁susp	-4267
▁Cop	-4268
▁vehicles	-4269
▁reception	-4270
utive	-4271
▁lib	-4272
▁CO	-4273
izes	-4274
▁informed	-4275
▁unac	-4276
▁willing	-4277
▁meetings	-4278
▁calc	-4279
▁consideration	-4280
▁advance	-4281
overy	-4282
▁door	-4283
▁los	-4284
arent	-4285
amber	-4286
▁defence	-4287
rown	-4288
▁adequ	-4289
▁peaceful	-4290
▁hosp	-4291
▁fixed	-4292
▁Kos	-4293
▁mist	-4294
▁sole	-4295
ball	-4296
▁USA	-4297
met	-4298
▁beds	-4299
▁hop	-4300
▁Economic	-4301
▁becomes	-4302
▁enorm	-4303
ev	-4304
roll	-4305
▁numbers	-4306
nal	-4307
▁flexibility	-4308
rants	-4309
▁district	-4310
sh	-4311
▁unc	-4312
▁Airport	-4313
inating	-4314
▁graph	-4315
▁Once	-4316
▁flexible	-4317
uisine	-4318
▁parliamentary	-4319
▁succeed	-4320
▁aims	-4321
iar	-4322
sterdam	-4323
▁bodies	-4324
att	-4325
▁shops	-4326
▁stra	-4327
▁fra	-4328
▁establishment	-4329
reet	-4330
estival	-4331
terday	-4332
imself	-4333
▁signed	-4334
press	-4335
▁belie	-4336
▁Amsterdam	-4337
▁bear	-4338
▁estate	-4339
▁rout	-4340
▁practices	-4341
ero	-4342
▁medic	-4343
▁gradu	-4344
▁har	-4345
▁promoting	-4346
▁easier	-4347
▁myself	-4348
inding	-4349
▁shower	-4350
▁31	-4351
▁connected	-4352
▁generation	-4353
▁himself	-4354
▁database	-4355
▁seriously	-4356
PE	-4357
ón	-4358
▁court	-4359
▁experienced	-4360
▁ur	-4361
osen	-4362
▁sell	-4363
▁Great	-4364
▁acknow	-4365
▁Micro	-4366
▁unf	-4367
▁concrete	-4368
▁imag	-4369
▁clar	-4370
▁advanced	-4371
▁cooper	-4372
▁lou	-4373
▁negative	-4374
▁DV	-4375
▁Est	-4376
▁failure	-4377
▁subsidi	-4378
▁politics	-4379
▁Bas	-4380
▁humanitarian	-4381
gest	-4382
▁cuisine	-4383
▁ancient	-4384
ias	-4385
embly	-4386
▁dangerous	-4387
▁middle	-4388
IL	-4389
▁differences	-4390
▁domestic	-4391
ella	-4392
▁positions	-4393
uses	-4394
nel	-4395
rates	-4396
▁Priv	-4397
▁Grand	-4398
▁translation	-4399
▁neighbour	-4400
▁Debian	-4401
▁houses	-4402
▁structures	-4403
▁associated	-4404
oe	-4405
▁contem	-4406
▁told	-4407
▁dispos	-4408
▁Firstly	-4409
▁penal	-4410
▁300	-4411
▁withdra	-4412
▁behav	-4413
▁length	-4414
▁accur	-4415
▁Linux	-4416
▁convenient	-4417
▁unaccept	-4418
▁voice	-4419
▁Ac	-4420
▁implementing	-4421
▁29	-4422
▁carefully	-4423
▁instance	-4424
▁happened	-4425
▁permit	-4426
▁safegu	-4427
ato	-4428
▁coffee	-4429
▁exhibition	-4430
.4	-4431
adem	-4432
▁elim	-4433
▁models	-4434
▁ign	-4435
sc	-4436
▁condem	-4437
▁appears	-4438
▁statements	-4439
▁producers	-4440
▁Bul	-4441
▁Cor	-4442
▁combination	-4443
▁rou	-4444
▁Cy	-4445
▁Environment	-4446
board	-4447
ips	-4448
▁anyone	-4449
▁reducing	-4450
ET	-4451
▁difference	-4452
▁Frank	-4453
▁kil	-4454
▁ahead	-4455
▁Organ	-4456
▁manage	-4457
▁settle	-4458
nes	-4459
▁studies	-4460
agen	-4461
▁adoption	-4462
▁satisfact	-4463
▁beaches	-4464
▁Instit	-4465
▁eight	-4466
▁Services	-4467
▁York	-4468
▁agencies	-4469
▁courses	-4470
▁Roman	-4471
icians	-4472
▁song	-4473
▁Appl	-4474
▁owners	-4475
▁propose	-4476
▁opposition	-4477
▁recognition	-4478
ube	-4479
▁Budget	-4480
▁Kingdom	-4481
▁guarantees	-4482
▁drink	-4483
raine	-4484
auc	-4485
▁collabor	-4486
▁Over	-4487
▁insp	-4488
▁sand	-4489
entions	-4490
▁availability	-4491
▁cas	-4492
▁article	-4493
▁impossible	-4494
▁described	-4495
▁reservation	-4496
▁Vien	-4497
▁leader	-4498
▁calling	-4499
ylum	-4500
▁improvement	-4501
▁architecture	-4502
▁Assoc	-4503
uf	-4504
▁spent	-4505
▁announced	-4506
▁immediate	-4507
▁attractive	-4508
ids	-4509
▁glass	-4510
▁released	-4511
▁dimension	-4512
▁membership	-4513
▁truly	-4514
▁quant	-4515
▁wishes	-4516
▁possibilities	-4517
▁Pat	-4518
▁evidence	-4519
▁delight	-4520
▁ant	-4521
▁trading	-4522
▁shared	-4523
▁sen	-4524
▁Arab	-4525
▁Guest	-4526
▁unacceptable	-4527
vey	-4528
gn	-4529
▁names	-4530
coming	-4531
▁Inc	-4532
▁background	-4533
▁spl	-4534
OL	-4535
oz	-4536
▁Cat	-4537
▁organiz	-4538
▁Europeans	-4539
▁Nor	-4540
▁Pers	-4541
▁din	-4542
orial	-4543
quis	-4544
▁transparent	-4545
▁excess	-4546
▁territory	-4547
▁sle	-4548
ED	-4549
▁charged	-4550
▁IN	-4551
▁Us	-4552
itious	-4553
▁tasks	-4554
▁pal	-4555
▁cards	-4556
▁70	-4557
cription	-4558
▁unfortunately	-4559
▁Due	-4560
▁television	-4561
▁radio	-4562
▁religious	-4563
eg	-4564
▁introduce	-4565
▁Justice	-4566
▁figures	-4567
▁consumption	-4568
▁participate	-4569
▁continued	-4570
▁African	-4571
▁elegant	-4572
▁reasonable	-4573
▁desire	-4574
▁devices	-4575
▁stru	-4576
▁stable	-4577
▁Irish	-4578
▁transact	-4579
ls	-4580
▁continues	-4581
▁unless	-4582
▁enables	-4583
OT	-4584
rupt	-4585
▁strongly	-4586
▁Business	-4587
▁learning	-4588
▁Board	-4589
▁completed	-4590
sec	-4591
▁packages	-4592
▁Isl	-4593
▁Research	-4594
▁combined	-4595
▁monetary	-4596
▁taste	-4597
▁raise	-4598
▁entertain	-4599
▁Booking	-4600
▁greatest	-4601
▁button	-4602
▁Market	-4603
▁90	-4604
▁Met	-4605
▁cars	-4606
▁allowing	-4607
▁Turkish	-4608
ny	-4609
▁convin	-4610
▁parent	-4611
set	-4612
▁bound	-4613
▁Vis	-4614
▁Democrats	-4615
▁votes	-4616
▁Aud	-4617
▁registered	-4618
▁adapt	-4619
▁Mod	-4620
▁closer	-4621
▁surrounding	-4622
▁arrival	-4623
▁entitled	-4624
back	-4625
ellig	-4626
tenance	-4627
▁35	-4628
▁beauty	-4629
▁skills	-4630
▁store	-4631
▁booking	-4632
urban	-4633
overed	-4634
▁expend	-4635
▁PL	-4636
ilst	-4637
▁insurance	-4638
ashion	-4639
▁appeal	-4640
▁sensitive	-4641
ams	-4642
▁surface	-4643
▁Health	-4644
▁pure	-4645
▁Mart	-4646
▁kept	-4647
▁installed	-4648
▁weight	-4649
▁Tre	-4650
▁nearby	-4651
▁Stud	-4652
▁roll	-4653
▁sale	-4654
▁profession	-4655
▁WTO	-4656
▁Museum	-4657
eth	-4658
▁dedicated	-4659
▁Ukraine	-4660
▁exclud	-4661
▁chair	-4662
▁river	-4663
▁asylum	-4664
▁balanced	-4665
iplom	-4666
▁earth	-4667
▁enormous	-4668
▁replace	-4669
▁mission	-4670
▁Pa	-4671
amm	-4672
▁1998	-4673
▁reliable	-4674
▁square	-4675
▁permanent	-4676
▁core	-4677
▁perspective	-4678
ilos	-4679
enh	-4680
▁exercise	-4681
ensus	-4682
▁meters	-4683
▁mer	-4684
▁Cong	-4685
sy	-4686
▁drawn	-4687
▁relaxing	-4688
▁declar	-4689
▁satell	-4690
▁election	-4691
Ps	-4692
▁Nevertheless	-4693
gth	-4694
▁Prof	-4695
▁elected	-4696
▁Kosovo	-4697
▁micro	-4698
▁Open	-4699
▁adult	-4700
oto	-4701
▁interpret	-4702
ography	-4703
▁establishing	-4704
▁Will	-4705
▁Nether	-4706
▁Fol	-4707
▁union	-4708
▁totally	-4709
nother	-4710
uk	-4711
▁convinced	-4712
▁forth	-4713
▁meant	-4714
▁Another	-4715
▁advertising	-4716
▁fruit	-4717
▁institution	-4718
▁holidays	-4719
▁urgent	-4720
▁individuals	-4721
▁extended	-4722
▁claims	-4723
▁story	-4724
▁stands	-4725
▁storage	-4726
ounce	-4727
▁Saf	-4728
▁notice	-4729
itch	-4730
atever	-4731
▁Mun	-4732
▁compared	-4733
IM	-4734
▁bott	-4735
▁forced	-4736
▁railway	-4737
▁moving	-4738
▁reb	-4739
▁device	-4740
oly	-4741
▁conclusions	-4742
▁window	-4743
▁sides	-4744
ste	-4745
▁stri	-4746
▁fle	-4747
▁granted	-4748
ille	-4749
▁divid	-4750
oker	-4751
▁outd	-4752
▁compat	-4753
▁Alp	-4754
▁memory	-4755
▁passed	-4756
alle	-4757
▁biggest	-4758
▁Lux	-4759
▁signal	-4760
▁Restaur	-4761
▁strength	-4762
▁corporate	-4763
▁Eastern	-4764
▁controls	-4765
▁Such	-4766
▁attractions	-4767
▁bre	-4768
▁mountains	-4769
▁failed	-4770
▁Ang	-4771
▁concert	-4772
▁Afgh	-4773
▁pet	-4774
iscal	-4775
▁Gard	-4776
▁profit	-4777
▁Netherlands	-4778
▁unit	-4779
▁Liber	-4780
▁Prime	-4781
▁Cost	-4782
▁Mag	-4783
▁prison	-4784
▁contrary	-4785
▁economies	-4786
▁science	-4787
▁Sat	-4788
▁dream	-4789
ald	-4790
▁chosen	-4791
▁finance	-4792
ione	-4793
▁Third	-4794
▁Non	-4795
▁honourable	-4796
▁Dis	-4797
inter	-4798
▁advice	-4799
▁rightly	-4800
▁Where	-4801
▁unable	-4802
▁organised	-4803
za	-4804
▁definition	-4805
▁colour	-4806
▁secret	-4807
▁church	-4808
▁saw	-4809
▁Vienna	-4810
▁factors	-4811
▁Greek	-4812
▁spending	-4813
▁Croat	-4814
▁disease	-4815
▁interface	-4816
▁DVD	-4817
▁destroy	-4818
▁maintenance	-4819
▁Well	-4820
▁laid	-4821
▁candidate	-4822
▁inclus	-4823
▁Del	-4824
▁Trade	-4825
▁commitments	-4826
▁vehicle	-4827
▁expression	-4828
▁Palestinian	-4829
▁renov	-4830
▁ambitious	-4831
▁artists	-4832
▁drop	-4833
▁unto	-4834
▁Found	-4835
▁diver	-4836
▁Har	-4837
▁Foreign	-4838
itage	-4839
▁chemical	-4840
▁tried	-4841
▁perfectly	-4842
▁neither	-4843
▁golf	-4844
▁Up	-4845
▁Mac	-4846
igrants	-4847
rm	-4848
▁Thus	-4849
icking	-4850
▁Constitution	-4851
▁Club	-4852
▁Portugal	-4853
▁weapons	-4854
▁achieving	-4855
▁Leg	-4856
▁flight	-4857
▁changing	-4858
▁Regulation	-4859
▁194	-4860
▁diss	-4861
▁Management	-4862
usion	-4863
▁rock	-4864
rating	-4865
▁agency	-4866
▁colleague	-4867
▁obst	-4868
▁outcome	-4869
▁Dep	-4870
▁sn	-4871
▁Host	-4872
anging	-4873
▁touch	-4874
▁obviously	-4875
gage	-4876
▁luxury	-4877
▁aircraft	-4878
apers	-4879
▁constantly	-4880
portion	-4881
rations	-4882
▁guide	-4883
▁payments	-4884
▁limits	-4885
sequently	-4886
▁register	-4887
iliation	-4888
▁promotion	-4889
▁Afghan	-4890
▁obligations	-4891
▁outstanding	-4892
▁launch	-4893
DP	-4894
▁vision	-4895
ament	-4896
vest	-4897
icious	-4898
▁update	-4899
▁Sa	-4900
▁intention	-4901
▁intervention	-4902
▁yesterday	-4903
▁approximately	-4904
▁fant	-4905
lantic	-4906
▁Yet	-4907
▁preserv	-4908
▁laun	-4909
▁Rot	-4910
aza	-4911
▁von	-4912
irth	-4913
▁criticism	-4914
▁seven	-4915
▁reve	-4916
▁equality	-4917
iques	-4918
▁continuing	-4919
▁contents	-4920
▁organization	-4921
UR	-4922
▁contained	-4923
▁01	-4924
ump	-4925
▁Alb	-4926
▁Austrian	-4927
▁successfully	-4928
▁nation	-4929
▁Information	-4930
▁blood	-4931
▁fraud	-4932
utch	-4933
▁gold	-4934
▁race	-4935
nergy	-4936
ym	-4937
30	-4938
▁independence	-4939
▁diplom	-4940
▁physical	-4941
like	-4942
▁accessible	-4943
▁expenditure	-4944
onia	-4945
▁Kore	-4946
▁surrounded	-4947
▁route	-4948
ken	-4949
▁tow	-4950
▁operate	-4951
▁situations	-4952
soft	-4953
▁category	-4954
mission	-4955
▁recommendations	-4956
ius	-4957
▁Rec	-4958
▁asking	-4959
▁distin	-4960
▁fashion	-4961
▁prevention	-4962
idge	-4963
▁IM	-4964
▁occasion	-4965
▁photos	-4966
▁multi	-4967
IP	-4968
bert	-4969
▁extend	-4970
▁mil	-4971
▁PR	-4972
▁goals	-4973
▁Association	-4974
▁merely	-4975
▁species	-4976
going	-4977
ifications	-4978
▁targets	-4979
▁Ter	-4980
▁vul	-4981
▁surv	-4982
▁interact	-4983
▁buffet	-4984
▁convention	-4985
▁landscape	-4986
ague	-4987
▁binding	-4988
▁planned	-4989
▁acts	-4990
▁someone	-4991
▁fiscal	-4992
▁band	-4993
▁lake	-4994
▁Those	-4995
▁consists	-4996
▁Rome	-4997
abil	-4998
▁disposal	-4999
▁Ven	-5000
▁catal	-5001
▁wealth	-5002
ented	-5003
▁sight	-5004
▁Custom	-5005
igned	-5006
▁participants	-5007
▁Commun	-5008
▁repro	-5009
▁putting	-5010
▁Super	-5011
▁guaranteed	-5012
▁urban	-5013
table	-5014
aken	-5015
▁pointed	-5016
▁furnished	-5017
▁registration	-5018
▁glad	-5019
▁title	-5020
het	-5021
▁communities	-5022
▁kn	-5023
charge	-5024
▁cheap	-5025
ooth	-5026
▁Java	-5027
▁zone	-5028
▁Center	-5029
▁pas	-5030
▁Both	-5031
▁factor	-5032
▁waiting	-5033
iel	-5034
▁capable	-5035
▁leads	-5036
▁Latin	-5037
▁pill	-5038
inations	-5039
▁bringing	-5040
ancing	-5041
▁write	-5042
▁Ty	-5043
ena	-5044
▁smaller	-5045
▁1997	-5046
▁seeking	-5047
iring	-5048
▁fuel	-5049
▁acceptable	-5050
oyal	-5051
▁Restaurant	-5052
▁Rules	-5053
▁dynamic	-5054
▁instruct	-5055
▁phase	-5056
▁Summit	-5057
▁conclude	-5058
estion	-5059
▁prospect	-5060
▁compliance	-5061
▁blue	-5062
▁Break	-5063
▁withdraw	-5064
▁ou	-5065
▁afford	-5066
▁slight	-5067
anim	-5068
▁trial	-5069
▁causes	-5070
▁examples	-5071
▁Mil	-5072
▁brings	-5073
▁fed	-5074
▁grounds	-5075
▁steel	-5076
▁dry	-5077
▁strengthening	-5078
▁satellite	-5079
▁valu	-5080
▁Federal	-5081
▁sovere	-5082
▁Agency	-5083
▁resulting	-5084
▁neighb	-5085
▁hum	-5086
ros	-5087
oom	-5088
umn	-5089
orough	-5090
▁pleasure	-5091
▁manufacturing	-5092
▁capt	-5093
▁Indust	-5094
▁snow	-5095
▁pun	-5096
▁letter	-5097
▁contemporary	-5098
▁AL	-5099
▁Sweden	-5100
▁kilomet	-5101
ellect	-5102
▁fif	-5103
▁philos	-5104
▁identity	-5105
nge	-5106
nic	-5107
▁spa	-5108
▁Located	-5109
obby	-5110
▁bars	-5111
▁Enjoy	-5112
▁default	-5113
▁TM	-5114
▁safeguard	-5115
▁spaces	-5116
▁Gal	-5117
▁multiple	-5118
▁nearly	-5119
▁scen	-5120
▁Lake	-5121
▁password	-5122
cript	-5123
▁veget	-5124
▁association	-5125
▁sets	-5126
sk	-5127
sibly	-5128
▁assum	-5129
▁defend	-5130
▁qualified	-5131
▁summ	-5132
▁discussing	-5133
▁sam	-5134
▁truth	-5135
▁cancell	-5136
▁driving	-5137
▁cool	-5138
itness	-5139
▁explan	-5140
▁balcon	-5141
▁plus	-5142
ulating	-5143
▁overlook	-5144
▁consensus	-5145
▁Thanks	-5146
▁testing	-5147
ruption	-5148
isure	-5149
EM	-5150
▁stim	-5151
▁previously	-5152
rance	-5153
▁primary	-5154
▁liability	-5155
po	-5156
▁patients	-5157
▁governance	-5158
▁Term	-5159
▁addressed	-5160
icip	-5161
▁fort	-5162
▁southern	-5163
▁evaluation	-5164
▁inhab	-5165
▁skin	-5166
▁determined	-5167
▁Romania	-5168
▁vulner	-5169
▁nations	-5170
▁paramet	-5171
iny	-5172
▁Rel	-5173
uit	-5174
iced	-5175
DF	-5176
▁alb	-5177
uting	-5178
▁nar	-5179
▁45	-5180
▁liter	-5181
▁primarily	-5182
can	-5183
ds	-5184
▁cook	-5185
▁attacks	-5186
▁labor	-5187
▁orders	-5188
▁mother	-5189
▁versions	-5190
▁piece	-5191
▁books	-5192
▁Strate	-5193
▁Nat	-5194
▁representative	-5195
▁adequate	-5196
▁remove	-5197
▁rob	-5198
ION	-5199
▁rul	-5200
▁van	-5201
▁Find	-5202
▁surpr	-5203
iations	-5204
▁industries	-5205
▁named	-5206
rep	-5207
▁wall	-5208
▁smoking	-5209
▁kinds	-5210
parent	-5211
▁thereby	-5212
▁upg	-5213
net	-5214
▁soft	-5215
ancy	-5216
▁recovery	-5217
ivered	-5218
▁requested	-5219
▁lik	-5220
▁decades	-5221
ographic	-5222
▁existence	-5223
anc	-5224
▁analy	-5225
▁schools	-5226
▁consolid	-5227
.6	-5228
▁Bud	-5229
▁doct	-5230
mitted	-5231
oles	-5232
rust	-5233
▁son	-5234
▁talks	-5235
▁keeping	-5236
▁diversity	-5237
▁ton	-5238
▁dealt	-5239
esides	-5240
▁Dutch	-5241
és	-5242
▁mutual	-5243
▁Microsoft	-5244
▁exception	-5245
▁Yes	-5246
▁Gold	-5247
▁Get	-5248
hem	-5249
▁delivered	-5250
▁Er	-5251
▁Out	-5252
▁intellig	-5253
▁unanim	-5254
▁refere	-5255
▁waters	-5256
▁amongst	-5257
▁manufacturers	-5258
▁mix	-5259
▁urge	-5260
▁turned	-5261
▁flat	-5262
rum	-5263
roud	-5264
▁Minutes	-5265
▁bure	-5266
▁tend	-5267
▁--	-5268
ireless	-5269
hus	-5270
▁Under	-5271
▁Cur	-5272
▁Check	-5273
▁....	-5274
▁watch	-5275
▁consultation	-5276
▁32	-5277
▁Despite	-5278
▁opposite	-5279
▁IP	-5280
reens	-5281
▁Head	-5282
▁gall	-5283
▁treated	-5284
▁technological	-5285
▁Home	-5286
asters	-5287
unction	-5288
▁Best	-5289
anges	-5290
▁marked	-5291
razil	-5292
▁Software	-5293
ogle	-5294
▁father	-5295
▁investments	-5296
▁corner	-5297
▁dram	-5298
▁mechanisms	-5299
▁blog	-5300
▁onto	-5301
▁straight	-5302
▁represented	-5303
oman	-5304
▁east	-5305
onom	-5306
▁Breakfast	-5307
▁hit	-5308
▁shape	-5309
▁reply	-5310
▁THE	-5311
▁spot	-5312
▁accounts	-5313
▁pred	-5314
▁repeated	-5315
▁feeling	-5316
▁master	-5317
▁las	-5318
aching	-5319
▁plug	-5320
▁runs	-5321
▁heavy	-5322
▁improvements	-5323
▁knows	-5324
▁burden	-5325
▁suite	-5326
abilities	-5327
▁Don	-5328
▁audio	-5329
ags	-5330
▁mode	-5331
▁speakers	-5332
▁competence	-5333
▁Spe	-5334
▁Before	-5335
uries	-5336
crib	-5337
▁Hol	-5338
▁Chamber	-5339
rac	-5340
▁Ke	-5341
▁Sil	-5342
▁attitude	-5343
▁Bur	-5344
▁Brazil	-5345
▁doll	-5346
▁exceed	-5347
▁obligation	-5348
arus	-5349
▁Two	-5350
▁experiences	-5351
▁Card	-5352
▁leadership	-5353
ellectual	-5354
▁insist	-5355
▁presentation	-5356
place	-5357
▁Wel	-5358
▁expertise	-5359
enue	-5360
▁requests	-5361
IA	-5362
furt	-5363
▁Bet	-5364
cher	-5365
▁birth	-5366
▁recognise	-5367
▁helping	-5368
▁Set	-5369
▁Mont	-5370
▁shut	-5371
▁swe	-5372
▁Company	-5373
▁Cult	-5374
▁Follow	-5375
▁moved	-5376
▁significantly	-5377
▁launched	-5378
▁consistent	-5379
▁Prov	-5380
▁trees	-5381
▁eye	-5382
ING	-5383
ola	-5384
oples	-5385
▁drugs	-5386
▁journal	-5387
▁ein	-5388
▁compensation	-5389
▁Cub	-5390
▁websites	-5391
▁output	-5392
▁sanctions	-5393
▁Very	-5394
▁Enterprise	-5395
▁pension	-5396
▁cart	-5397
▁dishes	-5398
▁emphasise	-5399
▁approval	-5400
▁da	-5401
▁recommended	-5402
▁Ben	-5403
▁units	-5404
▁destination	-5405
▁rejected	-5406
▁stone	-5407
▁Plan	-5408
▁nav	-5409
▁Take	-5410
enture	-5411
▁expensive	-5412
▁ES	-5413
▁charming	-5414
▁Mer	-5415
▁arms	-5416
ova	-5417
▁pil	-5418
▁exists	-5419
riers	-5420
▁streets	-5421
nis	-5422
▁1996	-5423
▁1990	-5424
▁comply	-5425
▁browser	-5426
▁SME	-5427
ails	-5428
▁wait	-5429
▁engineering	-5430
ieties	-5431
▁finding	-5432
▁operators	-5433
▁substances	-5434
▁Av	-5435
▁extension	-5436
▁Sit	-5437
▁rig	-5438
▁36	-5439
▁privacy	-5440
▁expectations	-5441
▁emphasis	-5442
▁leisure	-5443
▁Mc	-5444
▁constant	-5445
▁spok	-5446
▁Mos	-5447
▁dict	-5448
▁Energy	-5449
▁prop	-5450
▁temperature	-5451
alt	-5452
▁wild	-5453
▁resolve	-5454
▁vess	-5455
▁older	-5456
▁Wi	-5457
▁fab	-5458
▁appreciate	-5459
ourg	-5460
itely	-5461
verse	-5462
mas	-5463
quir	-5464
▁entered	-5465
ourage	-5466
ette	-5467
▁Pan	-5468
acing	-5469
▁advantages	-5470
▁helps	-5471
▁proud	-5472
▁supplement	-5473
▁Mex	-5474
▁Tor	-5475
▁refugees	-5476
▁delegation	-5477
▁Villa	-5478
▁Dan	-5479
▁voc	-5480
▁Lord	-5481
▁error	-5482
▁objects	-5483
onym	-5484
▁noise	-5485
▁Design	-5486
▁Pri	-5487
▁contrast	-5488
▁suffering	-5489
iking	-5490
▁furniture	-5491
▁hall	-5492
li	-5493
LA	-5494
▁personally	-5495
▁Note	-5496
▁relatively	-5497
enses	-5498
▁Use	-5499
▁applicable	-5500
▁recognised	-5501
▁centres	-5502
▁Black	-5503
▁affairs	-5504
▁proof	-5505
▁tests	-5506
▁tro	-5507
▁respective	-5508
▁superv	-5509
abling	-5510
▁latter	-5511
▁articles	-5512
▁disaster	-5513
▁stations	-5514
ura	-5515
▁whatever	-5516
▁naturally	-5517
▁renewable	-5518
▁IC	-5519
▁Lib	-5520
▁involving	-5521
▁Programme	-5522
Os	-5523
rees	-5524
▁whilst	-5525
▁happens	-5526
▁valuable	-5527
▁peoples	-5528
▁cold	-5529
▁Munich	-5530
▁danger	-5531
▁Ha	-5532
▁150	-5533
▁Georg	-5534
▁NAT	-5535
▁exclusively	-5536
▁estim	-5537
▁grand	-5538
▁retain	-5539
▁Oper	-5540
▁trou	-5541
mann	-5542
▁taxes	-5543
ora	-5544
anged	-5545
▁arrangements	-5546
▁felt	-5547
▁Special	-5548
▁thorough	-5549
▁vast	-5550
▁hostels	-5551
▁politicians	-5552
▁conserv	-5553
▁bedrooms	-5554
▁covers	-5555
▁Lab	-5556
▁Hel	-5557
▁lose	-5558
▁handling	-5559
▁conditioning	-5560
▁Jew	-5561
▁journey	-5562
▁mobility	-5563
▁fill	-5564
▁opposed	-5565
▁ye	-5566
▁NG	-5567
▁spring	-5568
▁teac	-5569
▁enhance	-5570
▁breat	-5571
▁fem	-5572
▁rom	-5573
▁texts	-5574
▁dining	-5575
aria	-5576
▁diseases	-5577
▁195	-5578
gypt	-5579
▁Den	-5580
▁repeat	-5581
▁faced	-5582
▁automatic	-5583
▁Day	-5584
▁combating	-5585
▁John	-5586
▁solve	-5587
▁museum	-5588
▁Deuts	-5589
▁confirmed	-5590
▁Rule	-5591
▁Camp	-5592
▁discovered	-5593
▁Google	-5594
▁directives	-5595
▁Private	-5596
▁figure	-5597
▁PH	-5598
▁script	-5599
▁tours	-5600
▁bureauc	-5601
gment	-5602
▁Swedish	-5603
▁passengers	-5604
▁transform	-5605
▁helped	-5606
▁creative	-5607
▁fighting	-5608
▁chain	-5609
▁intellectual	-5610
▁Old	-5611
king	-5612
ris	-5613
▁volume	-5614
▁producing	-5615
▁Pak	-5616
▁bra	-5617
aming	-5618
▁obtained	-5619
▁offices	-5620
▁Paper	-5621
▁president	-5622
IV	-5623
▁Whe	-5624
▁#	-5625
▁entertainment	-5626
▁constructive	-5627
▁White	-5628
▁minim	-5629
▁Belarus	-5630
▁pick	-5631
▁Good	-5632
▁Egypt	-5633
▁dinner	-5634
▁prosper	-5635
▁protecting	-5636
▁involvement	-5637
▁fasc	-5638
▁Ministers	-5639
▁determine	-5640
▁exceptional	-5641
▁Control	-5642
iano	-5643
▁reaching	-5644
▁Sing	-5645
uls	-5646
▁Real	-5647
▁serves	-5648
▁Institute	-5649
▁flo	-5650
▁obstac	-5651
▁Safety	-5652
▁Afghanistan	-5653
▁treaty	-5654
▁Welcome	-5655
▁privile	-5656
▁rapporteurs	-5657
▁trib	-5658
▁outdoor	-5659
▁Bulgar	-5660
▁temporary	-5661
▁Charter	-5662
▁controlled	-5663
ado	-5664
▁weather	-5665
zen	-5666
▁firstly	-5667
PS	-5668
▁agg	-5669
▁Proced	-5670
▁phr	-5671
idden	-5672
▁removed	-5673
lers	-5674
sych	-5675
▁millions	-5676
▁strugg	-5677
▁awareness	-5678
▁happening	-5679
▁mit	-5680
▁Mount	-5681
▁compr	-5682
▁Fac	-5683
ita	-5684
▁impressive	-5685
▁amounts	-5686
▁referend	-5687
IR	-5688
▁boat	-5689
▁equally	-5690
▁Luxemb	-5691
▁discharge	-5692
azz	-5693
▁consc	-5694
▁stake	-5695
▁Foundation	-5696
▁panor	-5697
▁patent	-5698
▁Strategy	-5699
▁contributions	-5700
arliaments	-5701
▁looks	-5702
▁eyes	-5703
▁largely	-5704
▁mandate	-5705
orse	-5706
▁strategies	-5707
▁Finan	-5708
▁battle	-5709
▁healthy	-5710
▁leaving	-5711
▁philosoph	-5712
arc	-5713
▁Instead	-5714
▁ep	-5715
itime	-5716
anda	-5717
ja	-5718
▁gir	-5719
ailing	-5720
▁spectac	-5721
▁increases	-5722
▁liberalisation	-5723
▁reserve	-5724
ais	-5725
▁ethnic	-5726
▁Britain	-5727
▁Like	-5728
▁chap	-5729
▁bran	-5730
▁communications	-5731
▁residence	-5732
▁fantastic	-5733
▁preparation	-5734
▁frag	-5735
asts	-5736
▁wid	-5737
ör	-5738
sch	-5739
▁Ky	-5740
augh	-5741
▁Global	-5742
▁Work	-5743
▁debates	-5744
bal	-5745
▁remaining	-5746
▁requirement	-5747
sman	-5748
▁maintained	-5749
▁restrictions	-5750
book	-5751
rors	-5752
▁depth	-5753
▁mal	-5754
▁collective	-5755
▁license	-5756
▁announce	-5757
▁Nice	-5758
▁Frankfurt	-5759
▁inhabit	-5760
▁extraord	-5761
▁issued	-5762
▁Croatia	-5763
▁faith	-5764
▁mini	-5765
appoint	-5766
▁officials	-5767
▁resolutions	-5768
iest	-5769
▁arrest	-5770
▁underm	-5771
▁NATO	-5772
▁apparent	-5773
▁opinions	-5774
▁organizations	-5775
▁hospit	-5776
lymp	-5777
ype	-5778
▁Def	-5779
oul	-5780
▁charges	-5781
▁sleep	-5782
▁characteristics	-5783
▁decis	-5784
▁proportion	-5785
▁incent	-5786
▁creates	-5787
▁illust	-5788
▁depends	-5789
fol	-5790
▁contracts	-5791
▁abroad	-5792
▁Rad	-5793
▁Their	-5794
▁Ladies	-5795
▁enthus	-5796
▁ticket	-5797
▁advoc	-5798
iled	-5799
▁Dub	-5800
▁cry	-5801
▁heat	-5802
▁impression	-5803
iger	-5804
▁prohib	-5805
▁abol	-5806
▁dele	-5807
▁west	-5808
▁disap	-5809
▁intend	-5810
▁Bay	-5811
▁newly	-5812
▁formal	-5813
ht	-5814
▁Japanese	-5815
▁hair	-5816
ML	-5817
edia	-5818
▁prove	-5819
▁imper	-5820
▁Costa	-5821
▁couple	-5822
fers	-5823
▁Lou	-5824
▁MEPs	-5825
▁Polish	-5826
▁Bulgaria	-5827
▁phen	-5828
▁explore	-5829
▁Serb	-5830
▁accom	-5831
▁volunt	-5832
stood	-5833
etic	-5834
▁familiar	-5835
▁Fam	-5836
▁identify	-5837
ko	-5838
▁pattern	-5839
▁ang	-5840
▁bon	-5841
▁isol	-5842
QL	-5843
▁operational	-5844
ateful	-5845
obe	-5846
▁Financial	-5847
▁seat	-5848
▁dog	-5849
▁meat	-5850
▁fee	-5851
▁Sund	-5852
▁dia	-5853
▁doesn	-5854
▁returned	-5855
pet	-5856
elfare	-5857
▁messages	-5858
▁GDP	-5859
hop	-5860
▁Balk	-5861
▁je	-5862
▁Procedure	-5863
hent	-5864
ittees	-5865
andon	-5866
▁shad	-5867
▁remote	-5868
▁cab	-5869
▁revolution	-5870
▁Olymp	-5871
▁conflicts	-5872
▁metal	-5873
▁sexual	-5874
▁witness	-5875
▁standing	-5876
80	-5877
atre	-5878
▁gets	-5879
▁recip	-5880
▁surroundings	-5881
▁River	-5882
▁Bos	-5883
▁Through	-5884
▁classic	-5885
ander	-5886
no	-5887
▁hardware	-5888
▁Frid	-5889
▁complain	-5890
ded	-5891
.7	-5892
▁disappoint	-5893
▁regularly	-5894
▁youth	-5895
▁cutting	-5896
iti	-5897
▁attend	-5898
▁Data	-5899
▁universal	-5900
▁enforce	-5901
▁customs	-5902
▁Read	-5903
▁carbon	-5904
▁label	-5905
son	-5906
▁drawing	-5907
▁facilitate	-5908
▁massive	-5909
▁cable	-5910
▁Product	-5911
▁Hotels	-5912
eries	-5913
▁pret	-5914
▁aftern	-5915
▁regulatory	-5916
igation	-5917
holders	-5918
struction	-5919
▁Alliance	-5920
▁See	-5921
▁Vol	-5922
what	-5923
▁recommendation	-5924
▁parliaments	-5925
▁acquis	-5926
▁renovated	-5927
▁copyright	-5928
▁sauna	-5929
▁organized	-5930
▁Luxembourg	-5931
▁topic	-5932
▁dark	-5933
▁tail	-5934
▁artist	-5935
govern	-5936
▁parents	-5937
▁holding	-5938
▁gone	-5939
▁bottom	-5940
▁displayed	-5941
▁conducted	-5942
▁walls	-5943
▁reserves	-5944
▁reported	-5945
▁util	-5946
▁Agricult	-5947
▁awa	-5948
▁listen	-5949
▁visa	-5950
▁seeing	-5951
▁hundreds	-5952
▁Time	-5953
▁album	-5954
▁properties	-5955
▁accompan	-5956
▁Street	-5957
▁reveal	-5958
▁htt	-5959
uing	-5960
▁minority	-5961
▁continent	-5962
▁depending	-5963
▁performed	-5964
▁SMEs	-5965
oral	-5966
▁Roma	-5967
▁ought	-5968
▁02	-5969
▁Austral	-5970
cohol	-5971
▁career	-5972
▁define	-5973
▁Law	-5974
▁favor	-5975
▁toler	-5976
▁towns	-5977
IF	-5978
▁Pakistan	-5979
▁owner	-5980
▁phenomen	-5981
▁balcony	-5982
▁Equ	-5983
▁somewhat	-5984
▁supposed	-5985
orge	-5986
▁worse	-5987
▁connections	-5988
zer	-5989
▁demanding	-5990
▁joined	-5991
▁settings	-5992
▁minist	-5993
▁northern	-5994
▁deals	-5995
▁unp	-5996
▁answers	-5997
▁frequently	-5998
▁transportation	-5999
opol	-6000
▁magaz	-6001
▁therm	-6002
▁Cypr	-6003
▁quarter	-6004
▁emergency	-6005
▁400	-6006
▁noted	-6007
cont	-6008
▁islands	-6009
▁faster	-6010
▁grateful	-6011
governmental	-6012
▁follows	-6013
▁Cyprus	-6014
▁gender	-6015
.9	-6016
esty	-6017
▁marg	-6018
▁vacation	-6019
icon	-6020
▁Bro	-6021
▁fulfil	-6022
▁abandon	-6023
▁EM	-6024
▁Dav	-6025
▁focused	-6026
tered	-6027
▁Canada	-6028
▁Secret	-6029
▁discount	-6030
oub	-6031
▁lobby	-6032
ifies	-6033
▁Church	-6034
▁ultimately	-6035
▁2020	-6036
▁Dom	-6037
▁delighted	-6038
▁divided	-6039
US	-6040
▁updated	-6041
▁string	-6042
▁finished	-6043
▁welfare	-6044
▁driver	-6045
▁Count	-6046
aught	-6047
▁Sov	-6048
▁tob	-6049
▁eastern	-6050
ache	-6051
▁decorated	-6052
rote	-6053
uese	-6054
▁Saint	-6055
iform	-6056
▁worry	-6057
▁nom	-6058
▁wines	-6059
urious	-6060
duc	-6061
▁mostly	-6062
▁alt	-6063
▁behavi	-6064
▁contacts	-6065
▁edge	-6066
▁valley	-6067
▁electricity	-6068
▁SP	-6069
▁Square	-6070
▁Struct	-6071
▁techniques	-6072
▁incom	-6073
▁library	-6074
▁shap	-6075
▁compatible	-6076
enary	-6077
▁effectiveness	-6078
▁dates	-6079
DE	-6080
▁expan	-6081
▁statistics	-6082
▁pollution	-6083
▁complement	-6084
▁Stand	-6085
▁invite	-6086
▁Fer	-6087
▁Whether	-6088
▁courage	-6089
▁visible	-6090
▁heritage	-6091
cap	-6092
▁1995	-6093
▁severe	-6094
▁Monetary	-6095
▁protocol	-6096
▁declaration	-6097
▁castle	-6098
▁relaxation	-6099
anqu	-6100
got	-6101
▁inhabitants	-6102
▁Year	-6103
▁involves	-6104
▁Prag	-6105
▁Slovak	-6106
▁migration	-6107
▁visual	-6108
ether	-6109
enhagen	-6110
▁interior	-6111
▁profile	-6112
▁subsidies	-6113
pass	-6114
oured	-6115
▁root	-6116
▁Disc	-6117
▁terrorist	-6118
▁starts	-6119
▁stored	-6120
▁Israeli	-6121
▁iron	-6122
▁Child	-6123
▁sac	-6124
▁http	-6125
▁drivers	-6126
atures	-6127
▁Schen	-6128
▁careful	-6129
▁passenger	-6130
▁widely	-6131
▁tourists	-6132
▁trafficking	-6133
▁presents	-6134
▁ball	-6135
▁Portuguese	-6136
▁stars	-6137
▁indicated	-6138
▁locations	-6139
ala	-6140
▁Soviet	-6141
▁advis	-6142
▁arrive	-6143
▁provider	-6144
▁disappe	-6145
▁afternoon	-6146
▁appointed	-6147
▁corresponding	-6148
▁proc	-6149
▁cycle	-6150
▁parad	-6151
▁input	-6152
roc	-6153
▁flights	-6154
rier	-6155
ae	-6156
▁Fram	-6157
▁understood	-6158
▁visited	-6159
▁channels	-6160
▁amaz	-6161
▁showing	-6162
▁demonstrate	-6163
▁exciting	-6164
▁collaboration	-6165
▁ing	-6166
▁demonstrated	-6167
ael	-6168
▁planet	-6169
▁Pack	-6170
▁maintaining	-6171
▁cash	-6172
▁magnific	-6173
▁functioning	-6174
obile	-6175
▁stylish	-6176
othing	-6177
▁accident	-6178
▁heating	-6179
▁Question	-6180
▁printing	-6181
▁iP	-6182
▁solar	-6183
▁Hall	-6184
▁Main	-6185
iam	-6186
arters	-6187
▁investors	-6188
▁entrance	-6189
▁Spa	-6190
▁Palace	-6191
▁signs	-6192
rical	-6193
▁poss	-6194
▁Transport	-6195
▁GN	-6196
▁proved	-6197
uated	-6198
acco	-6199
lav	-6200
uous	-6201
▁Pact	-6202
▁tickets	-6203
igen	-6204
▁corruption	-6205
comm	-6206
▁benefic	-6207
▁settlement	-6208
▁detect	-6209
▁monu	-6210
▁restruct	-6211
▁committees	-6212
▁Bon	-6213
orf	-6214
▁match	-6215
▁spoken	-6216
▁accompanied	-6217
ales	-6218
▁Vice	-6219
▁imposed	-6220
▁Conc	-6221
▁Mich	-6222
▁alcohol	-6223
▁transition	-6224
▁commission	-6225
▁raw	-6226
▁Director	-6227
▁expansion	-6228
▁personnel	-6229
▁caf	-6230
▁lovely	-6231
▁Post	-6232
▁Station	-6233
▁suites	-6234
▁Baltic	-6235
▁newsp	-6236
▁concluded	-6237
▁documentation	-6238
icht	-6239
irt	-6240
▁EN	-6241
▁resistance	-6242
▁Amendments	-6243
▁Phot	-6244
▁boost	-6245
▁Power	-6246
▁citizen	-6247
▁visiting	-6248
▁Report	-6249
▁theme	-6250
▁Protection	-6251
▁hostel	-6252
▁contrad	-6253
▁ongoing	-6254
▁distingu	-6255
▁Schengen	-6256
▁restric	-6257
▁western	-6258
▁configuration	-6259
▁Form	-6260
▁Applause	-6261
je	-6262
▁Korea	-6263
▁Perhaps	-6264
▁recorded	-6265
inent	-6266
umer	-6267
▁minorities	-6268
emark	-6269
lean	-6270
▁Friday	-6271
▁fitness	-6272
▁gardens	-6273
▁Copenhagen	-6274
▁ll	-6275
▁channel	-6276
▁behaviour	-6277
▁smooth	-6278
▁awarded	-6279
▁judicial	-6280
▁department	-6281
▁sugar	-6282
▁Prague	-6283
▁speaker	-6284
▁containing	-6285
▁Four	-6286
▁phrase	-6287
▁respected	-6288
▁constitution	-6289
▁Es	-6290
▁foundation	-6291
▁AR	-6292
▁oral	-6293
▁renow	-6294
▁lounge	-6295
▁ST	-6296
uzz	-6297
▁tri	-6298
▁tackle	-6299
▁occasions	-6300
▁mm	-6301
onal	-6302
▁crimes	-6303
▁possibly	-6304
iner	-6305
▁explicit	-6306
▁manufacturer	-6307
▁OF	-6308
▁windows	-6309
▁bilateral	-6310
▁Funds	-6311
▁educational	-6312
▁king	-6313
▁desired	-6314
▁Wik	-6315
▁gar	-6316
▁Nord	-6317
▁cosy	-6318
▁rub	-6319
▁sad	-6320
▁immigrants	-6321
▁replaced	-6322
SS	-6323
▁spectacular	-6324
▁competent	-6325
▁Hungary	-6326
▁ISO	-6327
▁ast	-6328
vant	-6329
rapy	-6330
rence	-6331
▁facility	-6332
▁psych	-6333
▁Europ	-6334
▁COM	-6335
▁assume	-6336
▁Belgium	-6337
di	-6338
▁mac	-6339
▁intens	-6340
▁routes	-6341
▁firms	-6342
▁oriented	-6343
▁subsidiarity	-6344
▁determination	-6345
▁ice	-6346
▁Fi	-6347
▁gram	-6348
▁virtual	-6349
▁Paul	-6350
▁overcome	-6351
▁Mat	-6352
▁rapidly	-6353
itt	-6354
ogether	-6355
▁endorse	-6356
▁tun	-6357
▁ol	-6358
▁scheme	-6359
.8	-6360
▁correctly	-6361
▁CH	-6362
▁School	-6363
rog	-6364
▁professionals	-6365
▁credibility	-6366
SP	-6367
otic	-6368
▁transactions	-6369
unk	-6370
yer	-6371
▁facts	-6372
▁sending	-6373
▁destruction	-6374
gent	-6375
▁bright	-6376
▁thumb	-6377
▁certific	-6378
▁Description	-6379
▁Barro	-6380
▁functional	-6381
▁pieces	-6382
ipe	-6383
▁milk	-6384
▁films	-6385
▁plenty	-6386
▁satisfied	-6387
▁declared	-6388
ión	-6389
▁partly	-6390
▁constitutional	-6391
▁woman	-6392
▁Following	-6393
▁infring	-6394
mar	-6395
▁usual	-6396
▁Fre	-6397
▁alarm	-6398
see	-6399
▁inflation	-6400
▁motiv	-6401
▁Town	-6402
▁globalisation	-6403
▁formed	-6404
▁deposit	-6405
▁Structural	-6406
▁exit	-6407
▁era	-6408
▁component	-6409
▁suppliers	-6410
▁uncertain	-6411
▁centuries	-6412
▁Hungarian	-6413
▁adopting	-6414
▁Nos	-6415
▁prompt	-6416
▁flood	-6417
och	-6418
▁bug	-6419
ige	-6420
▁liqu	-6421
▁stronger	-6422
▁Ev	-6423
▁shares	-6424
▁Action	-6425
visory	-6426
ban	-6427
stra	-6428
▁taxation	-6429
▁uniform	-6430
tical	-6431
▁Within	-6432
▁addresses	-6433
▁03	-6434
▁Bush	-6435
▁plenary	-6436
▁les	-6437
▁assets	-6438
▁Thurs	-6439
▁argument	-6440
duction	-6441
▁mun	-6442
etheless	-6443
▁proposes	-6444
▁definitely	-6445
▁poore	-6446
▁Madrid	-6447
▁authent	-6448
40	-6449
▁coal	-6450
▁sharing	-6451
▁extraordinary	-6452
▁dign	-6453
▁preparing	-6454
▁providers	-6455
AG	-6456
▁Given	-6457
▁saving	-6458
amburg	-6459
▁identified	-6460
▁died	-6461
▁courts	-6462
▁suffer	-6463
▁thousand	-6464
▁Thirdly	-6465
▁division	-6466
▁tast	-6467
▁proven	-6468
▁encouraging	-6469
▁magnificent	-6470
▁Stras	-6471
▁distributed	-6472
▁Dec	-6473
▁ensures	-6474
▁VAT	-6475
▁minister	-6476
▁plays	-6477
▁forum	-6478
▁rental	-6479
▁bill	-6480
▁generated	-6481
▁narrow	-6482
elled	-6483
▁actively	-6484
▁unw	-6485
▁resolved	-6486
▁consent	-6487
▁domain	-6488
▁roads	-6489
▁substance	-6490
▁belief	-6491
▁Northern	-6492
▁Die	-6493
▁slightly	-6494
▁Was	-6495
▁surf	-6496
▁eat	-6497
▁inclusion	-6498
▁colon	-6499
▁emot	-6500
▁adults	-6501
▁assure	-6502
▁artistic	-6503
▁Mexico	-6504
▁examine	-6505
▁Champ	-6506
▁fat	-6507
▁cere	-6508
ador	-6509
▁considering	-6510
ky	-6511
tes	-6512
▁updates	-6513
umin	-6514
▁unfor	-6515
uality	-6516
▁owned	-6517
▁army	-6518
lo	-6519
▁au	-6520
teen	-6521
▁Inn	-6522
RA	-6523
▁flu	-6524
▁concepts	-6525
zy	-6526
▁rank	-6527
▁decisive	-6528
▁dependent	-6529
--	-6530
▁duties	-6531
▁partial	-6532
ENT	-6533
eless	-6534
▁university	-6535
agers	-6536
▁miles	-6537
▁sched	-6538
▁manager	-6539
▁carrying	-6540
▁EL	-6541
▁broadcast	-6542
▁proposing	-6543
ham	-6544
▁lists	-6545
▁warrant	-6546
▁tobacco	-6547
▁employed	-6548
▁CE	-6549
▁suit	-6550
▁insert	-6551
▁everyday	-6552
▁Without	-6553
▁Phil	-6554
▁lots	-6555
▁193	-6556
▁ACP	-6557
▁weekend	-6558
▁voluntary	-6559
▁Inf	-6560
▁moral	-6561
ahn	-6562
▁inj	-6563
▁applying	-6564
▁Bad	-6565
▁subjects	-6566
▁packaging	-6567
▁Arch	-6568
ADS	-6569
▁für	-6570
rd	-6571
▁vary	-6572
▁Earth	-6573
▁solely	-6574
▁maritime	-6575
▁luxurious	-6576
▁Chair	-6577
▁Technology	-6578
▁nevertheless	-6579
▁Cam	-6580
▁emerging	-6581
▁renowned	-6582
▁distort	-6583
band	-6584
▁PT	-6585
▁fourth	-6586
▁Media	-6587
▁eventually	-6588
▁vulnerable	-6589
▁diverse	-6590
▁Exper	-6591
▁jur	-6592
▁Ann	-6593
unning	-6594
▁Hamburg	-6595
bar	-6596
▁traditions	-6597
▁upper	-6598
▁Travel	-6599
▁lie	-6600
▁defect	-6601
point	-6602
▁wrote	-6603
▁Elect	-6604
▁legitimate	-6605
▁Among	-6606
ationally	-6607
▁supplies	-6608
▁1,	-6609
▁Fe	-6610
repren	-6611
▁Thursday	-6612
▁intensive	-6613
▁od	-6614
▁discipl	-6615
▁offic	-6616
▁ships	-6617
OU	-6618
▁GM	-6619
▁impose	-6620
▁condemn	-6621
▁Sur	-6622
▁supplier	-6623
repreneur	-6624
▁zu	-6625
▁autonom	-6626
▁suggestions	-6627
▁theory	-6628
▁EADS	-6629
▁topics	-6630
▁musical	-6631
▁England	-6632
▁Treat	-6633
▁Besides	-6634
▁shipping	-6635
los	-6636
▁abuse	-6637
▁absence	-6638
▁Women	-6639
▁elsewhere	-6640
tery	-6641
cean	-6642
▁gained	-6643
▁lessons	-6644
▁Fil	-6645
▁Assembly	-6646
▁appeared	-6647
▁Framework	-6648
▁boot	-6649
▁Tourism	-6650
▁greatly	-6651
▁dism	-6652
▁Who	-6653
▁fran	-6654
▁filled	-6655
▁director	-6656
▁villages	-6657
▁Sun	-6658
▁unforget	-6659
▁satisfaction	-6660
▁interpretation	-6661
gic	-6662
aling	-6663
▁departure	-6664
▁PHP	-6665
▁Island	-6666
▁arrived	-6667
▁enabled	-6668
▁representation	-6669
▁countryside	-6670
▁regarded	-6671
▁index	-6672
▁Santa	-6673
▁Author	-6674
▁Profess	-6675
▁finish	-6676
tion	-6677
▁teams	-6678
pire	-6679
▁earn	-6680
▁philosophy	-6681
▁Gene	-6682
▁decent	-6683
▁nights	-6684
ema	-6685
▁ped	-6686
▁excessive	-6687
lt	-6688
inn	-6689
bourg	-6690
ressed	-6691
▁farming	-6692
▁winning	-6693
▁tight	-6694
▁drinks	-6695
▁deficit	-6696
▁Desk	-6697
▁acknowledge	-6698
▁preced	-6699
▁Atlantic	-6700
▁specified	-6701
while	-6702
▁Ham	-6703
▁Stock	-6704
▁Site	-6705
▁Ze	-6706
▁crew	-6707
▁receiving	-6708
▁Page	-6709
▁Guests	-6710
▁difficulty	-6711
▁2011	-6712
iences	-6713
▁acting	-6714
▁Class	-6715
▁spoke	-6716
▁patient	-6717
▁Lu	-6718
▁Legal	-6719
▁reservations	-6720
▁module	-6721
▁Sunday	-6722
▁description	-6723
▁37	-6724
▁skiing	-6725
▁48	-6726
▁Agriculture	-6727
▁bridge	-6728
lined	-6729
▁exports	-6730
▁invited	-6731
▁realistic	-6732
▁comparison	-6733
▁Mot	-6734
▁colours	-6735
▁disabled	-6736
box	-6737
▁MP	-6738
oubted	-6739
inger	-6740
▁poly	-6741
iro	-6742
IB	-6743
ement	-6744
▁Wall	-6745
▁equival	-6746
▁Mult	-6747
▁rot	-6748
letter	-6749
▁forests	-6750
▁housing	-6751
ima	-6752
▁lunch	-6753
▁Having	-6754
▁suggested	-6755
▁Royal	-6756
▁scene	-6757
stein	-6758
▁Fire	-6759
▁Hy	-6760
▁semin	-6761
▁33	-6762
▁burn	-6763
vo	-6764
▁attempts	-6765
▁pursue	-6766
lights	-6767
▁id	-6768
▁fix	-6769
▁Conf	-6770
zone	-6771
▁savings	-6772
ographical	-6773
uggage	-6774
▁periods	-6775
▁overview	-6776
▁federal	-6777
▁permitted	-6778
▁princip	-6779
mon	-6780
▁Beach	-6781
▁pra	-6782
▁horse	-6783
▁TO	-6784
▁lift	-6785
▁ports	-6786
atz	-6787
ba	-6788
▁roof	-6789
▁reaction	-6790
▁arguments	-6791
▁Tar	-6792
▁cul	-6793
▁Down	-6794
▁unlike	-6795
▁Ext	-6796
▁doors	-6797
▁75	-6798
ibet	-6799
▁Tip	-6800
▁enjoyed	-6801
▁Vill	-6802
ultane	-6803
▁destroyed	-6804
▁ID	-6805
▁champ	-6806
▁Monday	-6807
▁religion	-6808
▁fer	-6809
▁obliged	-6810
▁cooperate	-6811
▁manual	-6812
▁constitute	-6813
ixt	-6814
▁stabil	-6815
▁refers	-6816
▁banking	-6817
▁delicious	-6818
hips	-6819
▁Festival	-6820
▁Code	-6821
▁enabling	-6822
change	-6823
▁leaves	-6824
▁portfol	-6825
orry	-6826
▁Food	-6827
▁Front	-6828
▁revision	-6829
wing	-6830
▁directory	-6831
▁confirmation	-6832
▁tables	-6833
▁resource	-6834
▁Congress	-6835
▁justified	-6836
▁disk	-6837
osis	-6838
▁ist	-6839
▁paying	-6840
▁Jac	-6841
eting	-6842
▁harmonisation	-6843
▁Educ	-6844
▁Adm	-6845
gence	-6846
▁tennis	-6847
▁continuous	-6848
▁politically	-6849
▁bomb	-6850
▁municip	-6851
aud	-6852
▁1994	-6853
▁PDF	-6854
▁rid	-6855
▁significance	-6856
▁specialist	-6857
▁reput	-6858
▁football	-6859
▁unforgettable	-6860
fe	-6861
▁freedoms	-6862
▁legally	-6863
▁Fort	-6864
▁Golf	-6865
▁twenty	-6866
IG	-6867
▁Alex	-6868
▁publication	-6869
▁lov	-6870
▁referendum	-6871
site	-6872
allel	-6873
icing	-6874
▁trademark	-6875
aft	-6876
▁bab	-6877
▁radical	-6878
▁por	-6879
▁amen	-6880
▁imports	-6881
▁lasting	-6882
▁welcomed	-6883
▁Strasbourg	-6884
advant	-6885
▁negotiating	-6886
▁Salz	-6887
▁sought	-6888
▁Flore	-6889
▁Invest	-6890
▁trips	-6891
ulf	-6892
▁killed	-6893
▁cleaning	-6894
▁Federation	-6895
▁Finland	-6896
▁deserv	-6897
▁Auditors	-6898
▁entrepreneur	-6899
bus	-6900
rel	-6901
▁rare	-6902
▁handle	-6903
▁instructions	-6904
▁retail	-6905
▁directed	-6906
▁supervision	-6907
▁rising	-6908
▁AT	-6909
oubtedly	-6910
▁prosperity	-6911
▁antic	-6912
▁characters	-6913
▁forthcoming	-6914
▁lived	-6915
▁tree	-6916
▁Hist	-6917
onymous	-6918
hedral	-6919
oration	-6920
▁Socialist	-6921
heim	-6922
▁disadvant	-6923
LE	-6924
▁192	-6925
ulous	-6926
▁complicated	-6927
pay	-6928
▁empt	-6929
ida	-6930
▁tested	-6931
nex	-6932
▁Barroso	-6933
▁festival	-6934
▁Mill	-6935
▁tea	-6936
▁attrib	-6937
▁labelling	-6938
▁societies	-6939
▁Facilities	-6940
▁surely	-6941
my	-6942
▁bul	-6943
▁welcomes	-6944
▁suffered	-6945
▁allocated	-6946
▁enterprise	-6947
▁proceedings	-6948
▁compact	-6949
▁EP	-6950
▁inspect	-6951
▁indirect	-6952
▁ordinary	-6953
▁contributed	-6954
▁mir	-6955
▁beings	-6956
▁inn	-6957
▁Coop	-6958
60	-6959
gl	-6960
▁wheel	-6961
▁modules	-6962
▁parameters	-6963
▁surve	-6964
▁everybody	-6965
▁preventing	-6966
▁bag	-6967
▁firmly	-6968
wood	-6969
▁appearance	-6970
▁Situated	-6971
▁realise	-6972
▁selling	-6973
▁fans	-6974
▁homes	-6975
▁Dist	-6976
▁bond	-6977
▁gallery	-6978
▁clubs	-6979
▁devot	-6980
▁none	-6981
care	-6982
▁sounds	-6983
▁hyd	-6984
▁conce	-6985
▁RE	-6986
ownt	-6987
▁wider	-6988
▁originally	-6989
▁una	-6990
▁fabric	-6991
▁remained	-6992
▁programming	-6993
urday	-6994
mbud	-6995
part	-6996
▁academ	-6997
▁Tibet	-6998
▁Secretary	-6999
▁hol	-7000
▁horiz	-7001
▁evident	-7002
▁introducing	-7003
▁USB	-7004
ronom	-7005
▁acknowled	-7006
hetic	-7007
▁Exec	-7008
▁spons	-7009
▁HT	-7010
▁wellness	-7011
med	-7012
▁Serbia	-7013
▁gather	-7014
▁remarks	-7015
▁pharm	-7016
▁Pass	-7017
▁Moroc	-7018
▁recognized	-7019
▁romantic	-7020
▁barriers	-7021
▁Bol	-7022
▁Should	-7023
▁passion	-7024
eller	-7025
▁cuts	-7026
enth	-7027
▁ECU	-7028
▁Sud	-7029
▁Islamic	-7030
▁functionality	-7031
▁reconc	-7032
▁judge	-7033
▁hardly	-7034
▁indicate	-7035
▁sustainability	-7036
encing	-7037
▁cells	-7038
▁Las	-7039
▁Peter	-7040
▁SD	-7041
▁protest	-7042
▁Stability	-7043
▁fees	-7044
▁prime	-7045
▁switch	-7046
▁simultane	-7047
▁Gall	-7048
▁hospitality	-7049
▁Rem	-7050
▁crop	-7051
▁ranging	-7052
▁enhanced	-7053
aughter	-7054
▁vessels	-7055
▁exclusion	-7056
ployed	-7057
wan	-7058
▁craft	-7059
▁deter	-7060
▁Michael	-7061
▁Americans	-7062
▁hearing	-7063
▁obstacles	-7064
apt	-7065
▁Project	-7066
▁SC	-7067
▁Gran	-7068
▁whereas	-7069
eav	-7070
ista	-7071
▁Start	-7072
▁Indian	-7073
▁movements	-7074
▁sections	-7075
▁photograph	-7076
Script	-7077
sequent	-7078
▁errors	-7079
▁Express	-7080
▁welcoming	-7081
▁Does	-7082
▁Online	-7083
▁combine	-7084
▁saved	-7085
▁adapted	-7086
▁Charl	-7087
▁legitim	-7088
▁explained	-7089
▁hes	-7090
uer	-7091
▁democrat	-7092
▁Put	-7093
▁collected	-7094
▁transmission	-7095
▁34	-7096
▁frame	-7097
▁wireless	-7098
ints	-7099
▁bird	-7100
▁accurate	-7101
▁investigation	-7102
▁Tun	-7103
▁Sloven	-7104
▁internationally	-7105
▁museums	-7106
▁classes	-7107
▁organic	-7108
eds	-7109
▁missing	-7110
▁regardless	-7111
▁decre	-7112
▁stocks	-7113
▁considerably	-7114
▁exploitation	-7115
▁bike	-7116
▁Commissioners	-7117
▁disasters	-7118
▁prox	-7119
▁shar	-7120
▁acceptance	-7121
▁amazing	-7122
▁imagine	-7123
ago	-7124
iversary	-7125
▁Via	-7126
▁turning	-7127
▁Regional	-7128
ignt	-7129
▁covering	-7130
▁movie	-7131
▁didn	-7132
▁fleet	-7133
▁showed	-7134
▁productivity	-7135
isp	-7136
eff	-7137
▁united	-7138
▁juris	-7139
▁looked	-7140
▁toile	-7141
▁universities	-7142
▁ru	-7143
▁reflected	-7144
▁euros	-7145
▁recall	-7146
▁interview	-7147
ernel	-7148
▁Access	-7149
▁Bern	-7150
▁dignity	-7151
▁Asian	-7152
commun	-7153
▁Music	-7154
oes	-7155
▁syn	-7156
▁novel	-7157
▁deliber	-7158
oslav	-7159
▁soph	-7160
▁ministers	-7161
▁dialog	-7162
ipp	-7163
▁CAP	-7164
▁Dol	-7165
▁generate	-7166
▁Kl	-7167
▁diagn	-7168
irk	-7169
▁excluded	-7170
▁Ol	-7171
▁Kar	-7172
▁nine	-7173
▁alleg	-7174
▁penalty	-7175
St	-7176
▁ride	-7177
▁female	-7178
▁dos	-7179
▁gap	-7180
▁Van	-7181
▁endeav	-7182
▁undoubtedly	-7183
▁Luc	-7184
▁desk	-7185
▁dies	-7186
▁mobil	-7187
▁checks	-7188
▁timet	-7189
TA	-7190
▁sett	-7191
▁prest	-7192
▁violations	-7193
ga	-7194
▁Gr	-7195
water	-7196
▁Partners	-7197
opes	-7198
▁inev	-7199
DA	-7200
nia	-7201
▁Sou	-7202
▁ingred	-7203
▁Saturday	-7204
▁fan	-7205
ktop	-7206
▁distinct	-7207
ili	-7208
▁Ros	-7209
▁consulting	-7210
cession	-7211
▁filter	-7212
▁studio	-7213
▁Venice	-7214
uled	-7215
▁Sup	-7216
▁catch	-7217
▁believes	-7218
▁SE	-7219
▁generations	-7220
▁songs	-7221
▁Geneva	-7222
kes	-7223
icyc	-7224
isch	-7225
▁computers	-7226
ido	-7227
▁notes	-7228
▁videos	-7229
▁ben	-7230
▁layer	-7231
hy	-7232
▁splend	-7233
▁Balkans	-7234
▁managing	-7235
▁Christmas	-7236
▁transferred	-7237
▁cancer	-7238
▁travelling	-7239
▁honour	-7240
uels	-7241
▁PPE	-7242
▁stret	-7243
▁Resort	-7244
ía	-7245
▁climb	-7246
▁clause	-7247
▁plastic	-7248
▁sovereignt	-7249
mbudsman	-7250
▁Yug	-7251
▁View	-7252
▁Valley	-7253
uster	-7254
▁concentrate	-7255
▁Du	-7256
pir	-7257
atch	-7258
▁rac	-7259
▁massage	-7260
▁incred	-7261
▁supplied	-7262
.30	-7263
▁restored	-7264
▁coordinated	-7265
▁reliability	-7266
▁satisfy	-7267
▁sym	-7268
▁breed	-7269
▁Stat	-7270
▁stages	-7271
▁Organisation	-7272
▁liked	-7273
▁codec	-7274
▁driven	-7275
▁parallel	-7276
▁sheet	-7277
II	-7278
▁1980	-7279
▁undertaken	-7280
▁Bre	-7281
▁freely	-7282
▁reflects	-7283
▁amenities	-7284
▁shadow	-7285
▁Corpor	-7286
▁Wed	-7287
▁ended	-7288
▁Mess	-7289
▁fishermen	-7290
▁38	-7291
▁BM	-7292
▁arbit	-7293
▁superior	-7294
▁subsequent	-7295
quiry	-7296
▁prol	-7297
▁Cho	-7298
chant	-7299
▁Australia	-7300
▁restore	-7301
erman	-7302
▁synt	-7303
▁cock	-7304
▁edition	-7305
active	-7306
▁worst	-7307
▁Agenda	-7308
▁reconstruction	-7309
▁ECB	-7310
▁Support	-7311
▁98	-7312
▁strengthened	-7313
▁Yugoslav	-7314
▁sovereignty	-7315
ani	-7316
▁para	-7317
▁designs	-7318
laim	-7319
usal	-7320
▁anticip	-7321
ua	-7322
rie	-7323
▁Casino	-7324
▁interv	-7325
▁vig	-7326
iov	-7327
▁bio	-7328
ieval	-7329
▁Next	-7330
otive	-7331
▁expos	-7332
▁Gar	-7333
anz	-7334
▁restructuring	-7335
▁losses	-7336
RE	-7337
inet	-7338
▁Tem	-7339
▁Cond	-7340
▁peak	-7341
▁arise	-7342
▁Represent	-7343
ograp	-7344
▁learned	-7345
▁cultures	-7346
▁enem	-7347
▁liquid	-7348
adequ	-7349
▁thermal	-7350
lets	-7351
▁assembly	-7352
▁sequ	-7353
▁repair	-7354
▁Pu	-7355
▁underground	-7356
▁neighbouring	-7357
▁250	-7358
▁Common	-7359
ih	-7360
▁approve	-7361
ilding	-7362
▁Martin	-7363
▁listings	-7364
eline	-7365
▁anywhere	-7366
▁province	-7367
ela	-7368
▁Systems	-7369
▁ordered	-7370
▁RO	-7371
▁briefly	-7372
▁processed	-7373
▁2013	-7374
▁Culture	-7375
▁targeted	-7376
▁picturesque	-7377
▁calm	-7378
artment	-7379
▁Mic	-7380
▁squ	-7381
▁push	-7382
▁equivalent	-7383
▁sud	-7384
▁Expl	-7385
▁floors	-7386
▁42	-7387
▁panoramic	-7388
jo	-7389
▁Carl	-7390
▁holds	-7391
▁Friend	-7392
▁hiking	-7393
▁trends	-7394
▁treatments	-7395
▁unfair	-7396
▁unne	-7397
▁Education	-7398
irty	-7399
▁Civil	-7400
▁height	-7401
▁raising	-7402
▁inadequ	-7403
▁disag	-7404
▁engage	-7405
olic	-7406
hof	-7407
▁tracks	-7408
ario	-7409
night	-7410
▁deeply	-7411
▁anniversary	-7412
11	-7413
▁Pay	-7414
▁Trek	-7415
▁Consequently	-7416
▁varied	-7417
▁Executive	-7418
▁individually	-7419
▁constitu	-7420
▁portfolio	-7421
ingly	-7422
▁User	-7423
▁multilateral	-7424
▁Islands	-7425
▁39	-7426
itan	-7427
▁factory	-7428
icks	-7429
▁Castle	-7430
▁Georgia	-7431
▁damages	-7432
▁adds	-7433
▁honest	-7434
▁Denmark	-7435
itative	-7436
▁pretty	-7437
uv	-7438
▁sensible	-7439
▁necessarily	-7440
down	-7441
ridge	-7442
ket	-7443
▁aside	-7444
▁panel	-7445
edly	-7446
▁editor	-7447
▁unnecess	-7448
▁presenting	-7449
▁fly	-7450
▁pip	-7451
▁stuff	-7452
▁Sam	-7453
▁Gen	-7454
▁Look	-7455
▁attached	-7456
▁ecological	-7457
▁NGOs	-7458
▁hill	-7459
▁absor	-7460
▁formats	-7461
▁guard	-7462
▁student	-7463
▁sights	-7464
▁engaged	-7465
▁News	-7466
▁vine	-7467
▁downt	-7468
▁Belgian	-7469
▁olive	-7470
▁Fisher	-7471
▁normally	-7472
▁controvers	-7473
club	-7474
▁MyS	-7475
▁reputation	-7476
▁AD	-7477
stream	-7478
▁printed	-7479
▁appropriations	-7480
itar	-7481
inder	-7482
▁tranqu	-7483
▁CF	-7484
time	-7485
▁territorial	-7486
▁Team	-7487
SL	-7488
▁vib	-7489
▁execution	-7490
ford	-7491
▁boy	-7492
▁vit	-7493
isticated	-7494
▁pus	-7495
▁differ	-7496
▁jurisd	-7497
▁teaching	-7498
▁1992	-7499
▁Family	-7500
▁intends	-7501
▁executive	-7502
▁Trad	-7503
▁profits	-7504
70	-7505
umping	-7506
▁threats	-7507
▁everywhere	-7508
▁Consumer	-7509
▁é	-7510
▁highlights	-7511
▁Gent	-7512
▁referring	-7513
▁vent	-7514
▁budgets	-7515
▁Protocol	-7516
▁decade	-7517
td	-7518
▁pilot	-7519
▁shoot	-7520
▁accompl	-7521
fin	-7522
orous	-7523
▁Would	-7524
▁fairly	-7525
▁entering	-7526
▁Ombudsman	-7527
▁Max	-7528
CD	-7529
▁CS	-7530
▁usage	-7531
▁engines	-7532
▁efficiently	-7533
off	-7534
▁04	-7535
onic	-7536
▁recording	-7537
▁urgently	-7538
inen	-7539
▁hyp	-7540
enues	-7541
▁traged	-7542
iler	-7543
▁mas	-7544
celer	-7545
hered	-7546
▁cater	-7547
▁relates	-7548
▁layout	-7549
▁compuls	-7550
▁aer	-7551
▁fal	-7552
pread	-7553
▁Lastly	-7554
▁geographical	-7555
▁rain	-7556
▁Islam	-7557
▁begins	-7558
▁pillar	-7559
▁assign	-7560
▁Tom	-7561
▁800	-7562
▁stunning	-7563
▁Customer	-7564
▁arg	-7565
▁phenomenon	-7566
▁till	-7567
▁kilometres	-7568
▁wides	-7569
▁reserved	-7570
.000	-7571
▁shock	-7572
▁promised	-7573
▁struggle	-7574
▁overlooking	-7575
▁Lith	-7576
▁acquired	-7577
▁mouse	-7578
▁calend	-7579
hn	-7580
▁pul	-7581
▁clin	-7582
▁produces	-7583
gin	-7584
▁AP	-7585
▁Clear	-7586
▁arising	-7587
▁Ret	-7588
▁refund	-7589
▁decline	-7590
▁Ref	-7591
▁magazine	-7592
▁forgot	-7593
▁Budgets	-7594
▁interpre	-7595
▁meets	-7596
▁Vide	-7597
nam	-7598
▁specialists	-7599
irable	-7600
▁grown	-7601
▁twice	-7602
▁prospects	-7603
▁strictly	-7604
hi	-7605
▁tort	-7606
▁Rotary	-7607
▁promise	-7608
▁neut	-7609
▁highlighted	-7610
▁medicine	-7611
▁liable	-7612
▁mistake	-7613
▁coherent	-7614
▁succeeded	-7615
▁combines	-7616
▁occurred	-7617
▁adventure	-7618
▁reinfor	-7619
▁Holid	-7620
essions	-7621
▁taxpay	-7622
▁incorporated	-7623
▁Award	-7624
▁seats	-7625
fl	-7626
▁brother	-7627
▁resulted	-7628
▁ends	-7629
▁row	-7630
haust	-7631
▁inspired	-7632
▁Using	-7633
▁candidates	-7634
▁consequence	-7635
▁Autom	-7636
▁oldest	-7637
km	-7638
under	-7639
▁operator	-7640
ystem	-7641
▁hence	-7642
▁Argent	-7643
▁Water	-7644
▁servers	-7645
▁producer	-7646
zard	-7647
▁Jose	-7648
▁heading	-7649
mm	-7650
▁stick	-7651
▁stream	-7652
rity	-7653
▁warning	-7654
▁scientists	-7655
▁fax	-7656
▁kernel	-7657
▁airports	-7658
rey	-7659
▁considers	-7660
▁affects	-7661
▁hills	-7662
▁opens	-7663
▁confidential	-7664
orne	-7665
▁aviation	-7666
aly	-7667
▁cultiv	-7668
EW	-7669
▁HD	-7670
▁Tai	-7671
▁essentially	-7672
▁sophisticated	-7673
▁environmentally	-7674
▁III	-7675
▁serving	-7676
▁Nap	-7677
▁Industry	-7678
▁120	-7679
▁feet	-7680
▁armed	-7681
bs	-7682
using	-7683
▁domin	-7684
▁blind	-7685
▁sphere	-7686
▁recre	-7687
▁conventional	-7688
▁colors	-7689
▁JavaScript	-7690
▁Gra	-7691
▁fault	-7692
▁gradually	-7693
aker	-7694
▁causing	-7695
▁Notes	-7696
▁Cr	-7697
▁Deutsche	-7698
▁virtually	-7699
▁Bra	-7700
▁Academ	-7701
▁associations	-7702
▁participating	-7703
▁records	-7704
▁Dig	-7705
▁divers	-7706
▁native	-7707
utors	-7708
▁Poker	-7709
matically	-7710
▁600	-7711
▁meal	-7712
▁contextual	-7713
▁troops	-7714
hors	-7715
inity	-7716
▁surprise	-7717
▁das	-7718
▁bathrooms	-7719
▁Constitutional	-7720
▁recyc	-7721
▁conscious	-7722
ishment	-7723
▁prisoners	-7724
bl	-7725
eras	-7726
▁throw	-7727
▁accidents	-7728
▁diplomatic	-7729
▁Pic	-7730
The	-7731
▁Tim	-7732
▁hidden	-7733
▁bes	-7734
▁restricted	-7735
▁clarify	-7736
▁Download	-7737
itate	-7738
rous	-7739
quisite	-7740
▁seeks	-7741
▁hat	-7742
▁inequ	-7743
▁explanation	-7744
apse	-7745
▁encouraged	-7746
▁widespread	-7747
uan	-7748
▁puts	-7749
▁Based	-7750
▁adding	-7751
▁utmost	-7752
▁Network	-7753
▁Treaties	-7754
▁Pac	-7755
▁sudden	-7756
pes	-7757
▁55	-7758
▁harmful	-7759
▁rational	-7760
rible	-7761
▁dance	-7762
▁teachers	-7763
▁reporting	-7764
▁Exchange	-7765
▁seas	-7766
▁unus	-7767
▁Danish	-7768
▁Att	-7769
▁alongside	-7770
▁metro	-7771
▁thr	-7772
▁une	-7773
riage	-7774
▁Cooperation	-7775
▁eld	-7776
▁premium	-7777
▁achievement	-7778
▁superb	-7779
▁thumbn	-7780
▁Ba	-7781
▁quote	-7782
▁agents	-7783
adays	-7784
▁Have	-7785
▁Sever	-7786
hops	-7787
▁quotas	-7788
▁wooden	-7789
▁Shop	-7790
▁reiter	-7791
▁Jo	-7792
▁spite	-7793
▁observed	-7794
▁preserve	-7795
▁convergence	-7796
▁prize	-7797
▁revenue	-7798
▁conditioned	-7799
▁marks	-7800
▁shuttle	-7801
▁surprised	-7802
▁meals	-7803
▁Dublin	-7804
▁choices	-7805
▁graphics	-7806
▁conferences	-7807
▁na	-7808
▁Det	-7809
▁passing	-7810
▁specialized	-7811
▁nut	-7812
▁1993	-7813
page	-7814
alities	-7815
▁purely	-7816
▁49	-7817
▁Land	-7818
▁guided	-7819
gi	-7820
▁upgrade	-7821
▁soil	-7822
▁blocks	-7823
▁compulsory	-7824
pection	-7825
▁casino	-7826
▁AND	-7827
▁prosec	-7828
▁defe	-7829
▁dollar	-7830
bed	-7831
▁Jean	-7832
oria	-7833
▁Life	-7834
▁blow	-7835
iem	-7836
istical	-7837
▁auf	-7838
ading	-7839
▁mort	-7840
▁Fundamental	-7841
▁Box	-7842
ursions	-7843
▁dispute	-7844
▁electron	-7845
▁mouth	-7846
▁Garden	-7847
▁Server	-7848
▁licens	-7849
▁operates	-7850
▁Far	-7851
▁sky	-7852
▁scan	-7853
▁airlines	-7854
▁capabilities	-7855
▁tab	-7856
▁Catal	-7857
▁macro	-7858
▁toward	-7859
ez	-7860
▁beer	-7861
▁integrate	-7862
▁Po	-7863
▁rely	-7864
▁Smoking	-7865
icity	-7866
▁MS	-7867
medi	-7868
omas	-7869
▁hect	-7870
▁Maria	-7871
▁Terms	-7872
▁190	-7873
▁Var	-7874
▁shift	-7875
▁95	-7876
▁Vers	-7877
mat	-7878
▁07	-7879
▁Sie	-7880
▁bonus	-7881
▁Nik	-7882
▁stories	-7883
▁OR	-7884
▁bearing	-7885
▁communicate	-7886
▁Obama	-7887
▁Prodi	-7888
inals	-7889
▁rough	-7890
▁classical	-7891
▁enthusi	-7892
▁permission	-7893
OW	-7894
▁flows	-7895
▁estimated	-7896
▁recognize	-7897
▁Jes	-7898
▁sufficiently	-7899
haus	-7900
▁subscrib	-7901
▁developers	-7902
▁Cup	-7903
▁cryst	-7904
▁Log	-7905
▁Mass	-7906
▁chairman	-7907
pload	-7908
ipt	-7909
▁aus	-7910
▁Sad	-7911
▁governing	-7912
cul	-7913
▁hopes	-7914
▁percentage	-7915
utor	-7916
▁indoor	-7917
▁villa	-7918
▁edited	-7919
▁Manager	-7920
▁Subject	-7921
▁extending	-7922
ello	-7923
▁medieval	-7924
▁initially	-7925
▁Kh	-7926
▁Ltd	-7927
▁meaningfully	-7928
▁shortly	-7929
▁exem	-7930
utical	-7931
▁manif	-7932
▁telecommun	-7933
TP	-7934
cht	-7935
▁Forum	-7936
▁Il	-7937
▁Que	-7938
isk	-7939
ibly	-7940
aution	-7941
▁stores	-7942
flow	-7943
▁Sen	-7944
▁cin	-7945
▁expense	-7946
▁clicking	-7947
▁NI	-7948
▁victory	-7949
▁promises	-7950
nish	-7951
▁seconds	-7952
▁studied	-7953
▁exhaust	-7954
▁schemes	-7955
▁stem	-7956
rem	-7957
▁thick	-7958
▁AM	-7959
▁ax	-7960
▁trig	-7961
▁overw	-7962
▁chief	-7963
▁Quality	-7964
▁abstain	-7965
rup	-7966
▁assigned	-7967
▁09	-7968
▁scheduled	-7969
▁Kyoto	-7970
▁audience	-7971
▁enforcement	-7972
▁Men	-7973
▁Select	-7974
▁99	-7975
▁flag	-7976
▁accompany	-7977
▁intelligent	-7978
▁rend	-7979
▁constitutes	-7980
▁Three	-7981
▁negotiation	-7982
▁relationships	-7983
▁falls	-7984
▁remed	-7985
▁Greens	-7986
▁implications	-7987
▁Pos	-7988
▁Games	-7989
▁acceler	-7990
▁eliminate	-7991
▁approaches	-7992
▁Mosc	-7993
▁Again	-7994
ennium	-7995
▁amended	-7996
▁household	-7997
▁contextually	-7998
ön	-7999
▁wed	-8000
▁flav	-8001
▁crises	-8002
▁grammatically	-8003
▁Ast	-8004
▁fest	-8005
▁envis	-8006
iqu	-8007
▁tourna	-8008
▁Bed	-8009
▁Franc	-8010
▁Jewish	-8011
▁satisfactory	-8012
▁operated	-8013
▁neighbours	-8014
EE	-8015
ben	-8016
▁shel	-8017
▁NL	-8018
▁resc	-8019
▁believed	-8020
▁Kong	-8021
▁enjoys	-8022
▁ingredients	-8023
▁44	-8024
▁Top	-8025
▁describe	-8026
ificial	-8027
▁65	-8028
▁Div	-8029
▁soul	-8030
▁Meeting	-8031
▁whereby	-8032
▁composition	-8033
▁medicines	-8034
,5	-8035
▁IMF	-8036
▁campaigns	-8037
▁Unt	-8038
▁Cuba	-8039
▁Win	-8040
adt	-8041
▁Ren	-8042
olo	-8043
▁taxi	-8044
▁survey	-8045
▁organise	-8046
▁USS	-8047
▁joining	-8048
▁Rich	-8049
▁ratification	-8050
ounter	-8051
▁chapter	-8052
▁urgency	-8053
eches	-8054
▁97	-8055
▁Skype	-8056
▁smart	-8057
▁bought	-8058
▁splendid	-8059
▁accounting	-8060
▁concentration	-8061
ship	-8062
▁violation	-8063
▁choos	-8064
▁obser	-8065
▁Wednes	-8066
▁Children	-8067
▁43	-8068
acht	-8069
▁gross	-8070
aceutical	-8071
▁frequency	-8072
▁08	-8073
▁habit	-8074
▁heads	-8075
▁mixed	-8076
▁infect	-8077
▁poorest	-8078
▁Employment	-8079
▁Somet	-8080
▁addressing	-8081
▁merg	-8082
▁empty	-8083
▁kill	-8084
▁Nav	-8085
▁Lim	-8086
▁Fisheries	-8087
▁remarkable	-8088
uct	-8089
▁fell	-8090
▁ju	-8091
▁Lam	-8092
▁boats	-8093
▁Master	-8094
stitutional	-8095
▁translated	-8096
life	-8097
eper	-8098
▁Tro	-8099
▁moder	-8100
▁Los	-8101
▁Hong	-8102
▁06	-8103
▁fifth	-8104
▁certified	-8105
▁conciliation	-8106
▁references	-8107
ulpt	-8108
▁headqu	-8109
▁gro	-8110
▁mel	-8111
▁lock	-8112
ropical	-8113
erts	-8114
▁Vict	-8115
igious	-8116
▁appointment	-8117
▁Make	-8118
reshold	-8119
▁incident	-8120
▁Test	-8121
▁maybe	-8122
▁insuff	-8123
▁newsletter	-8124
▁persist	-8125
gies	-8126
▁esc	-8127
▁ultimate	-8128
▁completion	-8129
apest	-8130
▁ownership	-8131
▁foundations	-8132
▁Ent	-8133
▁Slovakia	-8134
fa	-8135
iva	-8136
sen	-8137
▁191	-8138
▁Authority	-8139
▁attach	-8140
ett	-8141
▁deserves	-8142
▁theatre	-8143
▁navigation	-8144
▁ease	-8145
▁USD	-8146
▁timetable	-8147
▁observe	-8148
▁technique	-8149
iones	-8150
▁reass	-8151
▁enjoying	-8152
▁fascinating	-8153
▁AB	-8154
inery	-8155
reme	-8156
▁Bat	-8157
▁thumbnail	-8158
▁surprising	-8159
▁Florence	-8160
▁moreover	-8161
ivals	-8162
urement	-8163
▁Current	-8164
▁extract	-8165
▁dé	-8166
▁chat	-8167
▁David	-8168
▁Hostels	-8169
utt	-8170
▁wear	-8171
▁riding	-8172
▁upgrad	-8173
▁dictators	-8174
ito	-8175
▁Rh	-8176
▁Leban	-8177
▁broken	-8178
▁tariff	-8179
▁convert	-8180
▁debating	-8181
▁electrical	-8182
▁examination	-8183
▁legend	-8184
▁preferred	-8185
▁favourable	-8186
▁fewer	-8187
▁considerations	-8188
▁AS	-8189
▁secondly	-8190
▁portal	-8191
bur	-8192
▁mere	-8193
▁grass	-8194
▁incentives	-8195
▁96	-8196
▁mo	-8197
▁codecision	-8198
▁roots	-8199
MS	-8200
▁admit	-8201
▁persu	-8202
▁pools	-8203
▁1000	-8204
▁checked	-8205
▁Internal	-8206
▁hung	-8207
▁exposed	-8208
aga	-8209
▁Standard	-8210
▁productive	-8211
▁sorry	-8212
▁authors	-8213
▁Indones	-8214
▁reinforce	-8215
zza	-8216
cle	-8217
▁Viet	-8218
▁luck	-8219
▁symp	-8220
▁Zur	-8221
▁boasts	-8222
▁folder	-8223
▁genuinely	-8224
▁unnecessary	-8225
▁clock	-8226
▁Back	-8227
▁sizes	-8228
▁secondary	-8229
▁legitimacy	-8230
▁Word	-8231
▁Colle	-8232
ounds	-8233
▁Plaza	-8234
richt	-8235
▁coastal	-8236
▁split	-8237
▁journalists	-8238
▁tur	-8239
▁OS	-8240
▁Prem	-8241
▁info	-8242
arer	-8243
iration	-8244
▁foremost	-8245
▁1.5	-8246
▁yield	-8247
▁Together	-8248
▁threshold	-8249
odes	-8250
▁Ins	-8251
▁begun	-8252
condition	-8253
▁false	-8254
▁Engine	-8255
▁George	-8256
▁economically	-8257
ician	-8258
▁busy	-8259
▁trained	-8260
▁Wednesday	-8261
▁repeatedly	-8262
▁Nob	-8263
▁stip	-8264
alling	-8265
▁Salzburg	-8266
▁managers	-8267
▁guaranteeing	-8268
▁residential	-8269
▁speeches	-8270
▁representing	-8271
▁alter	-8272
▁arranged	-8273
▁wave	-8274
▁inadequate	-8275
▁neighbourhood	-8276
▁Small	-8277
uter	-8278
▁respects	-8279
da	-8280
▁instantly	-8281
▁Naz	-8282
▁invo	-8283
▁oppon	-8284
▁invent	-8285
▁compete	-8286
▁fost	-8287
▁MySQL	-8288
▁moments	-8289
▁Muslim	-8290
▁subsequently	-8291
uant	-8292
▁Modern	-8293
▁incomp	-8294
erly	-8295
▁biod	-8296
▁autumn	-8297
▁Similar	-8298
▁characteristic	-8299
oli	-8300
▁openness	-8301
▁Mel	-8302
▁suspect	-8303
▁cancellation	-8304
arged	-8305
▁marine	-8306
▁Academy	-8307
▁wife	-8308
▁Ministry	-8309
▁examined	-8310
do	-8311
▁Bosnia	-8312
▁Administ	-8313
▁swit	-8314
▁escape	-8315
▁branch	-8316
▁intentions	-8317
▁travellers	-8318
▁Alps	-8319
▁Morocco	-8320
stan	-8321
▁Road	-8322
ika	-8323
viously	-8324
▁informal	-8325
▁slopes	-8326
▁toilet	-8327
▁expenses	-8328
▁Several	-8329
▁optimal	-8330
▁underlying	-8331
▁AN	-8332
▁Opt	-8333
▁lively	-8334
▁dramatic	-8335
▁epis	-8336
▁Monte	-8337
▁importantly	-8338
90	-8339
▁faces	-8340
▁expanded	-8341
▁mig	-8342
▁1991	-8343
▁chart	-8344
UM	-8345
undry	-8346
▁Tus	-8347
▁seemed	-8348
▁experim	-8349
umes	-8350
▁Moscow	-8351
▁wing	-8352
▁diving	-8353
▁sample	-8354
▁actors	-8355
▁jointly	-8356
▁Apartments	-8357
▁Karl	-8358
▁textile	-8359
▁External	-8360
ati	-8361
olved	-8362
▁tragic	-8363
▁Chairman	-8364
institutional	-8365
min	-8366
uy	-8367
▁1970	-8368
las	-8369
acks	-8370
▁Flash	-8371
▁Process	-8372
▁Grow	-8373
AV	-8374
▁mur	-8375
▁bread	-8376
▁principal	-8377
ni	-8378
ker	-8379
▁spectrum	-8380
▁weakness	-8381
▁listening	-8382
▁plate	-8383
▁lect	-8384
▁vocational	-8385
24	-8386
acc	-8387
▁girls	-8388
▁sacr	-8389
soever	-8390
▁AV	-8391
▁Heads	-8392
▁reward	-8393
▁Holiday	-8394
ikes	-8395
arians	-8396
▁Airbus	-8397
▁jurisdiction	-8398
oric	-8399
▁Rob	-8400
▁insufficient	-8401
▁Live	-8402
▁ring	-8403
ictions	-8404
▁artificial	-8405
rators	-8406
▁Player	-8407
▁complaints	-8408
▁clarity	-8409
▁suggests	-8410
▁willingness	-8411
rig	-8412
ungs	-8413
▁scand	-8414
erto	-8415
▁900	-8416
▁Mand	-8417
▁convey	-8418
▁grat	-8419
▁staying	-8420
▁measurement	-8421
▁manufactured	-8422
▁certification	-8423
▁2.0	-8424
▁inspection	-8425
▁accessories	-8426
▁suited	-8427
▁steam	-8428
▁purchased	-8429
▁accordingly	-8430
▁GNU	-8431
hotel	-8432
▁featuring	-8433
▁devoted	-8434
▁disturb	-8435
endo	-8436
▁asset	-8437
ho	-8438
ubl	-8439
▁Taiwan	-8440
▁possess	-8441
▁calendar	-8442
▁excursions	-8443
▁destinations	-8444
▁ma	-8445
▁Tal	-8446
▁sweet	-8447
dule	-8448
akers	-8449
enery	-8450
urities	-8451
▁bigger	-8452
▁Single	-8453
▁pour	-8454
▁Tunis	-8455
▁terrible	-8456
▁Bi	-8457
raid	-8458
▁financed	-8459
pers	-8460
▁1989	-8461
▁forecast	-8462
▁occupation	-8463
▁continuously	-8464
erest	-8465
▁sunny	-8466
▁letters	-8467
▁preserved	-8468
▁compliment	-8469
▁Blue	-8470
▁cookies	-8471
ville	-8472
▁forgotten	-8473
▁simultaneously	-8474
ée	-8475
▁logic	-8476
▁Robert	-8477
▁aqu	-8478
▁transaction	-8479
OC	-8480
▁upload	-8481
▁Rail	-8482
▁tragedy	-8483
▁strike	-8484
▁Department	-8485
▁composed	-8486
▁motorway	-8487
▁05	-8488
▁jun	-8489
imedia	-8490
▁booked	-8491
▁Section	-8492
▁sessions	-8493
▁bot	-8494
▁array	-8495
oms	-8496
▁revised	-8497
▁Merc	-8498
▁regulated	-8499
▁dynam	-8500
▁rubber	-8501
▁accuracy	-8502
▁Rev	-8503
ained	-8504
▁Tool	-8505
▁icon	-8506
▁Video	-8507
▁Contact	-8508
▁baby	-8509
illance	-8510
eping	-8511
print	-8512
wa	-8513
▁adj	-8514
▁Fair	-8515
▁residents	-8516
▁unity	-8517
▁assert	-8518
inational	-8519
▁64	-8520
▁Clean	-8521
▁inner	-8522
▁Univers	-8523
64	-8524
oud	-8525
othes	-8526
▁oppose	-8527
▁Scot	-8528
▁Finnish	-8529
▁rebu	-8530
▁Staff	-8531
▁Palestinians	-8532
▁refused	-8533
▁publish	-8534
▁promoted	-8535
▁convenience	-8536
▁doubts	-8537
oni	-8538
rut	-8539
▁GU	-8540
▁conform	-8541
ouses	-8542
▁tang	-8543
▁Bav	-8544
▁vacc	-8545
▁afraid	-8546
▁deadline	-8547
▁specially	-8548
▁paths	-8549
▁desktop	-8550
▁sovereign	-8551
▁bout	-8552
▁Washing	-8553
▁Otherwise	-8554
▁gift	-8555
▁End	-8556
▁Polit	-8557
known	-8558
▁zero	-8559
▁modify	-8560
▁therapy	-8561
▁elev	-8562
▁whatsoever	-8563
arest	-8564
▁Sign	-8565
▁sculpt	-8566
AB	-8567
▁buses	-8568
▁recru	-8569
▁expressly	-8570
▁mechanical	-8571
▁mine	-8572
▁transitional	-8573
▁finds	-8574
▁affecting	-8575
▁Dou	-8576
annes	-8577
▁relief	-8578
▁conj	-8579
▁Sudan	-8580
▁ceiling	-8581
▁Personal	-8582
▁freight	-8583
▁intense	-8584
▁transfers	-8585
▁Mo	-8586
beit	-8587
▁Hans	-8588
▁Lear	-8589
OP	-8590
ilation	-8591
▁basically	-8592
▁photograp	-8593
rick	-8594
▁gear	-8595
▁parks	-8596
▁belongs	-8597
▁pharmaceutical	-8598
▁wal	-8599
asion	-8600
▁ethical	-8601
▁nobody	-8602
▁quantity	-8603
▁installations	-8604
▁Brand	-8605
▁commod	-8606
▁removal	-8607
▁stressed	-8608
TS	-8609
▁beef	-8610
▁wage	-8611
▁trouble	-8612
▁stead	-8613
plete	-8614
ferent	-8615
▁losing	-8616
▁perpet	-8617
▁cm	-8618
▁lakes	-8619
▁dimensions	-8620
ulates	-8621
▁delays	-8622
▁pace	-8623
▁integrity	-8624
▁arrangement	-8625
ighter	-8626
▁bicyc	-8627
rally	-8628
▁Sport	-8629
▁ideally	-8630
▁landscap	-8631
rack	-8632
▁sake	-8633
▁exhibitions	-8634
aser	-8635
emed	-8636
▁focuses	-8637
▁Tele	-8638
▁observation	-8639
well	-8640
▁manip	-8641
erce	-8642
iera	-8643
▁plain	-8644
▁funded	-8645
▁collapse	-8646
▁electoral	-8647
arsh	-8648
▁declare	-8649
▁fo	-8650
▁logical	-8651
▁behavior	-8652
▁granting	-8653
▁Jul	-8654
▁Moz	-8655
▁stopped	-8656
▁constructed	-8657
▁hun	-8658
▁Pacific	-8659
▁keys	-8660
▁Suite	-8661
erb	-8662
▁refuse	-8663
▁Area	-8664
▁advise	-8665
▁healthcare	-8666
▁Storage	-8667
▁renewed	-8668
▁profound	-8669
ogen	-8670
▁James	-8671
▁Gentoo	-8672
▁falling	-8673
▁Les	-8674
▁catalogue	-8675
▁bay	-8676
▁Show	-8677
▁buying	-8678
▁broader	-8679
uj	-8680
▁viney	-8681
▁proxim	-8682
▁Youth	-8683
▁cameras	-8684
▁variable	-8685
lich	-8686
▁Nov	-8687
GB	-8688
▁turns	-8689
rator	-8690
▁Light	-8691
▁painting	-8692
▁pensions	-8693
ipher	-8694
▁Maced	-8695
▁cancel	-8696
▁governmental	-8697
▁Gaza	-8698
urches	-8699
▁encry	-8700
▁poker	-8701
asse	-8702
▁visits	-8703
▁correspond	-8704
▁certificate	-8705
▁Jer	-8706
▁automotive	-8707
▁knew	-8708
▁sailing	-8709
▁publishing	-8710
▁SL	-8711
▁Late	-8712
▁gate	-8713
▁brands	-8714
▁deserve	-8715
▁soldiers	-8716
▁precision	-8717
▁distinction	-8718
▁alternatives	-8719
▁violent	-8720
▁beneficial	-8721
udes	-8722
▁Studio	-8723
▁duration	-8724
▁Representative	-8725
▁irre	-8726
holm	-8727
enz	-8728
sole	-8729
▁Full	-8730
▁monuments	-8731
▁Lo	-8732
▁elig	-8733
▁Da	-8734
▁Mü	-8735
archers	-8736
▁transit	-8737
▁cha	-8738
▁beat	-8739
▁Budapest	-8740
▁identification	-8741
▁Ide	-8742
ando	-8743
▁41	-8744
▁whenever	-8745
▁achievements	-8746
▁logo	-8747
▁Angel	-8748
▁postal	-8749
▁Society	-8750
irts	-8751
▁Mobile	-8752
▁preparations	-8753
▁amending	-8754
▁pressing	-8755
irs	-8756
opard	-8757
▁noon	-8758
▁precious	-8759
▁debated	-8760
▁undertake	-8761
▁Made	-8762
▁twin	-8763
▁segment	-8764
▁researchers	-8765
▁Marina	-8766
▁Search	-8767
▁conversion	-8768
▁officially	-8769
▁Bab	-8770
▁Washington	-8771
athy	-8772
raction	-8773
▁unb	-8774
tains	-8775
▁Space	-8776
▁fores	-8777
▁loans	-8778
▁cancelled	-8779
ropol	-8780
ologne	-8781
position	-8782
▁recover	-8783
▁explicitly	-8784
▁territories	-8785
EA	-8786
▁ineff	-8787
▁Charles	-8788
▁prestigious	-8789
▁machinery	-8790
▁Place	-8791
▁constra	-8792
▁arts	-8793
▁crow	-8794
▁schedule	-8795
amin	-8796
ourse	-8797
▁Citiz	-8798
itionally	-8799
▁Presidents	-8800
▁focusing	-8801
▁surveillance	-8802
▁vic	-8803
orate	-8804
orses	-8805
▁Mold	-8806
▁gast	-8807
▁spell	-8808
▁Growth	-8809
▁virus	-8810
▁signals	-8811
▁greenhouse	-8812
▁lod	-8813
▁newspaper	-8814
▁suspended	-8815
▁MA	-8816
▁Pia	-8817
▁tower	-8818
▁reflection	-8819
een	-8820
▁Joint	-8821
▁extrem	-8822
ady	-8823
gart	-8824
▁affordable	-8825
OF	-8826
▁lingu	-8827
▁relaxed	-8828
▁deterior	-8829
▁prevented	-8830
▁Regard	-8831
▁unre	-8832
▁trains	-8833
▁Cologne	-8834
▁Maast	-8835
▁Milan	-8836
▁concerts	-8837
▁necessity	-8838
▁perce	-8839
▁sandy	-8840
▁releases	-8841
▁stops	-8842
▁DA	-8843
▁Cre	-8844
▁ham	-8845
▁ignore	-8846
▁negotiated	-8847
▁populations	-8848
hre	-8849
▁Left	-8850
▁privat	-8851
▁civilian	-8852
▁employers	-8853
▁multinational	-8854
▁Maastricht	-8855
▁strip	-8856
atlantic	-8857
32	-8858
▁Bure	-8859
▁templ	-8860
▁unusual	-8861
▁Zurich	-8862
▁Location	-8863
▁Hostelsclub	-8864
▁thanking	-8865
pm	-8866
▁delete	-8867
▁wars	-8868
▁presidential	-8869
▁gym	-8870
▁adjustment	-8871
▁Contin	-8872
▁mental	-8873
▁centers	-8874
▁Sar	-8875
▁posts	-8876
▁FA	-8877
▁sharp	-8878
▁Digital	-8879
urable	-8880
otechn	-8881
▁attended	-8882
▁frequent	-8883
▁Dal	-8884
▁Point	-8885
▁winner	-8886
▁logistics	-8887
▁Az	-8888
▁Press	-8889
▁Olympic	-8890
▁conservation	-8891
elve	-8892
▁lets	-8893
▁taxpayers	-8894
front	-8895
eness	-8896
▁Opera	-8897
▁ruling	-8898
▁ratified	-8899
▁drives	-8900
▁Prize	-8901
▁certainty	-8902
ester	-8903
▁Ca	-8904
▁Tam	-8905
▁flying	-8906
▁organize	-8907
IDS	-8908
▁publications	-8909
▁architectural	-8910
▁SV	-8911
elle	-8912
▁Near	-8913
▁trace	-8914
▁confident	-8915
▁typically	-8916
▁favourite	-8917
▁indicators	-8918
CC	-8919
auer	-8920
▁Sony	-8921
jud	-8922
▁supplementary	-8923
▁spare	-8924
▁treas	-8925
▁catalog	-8926
▁threatened	-8927
▁photographs	-8928
▁Rural	-8929
arf	-8930
▁persec	-8931
▁nationals	-8932
pectives	-8933
izer	-8934
▁orientation	-8935
▁Lic	-8936
▁fails	-8937
▁revealed	-8938
▁Conserv	-8939
▁Liberal	-8940
▁academic	-8941
▁47	-8942
▁tip	-8943
▁environ	-8944
▁feedback	-8945
▁hesitate	-8946
▁Os	-8947
iana	-8948
unte	-8949
▁chose	-8950
▁realize	-8951
▁interactive	-8952
▁tough	-8953
▁replacement	-8954
▁uncertainty	-8955
▁imported	-8956
▁comprises	-8957
▁Vir	-8958
▁farms	-8959
▁stayed	-8960
▁Southern	-8961
▁commerce	-8962
ey	-8963
▁Ice	-8964
▁Partnership	-8965
▁Wolf	-8966
▁Until	-8967
▁acquisition	-8968
▁signing	-8969
▁advertise	-8970
▁privileged	-8971
▁purchasing	-8972
str	-8973
icted	-8974
▁unknown	-8975
▁46	-8976
▁um	-8977
▁Ess	-8978
▁Iron	-8979
▁Website	-8980
▁inject	-8981
▁Europol	-8982
▁Thomas	-8983
▁mandatory	-8984
▁overwhel	-8985
▁evolution	-8986
▁Ken	-8987
▁silver	-8988
tel	-8989
▁Spr	-8990
oning	-8991
▁airline	-8992
▁citizenship	-8993
▁confront	-8994
▁mistakes	-8995
▁contractual	-8996
▁List	-8997
▁substit	-8998
▁disappear	-8999
▁negotiate	-9000
▁demonstrates	-9001
▁Leon	-9002
▁hospital	-9003
itter	-9004
▁Berg	-9005
▁Mach	-9006
▁bureaucracy	-9007
▁evaluate	-9008
▁Nic	-9009
▁alike	-9010
▁illness	-9011
▁BSE	-9012
gments	-9013
rection	-9014
▁justify	-9015
▁moves	-9016
▁Hour	-9017
▁Langu	-9018
▁cockt	-9019
▁chemicals	-9020
pie	-9021
▁Innov	-9022
▁Jack	-9023
▁manifest	-9024
▁UR	-9025
▁Sem	-9026
▁patents	-9027
▁innovations	-9028
▁Ru	-9029
▁hydro	-9030
othe	-9031
▁Quark	-9032
▁occurs	-9033
▁convers	-9034
▁emerged	-9035
▁harbour	-9036
▁worrying	-9037
▁notably	-9038
OD	-9039
▁movies	-9040
ación	-9041
▁literature	-9042
▁Ash	-9043
▁breach	-9044
▁archive	-9045
▁deaths	-9046
▁generous	-9047
▁notified	-9048
▁consistently	-9049
▁IB	-9050
▁phones	-9051
▁indicates	-9052
▁CN	-9053
▁Pen	-9054
▁patterns	-9055
▁Object	-9056
▁EX	-9057
▁applicant	-9058
▁camps	-9059
▁joy	-9060
▁teach	-9061
▁creature	-9062
lock	-9063
▁intervene	-9064
▁Conditions	-9065
▁Adobe	-9066
▁exempt	-9067
zes	-9068
umed	-9069
order	-9070
▁Tick	-9071
▁Deposit	-9072
▁heavily	-9073
▁unanimously	-9074
▁dual	-9075
▁fert	-9076
▁reloc	-9077
▁allocation	-9078
▁conventions	-9079
▁displays	-9080
▁downloaded	-9081
▁Series	-9082
lem	-9083
▁tonnes	-9084
▁Camb	-9085
▁rating	-9086
▁Freedom	-9087
▁drinking	-9088
▁measuring	-9089
▁wherever	-9090
▁partition	-9091
▁52	-9092
▁authentic	-9093
▁Zimb	-9094
▁Canon	-9095
▁Bureau	-9096
▁claimed	-9097
▁clothing	-9098
▁coordinate	-9099
▁contributing	-9100
urf	-9101
▁Major	-9102
▁withdrawal	-9103
▁council	-9104
▁surpl	-9105
▁closing	-9106
▁specify	-9107
▁Ec	-9108
▁180	-9109
▁accum	-9110
▁Investment	-9111
▁Vo	-9112
▁senior	-9113
▁qualifications	-9114
▁premises	-9115
akh	-9116
▁Burma	-9117
uania	-9118
▁alumin	-9119
▁IV	-9120
▁competences	-9121
▁Putin	-9122
▁leather	-9123
▁churches	-9124
abwe	-9125
▁pup	-9126
ungen	-9127
▁initiated	-9128
▁Install	-9129
▁cooking	-9130
▁proximity	-9131
▁apparently	-9132
▁Lithuania	-9133
▁ER	-9134
▁Copy	-9135
▁lovers	-9136
▁horizont	-9137
▁egg	-9138
▁assurance	-9139
▁keen	-9140
▁placing	-9141
via	-9142
agon	-9143
▁strange	-9144
▁Slovenia	-9145
▁performing	-9146
▁Adri	-9147
▁systematic	-9148
▁argue	-9149
▁victim	-9150
▁returns	-9151
▁credible	-9152
▁AIDS	-9153
▁Tues	-9154
▁column	-9155
▁Zimbabwe	-9156
▁judgment	-9157
▁procurement	-9158
hard	-9159
▁experiencing	-9160
▁shot	-9161
▁catering	-9162
▁converted	-9163
cho	-9164
▁murder	-9165
▁minimal	-9166
anes	-9167
▁ratio	-9168
▁trail	-9169
▁receipt	-9170
ritten	-9171
▁defic	-9172
▁Yugoslavia	-9173
CE	-9174
hone	-9175
▁pays	-9176
▁Beaut	-9177
regular	-9178
▁caught	-9179
▁elderly	-9180
liminary	-9181
▁recession	-9182
resses	-9183
▁timely	-9184
▁eurozone	-9185
▁Ib	-9186
connect	-9187
▁visitor	-9188
▁Compet	-9189
▁favorite	-9190
▁Cross	-9191
CH	-9192
▁hero	-9193
▁deficits	-9194
▁Jun	-9195
▁slowly	-9196
jan	-9197
matic	-9198
rooms	-9199
▁unst	-9200
▁wise	-9201
▁tropical	-9202
UT	-9203
encia	-9204
estyle	-9205
▁heated	-9206
▁handed	-9207
▁occupied	-9208
▁semi	-9209
▁imbal	-9210
▁formation	-9211
▁Hen	-9212
▁Malta	-9213
▁assured	-9214
▁arbitrary	-9215
▁fitted	-9216
▁warmly	-9217
▁contest	-9218
▁creativity	-9219
ede	-9220
▁copies	-9221
iox	-9222
▁answered	-9223
▁imposing	-9224
▁biodiversity	-9225
▁headquarters	-9226
ords	-9227
▁Son	-9228
▁CR	-9229
fall	-9230
▁Fried	-9231
▁robust	-9232
▁humanity	-9233
uzzi	-9234
▁160	-9235
▁avo	-9236
▁Excell	-9237
▁intelligence	-9238
▁zones	-9239
▁tram	-9240
▁Everything	-9241
▁potentially	-9242
HO	-9243
▁DS	-9244
▁keeps	-9245
▁agrees	-9246
▁terrorists	-9247
▁girl	-9248
▁85	-9249
▁IG	-9250
▁Choose	-9251
▁ox	-9252
▁magic	-9253
▁pursuant	-9254
ye	-9255
▁sentence	-9256
▁ric	-9257
▁redund	-9258
how	-9259
▁Budd	-9260
▁workshops	-9261
15	-9262
▁stance	-9263
▁pursued	-9264
▁silence	-9265
orrect	-9266
▁Solid	-9267
▁accommodate	-9268
wer	-9269
▁bench	-9270
▁flash	-9271
▁Explore	-9272
▁specialities	-9273
▁Mas	-9274
▁Upd	-9275
▁2012	-9276
▁Elev	-9277
▁Syria	-9278
▁Lie	-9279
▁hole	-9280
▁Sav	-9281
▁emp	-9282
▁dupl	-9283
▁mirror	-9284
▁Bang	-9285
▁Wars	-9286
▁refurb	-9287
▁integral	-9288
play	-9289
▁degrees	-9290
▁disputes	-9291
▁exposure	-9292
rell	-9293
▁irregular	-9294
▁scrut	-9295
▁lighting	-9296
▁brain	-9297
▁handled	-9298
▁Democratic	-9299
▁Which	-9300
▁Scotland	-9301
▁designer	-9302
▁findings	-9303
rob	-9304
ardo	-9305
▁Citizens	-9306
▁convince	-9307
▁Experience	-9308
▁respectively	-9309
ibb	-9310
ifts	-9311
▁diet	-9312
▁score	-9313
▁workshop	-9314
▁Communist	-9315
▁perspectives	-9316
▁depr	-9317
▁structured	-9318
▁impr	-9319
▁laser	-9320
▁makers	-9321
aled	-9322
ilingual	-9323
▁progressive	-9324
stone	-9325
▁Calif	-9326
▁suggestion	-9327
▁specifications	-9328
▁ambition	-9329
▁terminal	-9330
ooms	-9331
▁Argentina	-9332
▁temperatures	-9333
▁ON	-9334
▁expanding	-9335
umps	-9336
▁Science	-9337
▁unemployed	-9338
▁700	-9339
▁Kurd	-9340
▁Turn	-9341
▁detrim	-9342
▁Iranian	-9343
▁Obviously	-9344
▁LE	-9345
▁trem	-9346
▁Empire	-9347
▁essence	-9348
▁colonial	-9349
▁emphasised	-9350
▁practically	-9351
▁Sound	-9352
▁stays	-9353
htaking	-9354
▁neutral	-9355
asis	-9356
ctor	-9357
▁Prom	-9358
aya	-9359
▁haird	-9360
▁paradise	-9361
▁platforms	-9362
aux	-9363
▁Apple	-9364
▁treaties	-9365
uber	-9366
propri	-9367
▁pedest	-9368
▁Stockholm	-9369
ads	-9370
redit	-9371
▁embed	-9372
▁advent	-9373
▁chocol	-9374
▁doctor	-9375
▁viable	-9376
▁2.5	-9377
▁Right	-9378
▁blame	-9379
enez	-9380
▁Mem	-9381
▁Rou	-9382
▁lowest	-9383
▁defining	-9384
▁Rap	-9385
ATION	-9386
▁fundament	-9387
seeing	-9388
▁solved	-9389
▁College	-9390
▁inclusive	-9391
ml	-9392
▁BMW	-9393
▁Order	-9394
▁coverage	-9395
▁desirable	-9396
▁cer	-9397
▁Andre	-9398
▁ultra	-9399
limited	-9400
▁Consult	-9401
▁Decl	-9402
▁explos	-9403
▁emission	-9404
▁biological	-9405
PR	-9406
▁controversial	-9407
unes	-9408
▁tub	-9409
▁terra	-9410
86	-9411
▁edit	-9412
▁stroll	-9413
ionship	-9414
▁contam	-9415
▁enlarged	-9416
▁Ur	-9417
▁Visit	-9418
rium	-9419
▁Nordic	-9420
▁explains	-9421
▁comparable	-9422
▁Der	-9423
▁thin	-9424
▁receives	-9425
▁describes	-9426
NA	-9427
▁Kal	-9428
▁male	-9429
▁tank	-9430
aration	-9431
▁performances	-9432
án	-9433
▁Adv	-9434
▁talked	-9435
▁directions	-9436
hl	-9437
▁salt	-9438
MA	-9439
mony	-9440
ailed	-9441
▁chairs	-9442
▁hazard	-9443
▁Account	-9444
▁Californ	-9445
▁meantime	-9446
agn	-9447
rome	-9448
chron	-9449
▁Alexander	-9450
▁harmony	-9451
bles	-9452
▁Stra	-9453
▁Alt	-9454
▁Nep	-9455
▁Peace	-9456
▁papers	-9457
▁disagree	-9458
SCO	-9459
▁crops	-9460
▁viewed	-9461
▁choosing	-9462
erge	-9463
▁spr	-9464
▁surg	-9465
▁Defence	-9466
▁graphic	-9467
orca	-9468
▁erad	-9469
▁Golden	-9470
▁unions	-9471
▁entries	-9472
▁develops	-9473
UL	-9474
PC	-9475
▁sees	-9476
▁shaped	-9477
▁Parliamentary	-9478
▁dating	-9479
▁worthy	-9480
▁preliminary	-9481
▁undermine	-9482
▁tor	-9483
▁tips	-9484
▁Additionally	-9485
▁theore	-9486
▁enchant	-9487
▁breathtaking	-9488
▁settled	-9489
▁appreciated	-9490
ente	-9491
▁1960	-9492
▁voters	-9493
▁consequently	-9494
itra	-9495
akings	-9496
▁cease	-9497
▁dollars	-9498
▁thoroughly	-9499
▁Kirk	-9500
▁swift	-9501
▁Hostel	-9502
▁Socialists	-9503
▁si	-9504
▁isn	-9505
▁wake	-9506
▁scenery	-9507
▁Similarly	-9508
ANT	-9509
ocket	-9510
proof	-9511
▁avoided	-9512
▁regulate	-9513
▁signature	-9514
ophob	-9515
▁ending	-9516
▁retire	-9517
▁acquire	-9518
▁Mall	-9519
▁murd	-9520
▁desert	-9521
▁experiment	-9522
inos	-9523
▁cot	-9524
IX	-9525
▁marquis	-9526
▁TR	-9527
iche	-9528
▁ware	-9529
▁tempt	-9530
▁Cathedral	-9531
BS	-9532
▁McC	-9533
▁controlling	-9534
▁transformation	-9535
▁cosmet	-9536
▁incorrect	-9537
▁substantially	-9538
cker	-9539
▁Tuesday	-9540
▁partnerships	-9541
mo	-9542
▁Puerto	-9543
▁downtown	-9544
▁setup	-9545
▁tox	-9546
▁brut	-9547
▁Elevator	-9548
▁expressing	-9549
▁feas	-9550
▁cheese	-9551
▁photography	-9552
▁declarations	-9553
▁disappointed	-9554
▁SAP	-9555
▁devast	-9556
kl	-9557
▁IF	-9558
pled	-9559
field	-9560
▁tribute	-9561
▁executed	-9562
ila	-9563
▁Certain	-9564
▁teacher	-9565
uz	-9566
▁Along	-9567
▁exchanges	-9568
▁nonetheless	-9569
▁torture	-9570
▁Ult	-9571
stuff	-9572
▁posted	-9573
▁licence	-9574
▁screens	-9575
amps	-9576
▁rect	-9577
▁neglect	-9578
iki	-9579
▁NOT	-9580
▁fib	-9581
▁pine	-9582
orable	-9583
▁Iraqi	-9584
▁finest	-9585
▁rivers	-9586
▁crystal	-9587
▁Eff	-9588
▁Mur	-9589
▁Cath	-9590
▁tailored	-9591
▁spiritual	-9592
gor	-9593
▁maps	-9594
apping	-9595
▁Hence	-9596
▁raises	-9597
▁drafting	-9598
▁measured	-9599
▁undertakings	-9600
ami	-9601
▁Heating	-9602
▁maxim	-9603
▁Lebanon	-9604
▁battery	-9605
▁damaged	-9606
▁bureaucratic	-9607
ican	-9608
▁statistical	-9609
25	-9610
▁acknowledged	-9611
▁jew	-9612
▁Hand	-9613
▁capture	-9614
▁admitted	-9615
▁confusion	-9616
▁54	-9617
▁Scott	-9618
▁Instru	-9619
▁Labour	-9620
▁catast	-9621
▁tempor	-9622
▁sporting	-9623
▁Beij	-9624
▁Big	-9625
▁belonging	-9626
..	-9627
▁sq	-9628
▁birds	-9629
▁prede	-9630
▁Luggage	-9631
▁automation	-9632
EX	-9633
ás	-9634
▁Gi	-9635
▁Pap	-9636
▁incredible	-9637
▁isolated	-9638
▁GB	-9639
▁celebrate	-9640
▁parameter	-9641
▁merc	-9642
▁formula	-9643
▁pod	-9644
▁Creat	-9645
▁fought	-9646
▁derived	-9647
▁pm	-9648
▁189	-9649
▁Image	-9650
▁engineers	-9651
▁paintings	-9652
▁finances	-9653
▁intermedi	-9654
▁dust	-9655
▁agent	-9656
▁predict	-9657
yan	-9658
▁Easy	-9659
▁guitar	-9660
▁CON	-9661
venth	-9662
▁exert	-9663
itored	-9664
▁peripher	-9665
pa	-9666
iverse	-9667
▁Everyone	-9668
▁prohibited	-9669
atis	-9670
apped	-9671
▁HTML	-9672
▁resid	-9673
chestra	-9674
▁Beijing	-9675
▁jeopard	-9676
▁fulfilled	-9677
bu	-9678
▁themes	-9679
▁cup	-9680
▁Adriatic	-9681
▁Macedonia	-9682
▁regrettable	-9683
▁abund	-9684
▁borrow	-9685
nen	-9686
nings	-9687
ancell	-9688
▁assemb	-9689
▁dumping	-9690
▁encounter	-9691
▁hoped	-9692
ancies	-9693
▁fears	-9694
▁winds	-9695
▁lesson	-9696
▁neglig	-9697
▁volunte	-9698
▁watching	-9699
unately	-9700
▁hel	-9701
▁pact	-9702
comings	-9703
▁demographic	-9704
oft	-9705
adium	-9706
▁bid	-9707
▁piano	-9708
▁MB	-9709
▁FOR	-9710
▁Venez	-9711
▁tells	-9712
▁ignored	-9713
▁incur	-9714
▁circuit	-9715
▁Discover	-9716
osa	-9717
▁Gulf	-9718
atively	-9719
▁founding	-9720
▁environments	-9721
▁warming	-9722
▁monitored	-9723
▁scandal	-9724
▁Budgetary	-9725
▁downloading	-9726
▁imperial	-9727
oven	-9728
▁condemned	-9729
▁discipline	-9730
TR	-9731
▁wages	-9732
▁racism	-9733
75	-9734
▁Apartment	-9735
▁shortcomings	-9736
iser	-9737
▁genet	-9738
▁prere	-9739
▁socio	-9740
▁Palestine	-9741
isms	-9742
▁Game	-9743
▁hier	-9744
ders	-9745
▁Ger	-9746
▁shame	-9747
abe	-9748
▁outset	-9749
▁thread	-9750
▁compare	-9751
▁fate	-9752
▁genetic	-9753
▁branches	-9754
▁unfortun	-9755
▁sensor	-9756
▁bare	-9757
▁notion	-9758
▁yellow	-9759
SA	-9760
▁Know	-9761
▁seaf	-9762
19	-9763
bach	-9764
▁unpre	-9765
▁History	-9766
▁optical	-9767
▁inquiry	-9768
▁Edition	-9769
▁tolerance	-9770
▁challenging	-9771
▁complexity	-9772
▁accepts	-9773
▁coordin	-9774
▁publicly	-9775
break	-9776
▁foods	-9777
▁width	-9778
▁League	-9779
▁multimedia	-9780
▁characterized	-9781
uest	-9782
▁autonomy	-9783
▁governed	-9784
▁automated	-9785
weg	-9786
itudes	-9787
ugg	-9788
▁Hamas	-9789
▁SU	-9790
▁Eur	-9791
ät	-9792
tein	-9793
▁rejection	-9794
▁incorporate	-9795
PL	-9796
osc	-9797
▁Long	-9798
▁Orig	-9799
▁gal	-9800
▁mixt	-9801
▁fallen	-9802
▁incentive	-9803
▁codes	-9804
▁searching	-9805
▁California	-9806
yers	-9807
▁subsidiary	-9808
▁kids	-9809
▁thoughts	-9810
aked	-9811
▁Ban	-9812
▁equity	-9813
ventions	-9814
▁Albania	-9815
▁Clearly	-9816
▁pione	-9817
▁characterised	-9818
▁spots	-9819
leet	-9820
pling	-9821
▁garage	-9822
▁taught	-9823
▁clim	-9824
▁53	-9825
opter	-9826
▁guidance	-9827
▁separately	-9828
▁unfortunate	-9829
▁broch	-9830
▁flowers	-9831
▁infringement	-9832
üss	-9833
▁Chap	-9834
▁realized	-9835
▁conjunction	-9836
▁transatlantic	-9837
▁login	-9838
▁departments	-9839
anger	-9840
▁pig	-9841
▁adverse	-9842
▁seminars	-9843
▁simplify	-9844
▁invitation	-9845
▁Dolom	-9846
▁defects	-9847
▁Ve	-9848
itting	-9849
mentation	-9850
▁abandoned	-9851
▁Michel	-9852
▁drafted	-9853
▁delicate	-9854
▁survival	-9855
▁Nonetheless	-9856
▁Wal	-9857
▁editing	-9858
▁Industrial	-9859
▁exceptions	-9860
▁schol	-9861
▁plural	-9862
▁styles	-9863
▁tut	-9864
▁reper	-9865
▁wording	-9866
▁Wil	-9867
erne	-9868
▁Silver	-9869
▁lacking	-9870
▁checking	-9871
▁centrally	-9872
emic	-9873
▁reduces	-9874
insula	-9875
▁Norway	-9876
▁Vietnam	-9877
▁penalties	-9878
▁circle	-9879
▁survive	-9880
▁horizontal	-9881
tr	-9882
LAF	-9883
▁Hard	-9884
▁quota	-9885
▁grants	-9886
▁reverse	-9887
▁Ram	-9888
▁fuels	-9889
▁Francis	-9890
▁returning	-9891
▁Training	-9892
▁optional	-9893
▁Technical	-9894
▁vegetables	-9895
▁Sah	-9896
▁Captain	-9897
▁celebrated	-9898
▁gat	-9899
ricts	-9900
▁emerge	-9901
▁transmit	-9902
▁Kr	-9903
▁Declaration	-9904
▁translations	-9905
NG	-9906
▁Mean	-9907
▁prominent	-9908
vy	-9909
▁rede	-9910
ailand	-9911
▁diox	-9912
▁Tyrol	-9913
igenous	-9914
▁iPhone	-9915
▁trails	-9916
▁outs	-9917
▁tact	-9918
igu	-9919
▁Riv	-9920
▁propag	-9921
▁reprodu	-9922
▁Sometimes	-9923
▁indication	-9924
iably	-9925
▁sheets	-9926
▁adjusted	-9927
▁accepting	-9928
▁officer	-9929
mense	-9930
▁tape	-9931
▁guides	-9932
▁tap	-9933
atile	-9934
retion	-9935
▁striking	-9936
▁Naturally	-9937
▁Currently	-9938
▁Radio	-9939
▁tremend	-9940
emble	-9941
▁golden	-9942
▁respecting	-9943
stadt	-9944
▁hire	-9945
▁Chile	-9946
▁continually	-9947
▁Professional	-9948
▁reiterate	-9949
▁landscapes	-9950
▁anx	-9951
▁ram	-9952
▁crossing	-9953
iev	-9954
▁Ta	-9955
▁Pop	-9956
▁Allow	-9957
▁Anton	-9958
▁finger	-9959
▁loyal	-9960
▁upcoming	-9961
▁endeavour	-9962
▁Eth	-9963
▁encount	-9964
▁undertaking	-9965
▁simplification	-9966
CP	-9967
▁Li	-9968
▁coinc	-9969
▁Content	-9970
▁regimes	-9971
▁Come	-9972
▁unequ	-9973
▁interaction	-9974
ESS	-9975
▁Norm	-9976
▁Integ	-9977
▁boxes	-9978
▁frank	-9979
▁telling	-9980
iferation	-9981
struct	-9982
▁mining	-9983
▁calculated	-9984
▁imprison	-9985
▁chocolate	-9986
iasm	-9987
▁ensured	-9988
▁UNE	-9989
alia	-9990
▁modes	-9991
ifiable	-9992
▁reductions	-9993
▁feels	-9994
▁Indonesia	-9995
▁shareholders	-9996
ois	-9997
▁separated	-9998
▁preferences	-9999
zig	-10000
ocent	-10001
▁hide	-10002
▁tension	-10003
▁fro	-10004
liness	-10005
▁immense	-10006
▁Above	-10007
▁dominated	-10008
▁underline	-10009
▁Tri	-10010
asting	-10011
▁derog	-10012
▁circulation	-10013
BC	-10014
yal	-10015
▁minds	-10016
▁quantities	-10017
▁conveniently	-10018
▁PS	-10019
tage	-10020
▁myth	-10021
▁denied	-10022
▁sensit	-10023
▁doctors	-10024
▁Tel	-10025
▁motions	-10026
▁Thailand	-10027
▁defending	-10028
▁consistency	-10029
▁participated	-10030
▁SA	-10031
▁pix	-10032
▁aest	-10033
är	-10034
▁Mail	-10035
▁evil	-10036
oa	-10037
▁Aqu	-10038
▁Line	-10039
▁weapon	-10040
▁listened	-10041
▁responses	-10042
▁solo	-10043
▁boards	-10044
▁lights	-10045
▁exploring	-10046
▁identical	-10047
uum	-10048
▁pa	-10049
▁stood	-10050
▁deleted	-10051
▁missions	-10052
▁combining	-10053
▁recycling	-10054
arked	-10055
isons	-10056
oler	-10057
▁pin	-10058
▁interim	-10059
izz	-10060
issance	-10061
▁assumed	-10062
▁monthly	-10063
▁Friendly	-10064
idad	-10065
▁Alg	-10066
▁badly	-10067
▁loved	-10068
TC	-10069
Rooms	-10070
▁Stutt	-10071
▁investigate	-10072
▁god	-10073
▁cens	-10074
▁sustained	-10075
ductive	-10076
ultural	-10077
▁Danube	-10078
▁culinary	-10079
▁EF	-10080
▁hosts	-10081
▁walks	-10082
▁concentrated	-10083
ski	-10084
▁rand	-10085
▁linguistic	-10086
▁bow	-10087
▁About	-10088
▁enemy	-10089
▁Organization	-10090
▁Mi	-10091
etus	-10092
▁Six	-10093
▁resorts	-10094
▁analyses	-10095
200	-10096
▁XP	-10097
▁pull	-10098
lessly	-10099
▁requiring	-10100
▁specialised	-10101
rix	-10102
▁gest	-10103
▁della	-10104
▁charter	-10105
OV	-10106
iza	-10107
works	-10108
▁Comb	-10109
▁Exhib	-10110
▁Region	-10111
▁commend	-10112
▁DC	-10113
▁ocean	-10114
▁optimum	-10115
▁consisting	-10116
▁tiss	-10117
▁Rio	-10118
▁overwhelming	-10119
▁bases	-10120
▁banned	-10121
▁vicinity	-10122
▁transformed	-10123
hne	-10124
hand	-10125
▁Bug	-10126
▁Walk	-10127
▁Louis	-10128
▁Spring	-10129
raf	-10130
▁pled	-10131
▁prejud	-10132
▁enthusiasm	-10133
faces	-10134
racies	-10135
▁alliance	-10136
▁newspapers	-10137
▁announcement	-10138
pin	-10139
▁unlimited	-10140
▁permanently	-10141
burgh	-10142
▁brows	-10143
▁Reform	-10144
alys	-10145
▁Roc	-10146
▁weekly	-10147
▁officers	-10148
▁unstable	-10149
▁Client	-10150
▁commonly	-10151
▁tackling	-10152
▁connecting	-10153
▁SW	-10154
▁Cert	-10155
▁handic	-10156
▁cheaper	-10157
▁filling	-10158
list	-10159
oque	-10160
idity	-10161
ische	-10162
▁dish	-10163
▁Alpine	-10164
▁HU	-10165
▁1.2	-10166
▁isolation	-10167
▁forb	-10168
▁discovery	-10169
▁Film	-10170
isse	-10171
▁pron	-10172
▁Coast	-10173
▁minib	-10174
▁modest	-10175
isen	-10176
▁booth	-10177
▁enfor	-10178
▁refined	-10179
▁warranty	-10180
▁districts	-10181
▁adaptation	-10182
▁trademarks	-10183
35	-10184
▁cig	-10185
ustain	-10186
▁cargo	-10187
vi	-10188
▁56	-10189
enger	-10190
herent	-10191
▁marvel	-10192
▁accused	-10193
LO	-10194
TER	-10195
▁EMU	-10196
▁Joseph	-10197
▁pursuing	-10198
▁Chief	-10199
▁passes	-10200
▁twelve	-10201
▁observers	-10202
▁68	-10203
▁Num	-10204
▁Natural	-10205
▁51	-10206
▁pray	-10207
▁Libya	-10208
▁Scient	-10209
▁discretion	-10210
▁continuation	-10211
▁sofa	-10212
▁clothes	-10213
▁Stuttgart	-10214
▁restoration	-10215
▁Fif	-10216
▁Anti	-10217
▁Holy	-10218
▁Ocean	-10219
▁presentations	-10220
▁earthqu	-10221
▁exploit	-10222
▁daughter	-10223
▁LateRooms	-10224
acent	-10225
▁Print	-10226
▁Forest	-10227
▁strive	-10228
▁Anonymous	-10229
▁gastronom	-10230
rets	-10231
▁propri	-10232
raries	-10233
▁humans	-10234
▁carrier	-10235
▁knowing	-10236
▁railways	-10237
▁suddenly	-10238
▁publisher	-10239
▁Plus	-10240
▁drag	-10241
▁Andal	-10242
station	-10243
pression	-10244
▁tangible	-10245
▁sympt	-10246
▁congratulations	-10247
ju	-10248
▁Docu	-10249
▁Spec	-10250
▁annex	-10251
▁authorisation	-10252
itably	-10253
stuffs	-10254
▁Could	-10255
▁labels	-10256
▁clearer	-10257
▁demonstration	-10258
▁SS	-10259
▁tone	-10260
▁influenced	-10261
mn	-10262
▁SK	-10263
▁conqu	-10264
▁authorised	-10265
▁Playa	-10266
▁irres	-10267
▁abolition	-10268
▁contributes	-10269
▁confron	-10270
▁fifteen	-10271
▁arrested	-10272
▁homepage	-10273
▁unpreced	-10274
▁BE	-10275
▁Sky	-10276
▁depos	-10277
▁fires	-10278
▁failing	-10279
kind	-10280
▁Fut	-10281
▁migrants	-10282
▁Py	-10283
br	-10284
▁Arts	-10285
▁reun	-10286
▁sail	-10287
▁breaking	-10288
▁unprecedented	-10289
TH	-10290
▁roles	-10291
▁obtaining	-10292
udi	-10293
▁Und	-10294
▁glob	-10295
▁alive	-10296
▁descript	-10297
idel	-10298
▁grew	-10299
▁absurd	-10300
▁mailing	-10301
▁demanded	-10302
iot	-10303
▁competitors	-10304
oked	-10305
with	-10306
▁hus	-10307
▁shell	-10308
▁marginal	-10309
▁Rock	-10310
▁vend	-10311
▁defense	-10312
leys	-10313
▁nicht	-10314
▁desper	-10315
▁distinguished	-10316
▁independently	-10317
▁arom	-10318
ologically	-10319
oust	-10320
▁lag	-10321
chi	-10322
▁Pas	-10323
atics	-10324
▁UNESCO	-10325
heart	-10326
▁brill	-10327
▁frust	-10328
ressing	-10329
▁rescue	-10330
▁Dres	-10331
▁backing	-10332
▁consolidation	-10333
▁Tax	-10334
▁Bor	-10335
▁CHF	-10336
▁rear	-10337
▁Tower	-10338
ín	-10339
▁Amb	-10340
▁lens	-10341
tering	-10342
▁earned	-10343
▁winners	-10344
▁WC	-10345
▁prag	-10346
▁gathered	-10347
▁Millennium	-10348
▁notification	-10349
▁Ms	-10350
▁endors	-10351
▁transmitted	-10352
▁investigations	-10353
▁venture	-10354
rine	-10355
ugen	-10356
▁flags	-10357
▁furthermore	-10358
▁tech	-10359
▁gains	-10360
▁noticed	-10361
▁skilled	-10362
▁skill	-10363
▁Working	-10364
▁permits	-10365
▁Fourth	-10366
▁ambitions	-10367
▁excellence	-10368
▁securities	-10369
▁deny	-10370
▁capability	-10371
feld	-10372
▁grave	-10373
▁founder	-10374
▁implies	-10375
▁preventive	-10376
▁BA	-10377
apore	-10378
▁cinema	-10379
▁economics	-10380
▁Tunisia	-10381
▁employee	-10382
▁profiles	-10383
ui	-10384
lad	-10385
alled	-10386
▁unex	-10387
▁storm	-10388
▁random	-10389
▁laboratory	-10390
16	-10391
▁org	-10392
▁nowadays	-10393
▁estimates	-10394
▁differently	-10395
▁deemed	-10396
▁ambience	-10397
▁lifestyle	-10398
win	-10399
ibbean	-10400
▁backed	-10401
eter	-10402
▁butt	-10403
▁audit	-10404
▁Text	-10405
▁District	-10406
▁dominant	-10407
▁observations	-10408
opp	-10409
▁Vista	-10410
▁cabin	-10411
▁assessments	-10412
▁sightseeing	-10413
▁supervisory	-10414
▁abst	-10415
▁removing	-10416
aire	-10417
onds	-10418
▁cope	-10419
▁plane	-10420
▁shore	-10421
▁Nature	-10422
▁synchron	-10423
▁subscribe	-10424
▁pregn	-10425
▁Moldova	-10426
▁dangers	-10427
▁musicians	-10428
▁Communication	-10429
astery	-10430
▁embedded	-10431
▁designers	-10432
▁stakeholders	-10433
▁rose	-10434
▁sick	-10435
▁venue	-10436
▁Double	-10437
▁cycling	-10438
▁aspir	-10439
▁databases	-10440
▁partially	-10441
▁capacities	-10442
▁indisp	-10443
▁unanimous	-10444
▁Arc	-10445
iously	-10446
▁benefici	-10447
DI	-10448
van	-10449
▁Country	-10450
▁indigenous	-10451
▁globalization	-10452
organ	-10453
platz	-10454
▁furnish	-10455
▁motivated	-10456
▁besides	-10457
▁invested	-10458
oper	-10459
ruck	-10460
▁acted	-10461
▁missed	-10462
▁married	-10463
rot	-10464
▁Ce	-10465
▁Imm	-10466
ncies	-10467
▁bears	-10468
▁consulted	-10469
▁Library	-10470
▁scar	-10471
▁hal	-10472
▁Bund	-10473
▁featured	-10474
▁Caribbean	-10475
DR	-10476
▁Ra	-10477
▁Meanwhile	-10478
▁boundaries	-10479
TV	-10480
▁Transl	-10481
▁eating	-10482
▁Mountain	-10483
▁promotes	-10484
▁configure	-10485
▁CEO	-10486
▁mould	-10487
bre	-10488
▁58	-10489
▁Jos	-10490
▁ath	-10491
▁Ukrain	-10492
14	-10493
ahr	-10494
iances	-10495
.200	-10496
bing	-10497
ori	-10498
pan	-10499
▁Has	-10500
▁Jud	-10501
▁Tok	-10502
teries	-10503
▁scenes	-10504
▁Professor	-10505
▁translate	-10506
nik	-10507
▁Gas	-10508
▁climbing	-10509
▁unlikely	-10510
▁radiation	-10511
▁kilometers	-10512
▁poet	-10513
atories	-10514
▁extends	-10515
▁younger	-10516
▁afterwards	-10517
▁inspiration	-10518
▁appreciation	-10519
▁Aren	-10520
▁forums	-10521
▁struck	-10522
▁comforts	-10523
▁feelings	-10524
▁vineyards	-10525
othic	-10526
▁awards	-10527
west	-10528
▁uncom	-10529
▁forming	-10530
▁Dam	-10531
▁Suites	-10532
▁countless	-10533
add	-10534
aug	-10535
▁angle	-10536
asy	-10537
aret	-10538
▁safely	-10539
PA	-10540
▁Sand	-10541
▁brid	-10542
▁elabor	-10543
▁speaks	-10544
▁eligible	-10545
▁Vel	-10546
▁dispar	-10547
▁genetically	-10548
law	-10549
ulus	-10550
▁wer	-10551
▁Close	-10552
▁dossi	-10553
▁dissem	-10554
▁dismant	-10555
▁loading	-10556
▁steep	-10557
▁solving	-10558
▁hectares	-10559
▁Tit	-10560
▁Casa	-10561
▁ties	-10562
▁pride	-10563
▁Change	-10564
▁Excellent	-10565
▁stringent	-10566
oard	-10567
▁conviction	-10568
war	-10569
▁Nero	-10570
▁oder	-10571
▁summary	-10572
▁sincerely	-10573
▁collections	-10574
▁clarification	-10575
▁nutr	-10576
▁Residence	-10577
argo	-10578
▁Nig	-10579
▁Rental	-10580
ci	-10581
aton	-10582
enade	-10583
▁dive	-10584
▁theat	-10585
otechnology	-10586
▁reconciliation	-10587
▁Ges	-10588
▁eine	-10589
eldorf	-10590
▁Regarding	-10591
▁damaging	-10592
gov	-10593
pha	-10594
▁Hit	-10595
marks	-10596
ounded	-10597
▁Later	-10598
▁reaches	-10599
▁utility	-10600
▁finishing	-10601
▁Domin	-10602
▁cooling	-10603
▁Products	-10604
▁supermark	-10605
aded	-10606
▁Bill	-10607
usalem	-10608
ensable	-10609
▁secured	-10610
▁revenues	-10611
▁Jews	-10612
▁Jesus	-10613
▁refres	-10614
▁dictatorship	-10615
▁Cold	-10616
▁tiny	-10617
▁diamet	-10618
brid	-10619
hesion	-10620
▁moderate	-10621
▁RA	-10622
▁tournament	-10623
pine	-10624
ucks	-10625
▁Ski	-10626
icating	-10627
▁vessel	-10628
▁Gallery	-10629
▁delayed	-10630
▁instant	-10631
▁Mov	-10632
▁pit	-10633
▁albeit	-10634
▁qualities	-10635
▁separation	-10636
▁palace	-10637
▁AK	-10638
▁dil	-10639
▁mild	-10640
▁mineral	-10641
▁59	-10642
aland	-10643
▁Crim	-10644
▁chef	-10645
▁explanations	-10646
▁justification	-10647
▁Love	-10648
▁grad	-10649
▁panels	-10650
▁Estonia	-10651
▁decentral	-10652
▁Supervisory	-10653
ijk	-10654
▁Gh	-10655
▁investing	-10656
▁Han	-10657
▁Mah	-10658
rage	-10659
▁ave	-10660
▁bust	-10661
▁Rather	-10662
▁plugin	-10663
▁suspension	-10664
▁unilateral	-10665
yo	-10666
anas	-10667
▁Hels	-10668
▁dreams	-10669
▁Jerusalem	-10670
▁Mul	-10671
▁realised	-10672
▁designated	-10673
▁borne	-10674
▁hypoc	-10675
▁ages	-10676
▁blank	-10677
▁Piazza	-10678
▁offset	-10679
▁intoler	-10680
▁symbolic	-10681
ART	-10682
▁Partner	-10683
▁camping	-10684
▁insight	-10685
▁Schul	-10686
▁royal	-10687
▁uphold	-10688
▁Heritage	-10689
ACH	-10690
▁infrastructures	-10691
iere	-10692
imal	-10693
opoly	-10694
▁helic	-10695
▁wedding	-10696
▁hairdry	-10697
▁Warcraft	-10698
▁stimulate	-10699
▁reproduction	-10700
rav	-10701
▁Ly	-10702
ective	-10703
▁seminar	-10704
▁scenario	-10705
▁disclos	-10706
▁constraints	-10707
OG	-10708
hm	-10709
▁Aven	-10710
▁Step	-10711
▁Update	-10712
hyth	-10713
▁shoes	-10714
appropri	-10715
▁Capital	-10716
asp	-10717
log	-10718
▁Ele	-10719
▁boom	-10720
▁horses	-10721
▁seaside	-10722
▁accountability	-10723
ctic	-10724
▁endless	-10725
▁coherence	-10726
RC	-10727
▁140	-10728
▁URL	-10729
▁auch	-10730
isual	-10731
▁horn	-10732
▁Between	-10733
▁roughly	-10734
iten	-10735
▁await	-10736
▁Annual	-10737
▁fruits	-10738
▁lawyers	-10739
▁socially	-10740
▁limitations	-10741
▁refurbished	-10742
ierra	-10743
▁Independ	-10744
cia	-10745
▁1950	-10746
estone	-10747
▁bonds	-10748
▁PSE	-10749
▁coc	-10750
iates	-10751
▁outlined	-10752
isa	-10753
▁Newsp	-10754
hensible	-10755
▁continental	-10756
▁subscription	-10757
▁compatibility	-10758
imm	-10759
▁gaming	-10760
▁luggage	-10761
▁avoiding	-10762
▁indispensable	-10763
cles	-10764
▁weld	-10765
▁racing	-10766
▁Language	-10767
▁activated	-10768
▁attempted	-10769
sians	-10770
▁evol	-10771
▁vice	-10772
anners	-10773
▁advocate	-10774
▁Christians	-10775
▁controller	-10776
heast	-10777
▁invites	-10778
outs	-10779
▁Exc	-10780
▁Sams	-10781
▁flaw	-10782
▁impetus	-10783
▁Monten	-10784
▁criter	-10785
▁margin	-10786
▁Richard	-10787
▁episode	-10788
▁Fax	-10789
.20	-10790
▁LT	-10791
▁Young	-10792
▁laying	-10793
▁washing	-10794
▁admission	-10795
▁delivering	-10796
EF	-10797
zo	-10798
▁Ak	-10799
sten	-10800
▁flour	-10801
▁Galile	-10802
▁Simply	-10803
▁existed	-10804
▁misunder	-10805
▁currencies	-10806
▁AF	-10807
▁grip	-10808
▁divide	-10809
▁inevitable	-10810
fo	-10811
ems	-10812
▁wet	-10813
▁filters	-10814
▁GPS	-10815
▁License	-10816
▁printer	-10817
▁routine	-10818
▁plot	-10819
▁entities	-10820
▁hazardous	-10821
▁hopefully	-10822
▁complimentary	-10823
esh	-10824
oda	-10825
▁reviewed	-10826
▁pedestrian	-10827
zb	-10828
▁Foot	-10829
▁trap	-10830
▁paint	-10831
▁Climate	-10832
fit	-10833
▁ca	-10834
▁Wellness	-10835
▁installing	-10836
▁resistant	-10837
▁Much	-10838
▁legendary	-10839
▁definitive	-10840
▁Kn	-10841
▁Eco	-10842
▁Ein	-10843
▁Unlike	-10844
▁provin	-10845
▁villas	-10846
▁elegance	-10847
▁coalition	-10848
▁counterfe	-10849
▁somewhere	-10850
▁systematically	-10851
auses	-10852
▁dogs	-10853
econom	-10854
ischer	-10855
▁actor	-10856
▁haven	-10857
▁Allah	-10858
▁libraries	-10859
▁reinforced	-10860
▁Marg	-10861
PM	-10862
lims	-10863
▁Hus	-10864
▁Lag	-10865
▁Str	-10866
▁hyper	-10867
▁admire	-10868
bec	-10869
▁gamb	-10870
▁patch	-10871
▁mounted	-10872
▁seekers	-10873
▁Cultural	-10874
36	-10875
▁kg	-10876
pone	-10877
▁menus	-10878
iovisual	-10879
▁mainstream	-10880
▁110	-10881
▁Cru	-10882
▁Spir	-10883
▁Short	-10884
▁blocked	-10885
▁retirement	-10886
▁simplified	-10887
▁gases	-10888
▁entity	-10889
▁neighbor	-10890
▁universe	-10891
▁130	-10892
▁Bridge	-10893
▁mathem	-10894
▁Wireless	-10895
▁interfaces	-10896
▁killing	-10897
▁promising	-10898
peror	-10899
laimed	-10900
▁auction	-10901
▁Cab	-10902
▁Dim	-10903
▁Starf	-10904
▁disreg	-10905
▁opponents	-10906
▁authorized	-10907
▁Ot	-10908
▁het	-10909
▁Venet	-10910
▁arriving	-10911
ugh	-10912
▁honor	-10913
▁delivers	-10914
▁bell	-10915
▁Dresden	-10916
rak	-10917
▁72	-10918
▁Sac	-10919
istry	-10920
▁waves	-10921
▁fundamentally	-10922
▁encom	-10923
▁Photos	-10924
▁talent	-10925
▁Corporate	-10926
18	-10927
▁Round	-10928
▁globally	-10929
▁Being	-10930
▁Chechn	-10931
▁subjected	-10932
▁OK	-10933
▁Basel	-10934
▁bless	-10935
▁locally	-10936
▁Kon	-10937
▁Chic	-10938
▁auto	-10939
▁Privacy	-10940
ilty	-10941
▁Pict	-10942
▁openly	-10943
▁carries	-10944
▁calculation	-10945
held	-10946
▁Auto	-10947
▁thirty	-10948
▁tremendous	-10949
▁Arr	-10950
▁SQL	-10951
▁revol	-10952
▁praise	-10953
▁Guide	-10954
▁greet	-10955
▁inevitably	-10956
▁ideological	-10957
▁intr	-10958
▁affil	-10959
rupted	-10960
inki	-10961
olly	-10962
▁HIV	-10963
▁Try	-10964
▁Nikon	-10965
PEG	-10966
▁abort	-10967
quiries	-10968
▁judges	-10969
▁overse	-10970
▁closure	-10971
▁resumed	-10972
▁Monteneg	-10973
▁serial	-10974
▁Muslims	-10975
▁maintains	-10976
▁attraction	-10977
68	-10978
▁Ho	-10979
▁Caf	-10980
▁Bath	-10981
▁cream	-10982
▁ranges	-10983
▁Riviera	-10984
▁chamber	-10985
▁herself	-10986
▁Chechnya	-10987
▁slip	-10988
▁advised	-10989
▁Key	-10990
▁Person	-10991
▁symbols	-10992
▁Catholic	-10993
▁170	-10994
eland	-10995
▁deck	-10996
▁turb	-10997
▁gradual	-10998
▁prevents	-10999
▁abstained	-11000
▁pi	-11001
▁inex	-11002
enburg	-11003
▁writer	-11004
pot	-11005
▁Doha	-11006
▁Plat	-11007
▁bicycle	-11008
▁precaution	-11009
fox	-11010
▁Army	-11011
icular	-11012
▁marriage	-11013
▁detection	-11014
▁Revolution	-11015
▁capitalism	-11016
▁57	-11017
ller	-11018
▁tag	-11019
▁Alban	-11020
▁Motor	-11021
▁Winter	-11022
▁portra	-11023
▁Village	-11024
▁wishing	-11025
▁Starfleet	-11026
▁harmonised	-11027
▁encompass	-11028
quet	-11029
astics	-11030
▁convinc	-11031
▁mood	-11032
osystem	-11033
▁distributors	-11034
▁Das	-11035
▁allies	-11036
▁interference	-11037
▁analog	-11038
▁deeper	-11039
▁Romanian	-11040
▁selecting	-11041
▁mad	-11042
▁Siem	-11043
▁Helsinki	-11044
▁WE	-11045
▁KDE	-11046
▁abuses	-11047
▁vacuum	-11048
▁decrease	-11049
▁predecess	-11050
▁workforce	-11051
▁ferry	-11052
▁viewing	-11053
▁electronics	-11054
ilia	-11055
▁hunger	-11056
▁decoration	-11057
iann	-11058
habilit	-11059
▁Saddam	-11060
▁Statute	-11061
▁topical	-11062
▁criterion	-11063
▁behold	-11064
▁technically	-11065
rov	-11066
▁ruled	-11067
uma	-11068
iors	-11069
▁Bell	-11070
▁rigorous	-11071
aks	-11072
case	-11073
zing	-11074
▁Voy	-11075
▁grey	-11076
orders	-11077
▁enshr	-11078
▁argued	-11079
▁arises	-11080
▁advances	-11081
▁counterpart	-11082
▁350	-11083
▁postpon	-11084
▁surplus	-11085
mented	-11086
▁donors	-11087
▁Criminal	-11088
▁Administration	-11089
▁Call	-11090
▁wire	-11091
▁reciproc	-11092
▁criminals	-11093
▁Jon	-11094
▁liv	-11095
▁dans	-11096
▁giant	-11097
▁opera	-11098
▁Samsung	-11099
▁interpreted	-11100
pi	-11101
archy	-11102
ifice	-11103
▁Move	-11104
▁jack	-11105
▁harvest	-11106
▁envisaged	-11107
▁personality	-11108
▁exped	-11109
▁stamp	-11110
▁exclude	-11111
▁Farm	-11112
▁Maur	-11113
enophob	-11114
▁silent	-11115
▁distant	-11116
▁examining	-11117
▁entrepreneurs	-11118
▁sin	-11119
▁bands	-11120
▁backup	-11121
▁defeat	-11122
▁mixture	-11123
▁ü	-11124
oys	-11125
▁Ga	-11126
owed	-11127
▁Pin	-11128
▁query	-11129
▁hearts	-11130
▁terraces	-11131
▁autonomous	-11132
inburgh	-11133
▁procedural	-11134
uxe	-11135
▁stones	-11136
▁restrictive	-11137
arium	-11138
ulture	-11139
▁IGC	-11140
▁ads	-11141
isdom	-11142
▁Pier	-11143
▁globe	-11144
▁newest	-11145
▁Comfort	-11146
▁Relations	-11147
▁enjoyable	-11148
▁LCD	-11149
▁mic	-11150
▁Armen	-11151
▁Rhine	-11152
ailable	-11153
▁Jour	-11154
▁origins	-11155
▁carriers	-11156
▁Edinburgh	-11157
▁dependence	-11158
▁repression	-11159
▁bold	-11160
astrous	-11161
▁loaded	-11162
▁highway	-11163
▁chances	-11164
▁Singapore	-11165
ré	-11166
▁Gay	-11167
▁iPod	-11168
▁Porto	-11169
▁hosting	-11170
ucc	-11171
▁Leip	-11172
▁tube	-11173
▁excuse	-11174
▁postpone	-11175
iables	-11176
▁recruit	-11177
▁ceremony	-11178
▁complaint	-11179
▁Bes	-11180
▁ageing	-11181
▁attain	-11182
▁statute	-11183
▁breeding	-11184
▁Mountains	-11185
▁engagement	-11186
▁inequality	-11187
yll	-11188
▁rarely	-11189
▁sincere	-11190
▁customized	-11191
hal	-11192
▁attent	-11193
▁healing	-11194
▁disastrous	-11195
▁indirectly	-11196
▁adjustments	-11197
imo	-11198
▁dei	-11199
▁glac	-11200
▁hang	-11201
▁stating	-11202
▁keyboard	-11203
▁overnight	-11204
▁adequately	-11205
▁exceptionally	-11206
▁gun	-11207
▁threatening	-11208
▁revolutionary	-11209
▁congratulating	-11210
▁distribute	-11211
▁62	-11212
▁asc	-11213
▁Bour	-11214
▁Circ	-11215
▁voices	-11216
▁hairdryer	-11217
▁attempting	-11218
▁proliferation	-11219
▁Hot	-11220
▁Appro	-11221
▁Colomb	-11222
▁courty	-11223
▁accomod	-11224
▁validity	-11225
▁BC	-11226
airy	-11227
▁Kle	-11228
▁Euros	-11229
▁Altern	-11230
▁matches	-11231
▁contradict	-11232
▁carte	-11233
▁coins	-11234
▁resolving	-11235
IK	-11236
▁Got	-11237
▁kid	-11238
öm	-11239
aco	-11240
▁Wood	-11241
▁Kling	-11242
▁Explorer	-11243
▁Especially	-11244
▁Solidarity	-11245
▁determining	-11246
▁Ul	-11247
▁acid	-11248
▁Korean	-11249
▁Connect	-11250
▁pointing	-11251
▁GR	-11252
▁Lind	-11253
▁Proper	-11254
▁basket	-11255
arn	-11256
▁Help	-11257
▁Hill	-11258
▁pose	-11259
▁predom	-11260
▁Finance	-11261
▁sensitivity	-11262
▁188	-11263
▁fare	-11264
▁woods	-11265
▁quarters	-11266
▁theoretical	-11267
,00	-11268
▁Di	-11269
uten	-11270
▁Bah	-11271
▁Emb	-11272
▁maj	-11273
▁asks	-11274
ischen	-11275
▁inher	-11276
▁Summer	-11277
▁affirm	-11278
▁sich	-11279
▁toll	-11280
▁tries	-11281
▁tel	-11282
▁towels	-11283
▁worker	-11284
▁pillars	-11285
▁samples	-11286
▁preservation	-11287
▁CP	-11288
ocop	-11289
adian	-11290
ainless	-11291
▁cotton	-11292
economic	-11293
▁Petitions	-11294
elli	-11295
▁Blu	-11296
elong	-11297
▁packed	-11298
▁Written	-11299
▁beautifully	-11300
▁SH	-11301
▁bags	-11302
▁shooting	-11303
esc	-11304
▁cow	-11305
▁intu	-11306
utory	-11307
garian	-11308
▁Stein	-11309
▁rhyth	-11310
▁visas	-11311
ussions	-11312
▁abilities	-11313
igl	-11314
ayer	-11315
▁layers	-11316
▁invoice	-11317
▁thereof	-11318
▁scrutiny	-11319
▁aluminium	-11320
▁reactions	-11321
▁unanimity	-11322
▁Newspapers	-11323
▁imperative	-11324
inth	-11325
▁Stay	-11326
rer	-11327
▁Dev	-11328
▁Night	-11329
▁civilians	-11330
OB	-11331
▁rhet	-11332
▁vertical	-11333
zt	-11334
▁Latvia	-11335
▁protective	-11336
▁Bö	-11337
▁EEC	-11338
▁Ten	-11339
▁monopoly	-11340
▁и	-11341
▁Cash	-11342
▁analyse	-11343
▁shif	-11344
▁Whilst	-11345
▁monopol	-11346
▁readers	-11347
▁refugee	-11348
▁formally	-11349
▁innocent	-11350
▁Unless	-11351
ifferent	-11352
▁impress	-11353
▁workplace	-11354
▁instability	-11355
▁Ford	-11356
▁owing	-11357
▁William	-11358
▁transported	-11359
▁Fron	-11360
▁consolidated	-11361
ARE	-11362
▁concludes	-11363
ück	-11364
▁certificates	-11365
▁accommodations	-11366
▁holes	-11367
▁compromises	-11368
ados	-11369
▁Dry	-11370
▁belt	-11371
▁Nigeria	-11372
▁nearest	-11373
▁tranquil	-11374
▁audiovisual	-11375
▁Nok	-11376
▁clinical	-11377
▁Annex	-11378
▁Reserv	-11379
▁beside	-11380
▁unjust	-11381
▁critique	-11382
▁emotional	-11383
card	-11384
▁ran	-11385
▁Works	-11386
▁Disabled	-11387
▁preference	-11388
▁plates	-11389
▁Leipzig	-11390
▁energies	-11391
▁Corporation	-11392
▁Lit	-11393
▁loan	-11394
olding	-11395
▁breaks	-11396
▁securing	-11397
▁distinguish	-11398
▁Hon	-11399
▁Mann	-11400
▁lapt	-11401
▁linking	-11402
▁tonight	-11403
▁safeguarding	-11404
aman	-11405
▁Marc	-11406
▁counts	-11407
▁Chancell	-11408
▁integrating	-11409
▁consultations	-11410
uela	-11411
▁Bag	-11412
▁epid	-11413
▁alpine	-11414
▁Bulgarian	-11415
▁Dra	-11416
▁Buddh	-11417
▁Siemens	-11418
▁powered	-11419
▁formerly	-11420
eta	-11421
orld	-11422
▁NEW	-11423
▁loud	-11424
▁Local	-11425
▁insec	-11426
▁veter	-11427
▁altitude	-11428
▁literally	-11429
▁Innovation	-11430
▁hur	-11431
▁gran	-11432
▁classified	-11433
onian	-11434
ulator	-11435
▁Times	-11436
▁wished	-11437
▁surgery	-11438
72	-11439
▁Fra	-11440
▁Flor	-11441
▁fits	-11442
▁EG	-11443
▁VIP	-11444
▁dens	-11445
▁buyer	-11446
ál	-11447
▁Upon	-11448
▁ster	-11449
orious	-11450
▁sympathy	-11451
▁Id	-11452
rape	-11453
▁Relax	-11454
▁dimin	-11455
▁fulfill	-11456
▁painted	-11457
gal	-11458
▁Eve	-11459
▁Mallorca	-11460
▁limitation	-11461
▁Firefox	-11462
▁Galileo	-11463
▁accompanying	-11464
13	-11465
▁husband	-11466
wall	-11467
▁Age	-11468
acies	-11469
issible	-11470
▁thinks	-11471
▁Friedrich	-11472
▁galleries	-11473
cat	-11474
pere	-11475
▁sed	-11476
▁grade	-11477
plements	-11478
▁disregard	-11479
▁multilingual	-11480
rasse	-11481
▁Rod	-11482
▁Roth	-11483
▁embry	-11484
▁Sierra	-11485
▁foster	-11486
▁refusal	-11487
▁aggressive	-11488
▁furnishings	-11489
VI	-11490
▁88	-11491
orde	-11492
sters	-11493
▁chip	-11494
▁Congo	-11495
▁Scand	-11496
▁verify	-11497
▁cathedral	-11498
▁Metro	-11499
aro	-11500
▁File	-11501
▁aiming	-11502
▁hunting	-11503
▁democracies	-11504
▁Depending	-11505
▁deadlines	-11506
▁sums	-11507
makers	-11508
phones	-11509
▁cattle	-11510
▁exempl	-11511
national	-11512
▁studying	-11513
▁Engineering	-11514
▁disg	-11515
▁smoke	-11516
▁rehabilit	-11517
▁CAN	-11518
▁delegations	-11519
▁interventions	-11520
▁FI	-11521
▁foss	-11522
▁Nothing	-11523
▁perception	-11524
▁supporters	-11525
mail	-11526
▁Coll	-11527
▁Theatre	-11528
▁wanting	-11529
ially	-11530
▁XML	-11531
▁rolling	-11532
lu	-11533
▁confirms	-11534
▁endorsed	-11535
▁immunity	-11536
▁profitable	-11537
agne	-11538
ariat	-11539
▁spam	-11540
▁strikes	-11541
▁detention	-11542
▁classification	-11543
▁CC	-11544
▁spo	-11545
itravel	-11546
▁Neither	-11547
▁enhancing	-11548
▁irrespective	-11549
bi	-11550
isy	-11551
▁stric	-11552
▁deciding	-11553
▁medicinal	-11554
▁comfortably	-11555
▁Aus	-11556
▁Dat	-11557
▁Nobel	-11558
▁Nokia	-11559
▁deriv	-11560
▁toxic	-11561
▁Valencia	-11562
▁surfaces	-11563
▁Ay	-11564
luded	-11565
▁avec	-11566
▁Palma	-11567
▁posed	-11568
▁78	-11569
mente	-11570
weight	-11571
▁archae	-11572
cessions	-11573
▁multipl	-11574
▁ours	-11575
▁inappropri	-11576
▁punishment	-11577
.-	-11578
pace	-11579
▁grid	-11580
▁guilty	-11581
ustainable	-11582
▁exquisite	-11583
dens	-11584
asonic	-11585
▁sheep	-11586
▁intimate	-11587
▁inviting	-11588
▁Ut	-11589
▁Kat	-11590
▁1988	-11591
▁lend	-11592
▁proves	-11593
▁reader	-11594
▁Exhibition	-11595
▁modernisation	-11596
arly	-11597
▁RSS	-11598
▁anch	-11599
▁Return	-11600
▁revers	-11601
▁activate	-11602
▁smallest	-11603
▁Montenegro	-11604
▁Som	-11605
▁memories	-11606
▁Wikitravel	-11607
▁reasonably	-11608
▁demonstrations	-11609
▁Fel	-11610
▁Blair	-11611
▁crafts	-11612
▁divisions	-11613
oga	-11614
▁Prog	-11615
amount	-11616
▁exotic	-11617
▁intent	-11618
▁gour	-11619
▁incomes	-11620
▁paragraphs	-11621
▁corporations	-11622
bul	-11623
vens	-11624
▁desp	-11625
▁jazz	-11626
▁navig	-11627
▁portion	-11628
▁worried	-11629
▁Building	-11630
▁obstacle	-11631
▁variables	-11632
sts	-11633
Press	-11634
▁Mary	-11635
▁ment	-11636
▁wisdom	-11637
▁execute	-11638
▁annually	-11639
▁Anyone	-11640
▁incons	-11641
▁licensed	-11642
▁cliff	-11643
▁interd	-11644
▁couples	-11645
▁assessed	-11646
ifa	-11647
OK	-11648
draul	-11649
▁protests	-11650
▁buttons	-11651
▁container	-11652
uits	-11653
▁hub	-11654
gorith	-11655
▁ruins	-11656
▁safer	-11657
▁developer	-11658
▁identifying	-11659
én	-11660
.10	-11661
▁umb	-11662
▁pestic	-11663
▁remedy	-11664
isations	-11665
▁dismiss	-11666
▁Cohesion	-11667
▁reaff	-11668
▁communist	-11669
▁witnessed	-11670
▁66	-11671
▁seed	-11672
▁Ox	-11673
▁hab	-11674
owski	-11675
▁Deep	-11676
houses	-11677
▁elite	-11678
▁baths	-11679
▁fastest	-11680
▁improves	-11681
▁inherent	-11682
▁exploited	-11683
▁completing	-11684
▁als	-11685
ribution	-11686
▁burning	-11687
▁convincing	-11688
▁modification	-11689
▁cy	-11690
arios	-11691
▁Lang	-11692
▁overl	-11693
▁perceived	-11694
aze	-11695
uation	-11696
▁dairy	-11697
▁accessed	-11698
▁advisory	-11699
▁downloads	-11700
▁63	-11701
▁Sty	-11702
▁porn	-11703
▁festivals	-11704
▁CL	-11705
chaft	-11706
▁Quest	-11707
▁inland	-11708
▁definitions	-11709
etch	-11710
ilton	-11711
ermost	-11712
▁reimb	-11713
▁textiles	-11714
▁Tex	-11715
▁werden	-11716
▁Looking	-11717
▁clauses	-11718
▁disabilities	-11719
heres	-11720
▁tong	-11721
▁Wild	-11722
▁coat	-11723
▁seam	-11724
▁ups	-11725
▁sends	-11726
▁pushed	-11727
▁barrier	-11728
▁pretext	-11729
▁Recently	-11730
▁sequence	-11731
rics	-11732
urse	-11733
▁Iceland	-11734
▁Ukrainian	-11735
▁processor	-11736
▁Did	-11737
▁nightlife	-11738
▁Chancellor	-11739
▁introduces	-11740
pted	-11741
elson	-11742
itals	-11743
▁commands	-11744
▁psychological	-11745
▁coach	-11746
▁lifts	-11747
▁trials	-11748
▁Algeria	-11749
▁modular	-11750
▁consolidate	-11751
▁modifications	-11752
cany	-11753
ocratic	-11754
▁anyway	-11755
▁gaining	-11756
▁broadcasting	-11757
PG	-11758
▁LED	-11759
▁nit	-11760
▁rum	-11761
▁Want	-11762
▁amid	-11763
▁este	-11764
▁reaffirm	-11765
opia	-11766
plex	-11767
▁holder	-11768
▁bathing	-11769
▁limiting	-11770
▁passport	-11771
17	-11772
▁een	-11773
orship	-11774
▁Sales	-11775
▁renewal	-11776
▁distinctive	-11777
▁sul	-11778
itives	-11779
▁aboard	-11780
▁baggage	-11781
▁adjacent	-11782
▁tracking	-11783
erie	-11784
▁eco	-11785
▁vibrant	-11786
ali	-11787
far	-11788
▁wond	-11789
▁Cel	-11790
▁Lud	-11791
▁irrespon	-11792
uty	-11793
oding	-11794
▁Azer	-11795
▁genoc	-11796
▁retrie	-11797
▁predomin	-11798
▁indications	-11799
roph	-11800
▁bol	-11801
▁forestry	-11802
▁Marketing	-11803
▁earthquake	-11804
▁Pot	-11805
▁neo	-11806
▁Jord	-11807
▁Const	-11808
▁utter	-11809
assador	-11810
▁snacks	-11811
▁Terrace	-11812
▁92	-11813
asty	-11814
inea	-11815
▁Sax	-11816
riger	-11817
▁summar	-11818
▁Zealand	-11819
▁landing	-11820
▁emphasize	-11821
▁Additional	-11822
▁Ok	-11823
▁Smith	-11824
▁dioxide	-11825
▁sacrific	-11826
▁tendency	-11827
▁dramatically	-11828
▁scholars	-11829
▁xenophob	-11830
▁depl	-11831
▁protects	-11832
▁complementary	-11833
▁2,	-11834
▁Burg	-11835
▁OLAF	-11836
▁costly	-11837
▁Objective	-11838
▁barg	-11839
▁spreading	-11840
▁prerequisite	-11841
▁chamb	-11842
▁apolog	-11843
▁pipeline	-11844
▁wrap	-11845
▁sorts	-11846
▁Andalus	-11847
▁Colombia	-11848
▁Croatian	-11849
▁coastline	-11850
idas	-11851
▁Hor	-11852
▁wasn	-11853
▁Eurost	-11854
▁panorama	-11855
▁evaluated	-11856
▁traditionally	-11857
▁Spl	-11858
▁Large	-11859
▁Queen	-11860
▁secular	-11861
▁meaningful	-11862
▁Environmental	-11863
▁Kaz	-11864
▁Pad	-11865
▁biof	-11866
▁shorter	-11867
▁tensions	-11868
eling	-11869
▁tunnel	-11870
▁worlds	-11871
▁congress	-11872
▁HP	-11873
▁3.5	-11874
▁Alm	-11875
▁crown	-11876
▁dereg	-11877
▁vigil	-11878
▁Thai	-11879
▁honey	-11880
▁incon	-11881
▁incidents	-11882
▁bankrupt	-11883
▁graphical	-11884
▁cache	-11885
▁credits	-11886
▁painful	-11887
▁volumes	-11888
UC	-11889
▁Warsaw	-11890
▁hybrid	-11891
▁Reserve	-11892
▁gambling	-11893
▁stro	-11894
▁dryer	-11895
▁Ticket	-11896
▁breast	-11897
▁Medical	-11898
▁ecosystem	-11899
▁popularity	-11900
▁recognises	-11901
▁gre	-11902
erning	-11903
▁retained	-11904
▁feeding	-11905
▁refreshing	-11906
etime	-11907
▁Import	-11908
▁enrich	-11909
▁encourages	-11910
asm	-11911
▁Cot	-11912
▁bub	-11913
▁donor	-11914
▁unexpect	-11915
▁confidentiality	-11916
bor	-11917
▁Kre	-11918
▁bugs	-11919
▁Haiti	-11920
iannual	-11921
▁Railway	-11922
ité	-11923
drop	-11924
▁tasty	-11925
▁contra	-11926
▁termin	-11927
▁attacked	-11928
▁ordering	-11929
▁Ku	-11930
▁CDs	-11931
▁Excel	-11932
▁exter	-11933
▁breath	-11934
▁petition	-11935
▁Dolomites	-11936
govina	-11937
▁misle	-11938
keeping	-11939
▁wholes	-11940
uce	-11941
acio	-11942
ungal	-11943
▁Borg	-11944
▁Canary	-11945
▁bottle	-11946
▁german	-11947
▁economical	-11948
lor	-11949
▁Users	-11950
▁overt	-11951
▁prostit	-11952
▁unified	-11953
▁conducting	-11954
▁settlements	-11955
▁Cook	-11956
▁Event	-11957
▁oasis	-11958
▁Spirit	-11959
▁Airlines	-11960
▁fulfilling	-11961
▁Sir	-11962
▁Shan	-11963
▁noble	-11964
▁Johannes	-11965
▁Solutions	-11966
inking	-11967
▁surre	-11968
VIS	-11969
▁Gre	-11970
▁marble	-11971
▁organs	-11972
izations	-11973
▁Francisco	-11974
67	-11975
▁Marco	-11976
▁aston	-11977
▁legacy	-11978
▁pricing	-11979
▁Whatever	-11980
▁evenings	-11981
▁brilliant	-11982
BA	-11983
▁PV	-11984
▁Fab	-11985
▁Arena	-11986
▁correction	-11987
▁rust	-11988
▁alert	-11989
▁tailor	-11990
▁optimized	-11991
▁ratify	-11992
▁Germans	-11993
▁Official	-11994
eenth	-11995
▁trick	-11996
▁municipality	-11997
yss	-11998
▁Rub	-11999
orthy	-12000
▁weigh	-12001
▁reluct	-12002
▁gathering	-12003
▁safeguards	-12004
▁playground	-12005
▁temporarily	-12006
ées	-12007
▁Hu	-12008
▁rememb	-12009
▁proport	-12010
▁courtyard	-12011
iguous	-12012
▁Level	-12013
cs	-12014
ARD	-12015
ernity	-12016
▁Herze	-12017
▁corrid	-12018
▁Against	-12019
▁prescrib	-12020
In	-12021
otal	-12022
▁Save	-12023
▁Impro	-12024
▁Though	-12025
▁sleeping	-12026
▁inspections	-12027
▁transnational	-12028
ota	-12029
inav	-12030
▁Tuscany	-12031
▁Computer	-12032
▁batteries	-12033
▁CA	-12034
▁Mid	-12035
▁floods	-12036
▁minded	-12037
▁quoted	-12038
▁antique	-12039
▁birthday	-12040
▁ideology	-12041
▁preserving	-12042
▁encountered	-12043
▁cosm	-12044
▁nurs	-12045
▁Solana	-12046
▁Sports	-12047
▁generating	-12048
▁responding	-12049
aran	-12050
▁races	-12051
▁potato	-12052
▁outermost	-12053
▁configured	-12054
▁inappropriate	-12055
eing	-12056
▁Need	-12057
▁cycl	-12058
▁Initi	-12059
▁brutal	-12060
▁Deutsch	-12061
▁regener	-12062
▁assessing	-12063
▁privileges	-12064
oded	-12065
ardin	-12066
ioned	-12067
▁mira	-12068
▁wholeheart	-12069
aden	-12070
▁Ped	-12071
power	-12072
▁cott	-12073
▁Hague	-12074
▁titles	-12075
▁enemies	-12076
▁Canadian	-12077
▁visibility	-12078
oty	-12079
ourge	-12080
▁Bonn	-12081
▁Fisch	-12082
▁invasion	-12083
▁attitudes	-12084
▁democratically	-12085
idal	-12086
oors	-12087
▁Mit	-12088
▁1986	-12089
▁Wald	-12090
▁merch	-12091
▁Version	-12092
▁Division	-12093
▁Herzegovina	-12094
▁cu	-12095
cano	-12096
step	-12097
▁bou	-12098
▁Virt	-12099
▁mile	-12100
▁Photo	-12101
ét	-12102
▁Sel	-12103
ocation	-12104
▁statutory	-12105
▁continuity	-12106
▁disadvantage	-12107
▁Pon	-12108
▁Gott	-12109
ivities	-12110
▁Sche	-12111
▁sind	-12112
▁experiments	-12113
otype	-12114
▁chips	-12115
▁Credit	-12116
▁metals	-12117
▁institute	-12118
▁Esp	-12119
▁ber	-12120
▁dispro	-12121
▁captured	-12122
aven	-12123
▁bin	-12124
▁vou	-12125
▁prud	-12126
▁minibar	-12127
aron	-12128
▁launching	-12129
▁deployment	-12130
45	-12131
48	-12132
▁cave	-12133
▁escal	-12134
▁broadly	-12135
▁magazines	-12136
▁ok	-12137
eren	-12138
angle	-12139
▁pump	-12140
▁tons	-12141
▁Speed	-12142
▁Ashton	-12143
▁understandable	-12144
cz	-12145
lov	-12146
▁ic	-12147
artial	-12148
▁Broad	-12149
▁Athens	-12150
▁Contract	-12151
▁vegetable	-12152
▁OSC	-12153
▁cord	-12154
▁Force	-12155
▁blocking	-12156
▁retention	-12157
▁foodstuffs	-12158
▁persecution	-12159
eli	-12160
illy	-12161
▁Gate	-12162
▁popul	-12163
▁Holland	-12164
▁directors	-12165
mers	-12166
▁OEC	-12167
▁unres	-12168
▁headed	-12169
▁timing	-12170
▁fabulous	-12171
▁Sic	-12172
giene	-12173
▁zoom	-12174
holder	-12175
▁Learn	-12176
▁varying	-12177
▁algorith	-12178
UN	-12179
anka	-12180
▁measurements	-12181
▁Saudi	-12182
▁compiled	-12183
▁solarium	-12184
▁automobile	-12185
▁cooperative	-12186
ji	-12187
atisfact	-12188
▁scripts	-12189
▁activists	-12190
▁Ric	-12191
▁hoc	-12192
▁Nazi	-12193
author	-12194
▁disarm	-12195
▁marking	-12196
▁precautionary	-12197
XI	-12198
iban	-12199
▁Kun	-12200
▁sid	-12201
▁Peters	-12202
▁conscience	-12203
▁Lod	-12204
asant	-12205
▁OECD	-12206
rapeut	-12207
▁Monitor	-12208
▁responded	-12209
▁imagination	-12210
▁pushing	-12211
▁estimate	-12212
▁problematic	-12213
ORT	-12214
mans	-12215
ström	-12216
▁nick	-12217
▁Political	-12218
▁organising	-12219
▁positively	-12220
▁interconnect	-12221
olec	-12222
▁Kor	-12223
▁ROM	-12224
▁cyl	-12225
arre	-12226
▁tens	-12227
▁mines	-12228
▁restra	-12229
▁initiate	-12230
▁withdrawn	-12231
ieu	-12232
teg	-12233
▁Fa	-12234
▁Still	-12235
▁closest	-12236
▁holders	-12237
▁stretch	-12238
omic	-12239
▁Dor	-12240
▁IBM	-12241
▁Lead	-12242
▁Father	-12243
▁Prince	-12244
▁hosted	-12245
▁resign	-12246
▁fragile	-12247
▁stainless	-12248
ende	-12249
örse	-12250
▁echo	-12251
ommerce	-12252
▁dealers	-12253
▁voltage	-12254
▁underest	-12255
65	-12256
onda	-12257
▁dur	-12258
chers	-12259
▁1930	-12260
▁Baron	-12261
▁burdens	-12262
▁municipal	-12263
▁jet	-12264
▁Rena	-12265
▁sear	-12266
▁Future	-12267
▁casual	-12268
▁motorcy	-12269
▁viruses	-12270
▁competitions	-12271
▁coordinating	-12272
GE	-12273
sor	-12274
▁env	-12275
▁Picard	-12276
▁coating	-12277
▁listing	-12278
▁collecting	-12279
esk	-12280
ieth	-12281
obil	-12282
ribe	-12283
▁entrust	-12284
▁genocide	-12285
▁establishments	-12286
▁om	-12287
▁YOU	-12288
▁1987	-12289
▁brew	-12290
▁exac	-12291
▁suic	-12292
▁grain	-12293
▁rocks	-12294
▁Assist	-12295
▁manually	-12296
▁imbalances	-12297
▁productions	-12298
eda	-12299
▁Pun	-12300
▁Battle	-12301
▁Advanced	-12302
▁Articles	-12303
73	-12304
oca	-12305
itis	-12306
▁App	-12307
▁Bou	-12308
▁Sym	-12309
▁Share	-12310
▁boutique	-12311
▁deliberately	-12312
▁Fun	-12313
▁Watch	-12314
▁align	-12315
▁injury	-12316
▁documented	-12317
▁penet	-12318
▁affair	-12319
oen	-12320
▁Od	-12321
▁Fern	-12322
▁Week	-12323
▁socialist	-12324
▁successes	-12325
▁EIB	-12326
▁thou	-12327
▁fridge	-12328
▁Laundry	-12329
▁exacerb	-12330
▁accessibility	-12331
▁RI	-12332
▁Wat	-12333
▁zur	-12334
▁OSCE	-12335
▁hoping	-12336
▁lifelong	-12337
▁refriger	-12338
▁Scandinav	-12339
bsp	-12340
coni	-12341
▁bass	-12342
▁unch	-12343
▁chronic	-12344
▁defines	-12345
▁lifting	-12346
▁diplomacy	-12347
66	-12348
sein	-12349
immer	-12350
▁folk	-12351
▁Quick	-12352
▁stere	-12353
▁Schulz	-12354
▁shoulder	-12355
▁stresses	-12356
ishop	-12357
▁Smart	-12358
▁harder	-12359
AY	-12360
▁DJ	-12361
▁Düss	-12362
▁toys	-12363
ourcing	-12364
▁Cambod	-12365
▁wholly	-12366
▁Decision	-12367
▁discrimin	-12368
▁GT	-12369
orously	-12370
▁Daniel	-12371
▁infringe	-12372
▁attending	-12373
▁disappeared	-12374
▁irregularities	-12375
ERS	-12376
▁über	-12377
▁paradox	-12378
▁eliminating	-12379
▁RF	-12380
▁Active	-12381
▁Liberals	-12382
▁contradiction	-12383
▁Hi	-12384
▁1985	-12385
▁alien	-12386
▁rigid	-12387
▁Patten	-12388
▁Cleaning	-12389
asus	-12390
icable	-12391
stanbul	-12392
▁Bavaria	-12393
▁dropped	-12394
▁umbrell	-12395
▁detected	-12396
▁reminded	-12397
▁conservative	-12398
▁Ramb	-12399
▁pair	-12400
▁admin	-12401
▁prolong	-12402
▁instances	-12403
▁banana	-12404
▁wheels	-12405
▁pursuit	-12406
▁studios	-12407
▁feasible	-12408
▁diagnosis	-12409
▁preparatory	-12410
▁LAN	-12411
▁Democracy	-12412
opl	-12413
▁1945	-12414
▁harsh	-12415
▁dossier	-12416
▁stimulus	-12417
▁weaknesses	-12418
▁Cauc	-12419
▁Columb	-12420
▁recreation	-12421
▁concessions	-12422
este	-12423
▁Marx	-12424
▁fossil	-12425
▁persuade	-12426
▁possession	-12427
▁anticipated	-12428
▁disadvantaged	-12429
kov	-12430
▁SDL	-12431
iders	-12432
▁spark	-12433
▁Conver	-12434
▁dealer	-12435
▁forever	-12436
▁injection	-12437
▁protectionism	-12438
▁indul	-12439
▁Review	-12440
cussions	-12441
▁outline	-12442
▁accomplished	-12443
99	-12444
▁Ll	-12445
acity	-12446
▁wash	-12447
▁brown	-12448
atorium	-12449
▁Hitler	-12450
▁singer	-12451
▁inconsist	-12452
han	-12453
kin	-12454
▁ta	-12455
group	-12456
▁liberty	-12457
▁celebration	-12458
gel	-12459
▁BR	-12460
▁Bahn	-12461
▁FREE	-12462
▁Quite	-12463
▁accus	-12464
▁hydraul	-12465
▁turnover	-12466
▁networking	-12467
▁objections	-12468
ECT	-12469
enza	-12470
▁cure	-12471
▁earm	-12472
▁eggs	-12473
▁template	-12474
ulent	-12475
▁reign	-12476
▁kingdom	-12477
▁segments	-12478
▁1.1	-12479
▁diagnost	-12480
▁incompat	-12481
▁intuitive	-12482
▁meter	-12483
▁speeds	-12484
▁suspic	-12485
▁bookings	-12486
▁impressed	-12487
▁Cad	-12488
▁Hosp	-12489
▁tanks	-12490
ocopying	-12491
▁passage	-12492
▁exemption	-12493
anted	-12494
▁draws	-12495
▁Adjust	-12496
▁anymore	-12497
▁ranking	-12498
▁speculation	-12499
▁о	-12500
ifier	-12501
car	-12502
▁GMOs	-12503
▁Source	-12504
▁pressures	-12505
▁Düsseldorf	-12506
▁negligence	-12507
▁descriptions	-12508
▁Ni	-12509
gang	-12510
oeuv	-12511
▁fled	-12512
▁halls	-12513
▁illum	-12514
▁influences	-12515
▁cultivation	-12516
▁facilitating	-12517
▁acute	-12518
▁varieties	-12519
▁Technologies	-12520
ao	-12521
▁EB	-12522
ersed	-12523
▁batt	-12524
▁commodity	-12525
71	-12526
▁dub	-12527
anium	-12528
falls	-12529
▁Care	-12530
▁ranks	-12531
▁tackled	-12532
bility	-12533
▁Intel	-12534
▁Kurdish	-12535
▁catastrop	-12536
▁multitude	-12537
▁VI	-12538
▁Diam	-12539
estock	-12540
▁patron	-12541
▁Journal	-12542
▁fortress	-12543
▁overseas	-12544
▁ED	-12545
▁Below	-12546
▁density	-12547
▁lending	-12548
▁queries	-12549
▁Renaissance	-12550
mus	-12551
▁82	-12552
▁Ts	-12553
▁smell	-12554
rapeutic	-12555
▁reveals	-12556
conditioning	-12557
▁instruction	-12558
▁inequalities	-12559
▁doz	-12560
▁leaf	-12561
▁Price	-12562
▁Tampere	-12563
▁donation	-12564
▁qualification	-12565
hot	-12566
vic	-12567
▁SO	-12568
▁aged	-12569
▁Voyager	-12570
▁laundry	-12571
▁Universal	-12572
▁Instruments	-12573
▁degrad	-12574
▁trendy	-12575
▁retreat	-12576
▁diameter	-12577
▁replacing	-12578
oma	-12579
OTEL	-12580
ogan	-12581
▁alleged	-12582
▁shortage	-12583
unge	-12584
▁ASE	-12585
▁crash	-12586
▁scrap	-12587
▁terrain	-12588
▁complied	-12589
▁elimination	-12590
▁AU	-12591
▁debts	-12592
▁outer	-12593
▁enclos	-12594
▁springs	-12595
▁outbreak	-12596
▁vegetation	-12597
▁Fortunately	-12598
▁neighborhood	-12599
pack	-12600
▁Chem	-12601
▁noisy	-12602
through	-12603
▁wearing	-12604
▁consultants	-12605
anta	-12606
phony	-12607
▁ALDE	-12608
▁Kare	-12609
▁inse	-12610
▁corresponds	-12611
33	-12612
▁Fine	-12613
▁Guard	-12614
▁recipient	-12615
▁diesel	-12616
▁poorer	-12617
▁hospitals	-12618
▁relevance	-12619
agg	-12620
▁LA	-12621
▁Fig	-12622
▁thy	-12623
▁Mare	-12624
▁Cypri	-12625
▁Garda	-12626
▁attracted	-12627
anna	-12628
▁Schm	-12629
▁broke	-12630
▁Gothic	-12631
▁Lounge	-12632
▁tissue	-12633
▁Century	-12634
▁intensity	-12635
▁bulk	-12636
verages	-12637
▁orange	-12638
▁scarce	-12639
▁commissioned	-12640
rose	-12641
▁Tokyo	-12642
▁strongest	-12643
49	-12644
atus	-12645
▁Ill	-12646
▁Perform	-12647
▁writers	-12648
▁archives	-12649
▁drawings	-12650
▁deliveries	-12651
iker	-12652
▁idyll	-12653
▁Shangh	-12654
▁unrest	-12655
▁slaughter	-12656
▁propaganda	-12657
arr	-12658
esse	-12659
▁rhetoric	-12660
▁Production	-12661
▁altogether	-12662
icer	-12663
inct	-12664
▁Sri	-12665
ested	-12666
icism	-12667
▁neck	-12668
▁Verhe	-12669
▁intim	-12670
▁updating	-12671
▁monastery	-12672
▁signatures	-12673
▁Low	-12674
ilder	-12675
▁faire	-12676
▁1,000	-12677
▁allev	-12678
▁truck	-12679
▁Tarifa	-12680
▁lecture	-12681
▁Link	-12682
▁obsc	-12683
▁forbidden	-12684
▁PM	-12685
▁nan	-12686
▁ampl	-12687
▁couldn	-12688
▁frames	-12689
▁factories	-12690
▁eliminated	-12691
▁experimental	-12692
chl	-12693
▁Quart	-12694
▁screw	-12695
▁sixth	-12696
▁journalist	-12697
▁organizing	-12698
▁variations	-12699
Hz	-12700
▁2015	-12701
▁incurred	-12702
▁Verheugen	-12703
▁broadband	-12704
▁distances	-12705
▁repercussions	-12706
xual	-12707
▁Corn	-12708
▁hind	-12709
▁tired	-12710
▁Hussein	-12711
▁preview	-12712
▁Questions	-12713
▁installer	-12714
reb	-12715
▁Au	-12716
▁149	-12717
▁inh	-12718
▁guiding	-12719
▁Istanbul	-12720
▁threaten	-12721
▁macroeconomic	-12722
acher	-12723
▁Schl	-12724
▁ample	-12725
▁Serbian	-12726
▁resident	-12727
▁regulating	-12728
▁Core	-12729
▁personalized	-12730
igo	-12731
▁125	-12732
▁antib	-12733
▁scept	-12734
▁thirds	-12735
▁boarding	-12736
▁architects	-12737
▁escap	-12738
▁flora	-12739
▁motto	-12740
▁teeth	-12741
▁Bow	-12742
icars	-12743
state	-12744
▁Guinea	-12745
▁sensors	-12746
▁matching	-12747
gra	-12748
aine	-12749
▁Past	-12750
▁temple	-12751
▁categor	-12752
▁decides	-12753
▁magnetic	-12754
▁screening	-12755
▁rehabilitation	-12756
atial	-12757
▁myst	-12758
▁tutorial	-12759
▁livestock	-12760
auf	-12761
▁vague	-12762
▁Almost	-12763
▁notify	-12764
▁deployed	-12765
▁enshrined	-12766
▁incredibly	-12767
▁geared	-12768
▁hygiene	-12769
▁protein	-12770
▁Certainly	-12771
▁capitalist	-12772
SI	-12773
▁gaps	-12774
▁nach	-12775
▁arena	-12776
▁bridges	-12777
▁pragmatic	-12778
the	-12779
▁dear	-12780
▁loose	-12781
▁acoust	-12782
▁sister	-12783
▁Wikicars	-12784
▁fireplace	-12785
▁ray	-12786
▁Trib	-12787
arious	-12788
iments	-12789
▁scrat	-12790
▁purchases	-12791
unc	-12792
▁jump	-12793
▁Color	-12794
▁massac	-12795
▁shores	-12796
▁licences	-12797
▁confronted	-12798
▁qualitative	-12799
▁recreational	-12800
aka	-12801
▁Ka	-12802
▁Börse	-12803
▁DI	-12804
▁Fischler	-12805
▁exercises	-12806
▁Photocopying	-12807
RO	-12808
bel	-12809
▁midst	-12810
▁manoeuv	-12811
▁peripheral	-12812
▁positioned	-12813
▁verification	-12814
▁Si	-12815
▁Eri	-12816
▁Brun	-12817
▁Poly	-12818
▁moon	-12819
▁rice	-12820
▁Europa	-12821
▁organisms	-12822
illes	-12823
▁Pent	-12824
▁nbsp	-12825
▁Incre	-12826
▁unauthor	-12827
▁enchanting	-12828
▁Fuj	-12829
▁Canc	-12830
▁Imper	-12831
▁Neigh	-12832
▁Parad	-12833
▁dress	-12834
▁Jordan	-12835
▁Classic	-12836
sky	-12837
rite	-12838
▁FAQ	-12839
▁Sab	-12840
▁bone	-12841
▁forg	-12842
▁grav	-12843
▁fabrics	-12844
▁republic	-12845
▁successor	-12846
making	-12847
▁english	-12848
▁synthes	-12849
▁promptly	-12850
▁tv	-12851
▁Sul	-12852
▁seasonal	-12853
▁aspirations	-12854
▁360	-12855
▁Requ	-12856
▁Buyer	-12857
▁embargo	-12858
▁billions	-12859
▁cocktail	-12860
neys	-12861
▁Shanghai	-12862
▁workflow	-12863
▁delightful	-12864
emen	-12865
▁Arm	-12866
letes	-12867
▁Herm	-12868
▁Ober	-12869
▁indu	-12870
▁seal	-12871
▁calib	-12872
▁heaven	-12873
▁occasionally	-12874
days	-12875
▁MEP	-12876
opher	-12877
iating	-12878
▁foresee	-12879
▁aesthetic	-12880
▁photographer	-12881
▁biotechnology	-12882
▁Brok	-12883
▁tear	-12884
▁unsu	-12885
▁emotions	-12886
▁disproportion	-12887
park	-12888
▁horm	-12889
▁barely	-12890
▁enters	-12891
▁Egyptian	-12892
▁earnings	-12893
▁promenade	-12894
▁versatile	-12895
▁quantitative	-12896
PO	-12897
▁CM	-12898
▁Ari	-12899
▁Five	-12900
▁consec	-12901
▁emergence	-12902
▁compensate	-12903
▁promotional	-12904
pal	-12905
▁Malays	-12906
▁myster	-12907
▁Madeira	-12908
▁gourmet	-12909
▁prevail	-12910
▁momentum	-12911
▁premature	-12912
thod	-12913
▁recur	-12914
▁Scottish	-12915
▁financially	-12916
tex	-12917
▁Mini	-12918
▁assort	-12919
▁Tourist	-12920
▁administrator	-12921
icts	-12922
▁1.0	-12923
▁ash	-12924
▁Flex	-12925
▁applaud	-12926
▁Yesterday	-12927
▁eru	-12928
▁lin	-12929
ashed	-12930
▁Meas	-12931
▁tongue	-12932
▁designing	-12933
INE	-12934
utz	-12935
▁mud	-12936
sburg	-12937
▁Sure	-12938
▁imply	-12939
▁educated	-12940
▁competing	-12941
▁formulated	-12942
▁simulation	-12943
PT	-12944
▁Competition	-12945
▁specification	-12946
▁diff	-12947
▁halt	-12948
▁tuna	-12949
▁blend	-12950
▁ninet	-12951
ologist	-12952
▁Bundes	-12953
▁deploy	-12954
▁redist	-12955
▁issuing	-12956
▁colourful	-12957
aval	-12958
▁Fon	-12959
annel	-12960
▁Ethi	-12961
▁subt	-12962
▁Maybe	-12963
▁frozen	-12964
▁shapes	-12965
▁Seville	-12966
▁longest	-12967
▁attentive	-12968
▁Na	-12969
appy	-12970
▁fres	-12971
▁tied	-12972
▁slide	-12973
▁Little	-12974
▁Regist	-12975
▁tariffs	-12976
▁excluding	-12977
▁Mu	-12978
atom	-12979
▁3.0	-12980
▁Band	-12981
▁linen	-12982
▁Virgin	-12983
▁establishes	-12984
yr	-12985
▁Oh	-12986
▁crus	-12987
undering	-12988
▁Philipp	-12989
▁posting	-12990
▁Consider	-12991
▁discounts	-12992
▁vulnerability	-12993
inj	-12994
kel	-12995
sis	-12996
▁MD	-12997
▁geomet	-12998
▁alarming	-12999
▁motivation	-13000
▁restriction	-13001
▁constituency	-13002
isi	-13003
azzo	-13004
olas	-13005
▁Face	-13006
▁Miss	-13007
▁inch	-13008
▁sooner	-13009
▁substitute	-13010
▁peaks	-13011
▁Taliban	-13012
▁Starting	-13013
▁backdrop	-13014
▁Globalisation	-13015
▁Fact	-13016
istence	-13017
▁Balkan	-13018
▁timber	-13019
▁earliest	-13020
▁portable	-13021
69	-13022
ocus	-13023
▁lush	-13024
▁slot	-13025
▁Timor	-13026
▁mails	-13027
▁Around	-13028
▁execut	-13029
▁abolished	-13030
jet	-13031
ozy	-13032
▁DG	-13033
oping	-13034
▁wins	-13035
▁stricter	-13036
inton	-13037
▁cruel	-13038
▁eager	-13039
▁Santer	-13040
▁displaced	-13041
▁privilege	-13042
▁accurately	-13043
▁criticisms	-13044
▁destroying	-13045
34	-13046
sofar	-13047
▁Resolution	-13048
▁containers	-13049
▁Cry	-13050
▁Banqu	-13051
▁dated	-13052
iculous	-13053
▁Tibetan	-13054
▁verified	-13055
▁detriment	-13056
III	-13057
OME	-13058
iga	-13059
lose	-13060
▁Way	-13061
▁hed	-13062
▁Eric	-13063
▁fount	-13064
▁benchmark	-13065
▁KG	-13066
▁axis	-13067
▁butter	-13068
▁announc	-13069
▁injured	-13070
▁phenomena	-13071
▁Championship	-13072
FOR	-13073
oco	-13074
▁Bru	-13075
▁Cle	-13076
▁coin	-13077
▁Drive	-13078
▁itiner	-13079
▁defended	-13080
▁incomplete	-13081
▁worthwhile	-13082
map	-13083
raw	-13084
▁Sark	-13085
▁caut	-13086
▁trek	-13087
lywood	-13088
▁Ibiza	-13089
▁clarified	-13090
▁Blog	-13091
▁Monti	-13092
▁mothers	-13093
▁symptoms	-13094
▁purchaser	-13095
▁encryption	-13096
omo	-13097
▁185	-13098
▁Sep	-13099
▁dol	-13100
▁amate	-13101
▁valleys	-13102
▁realities	-13103
▁households	-13104
▁Pra	-13105
▁disin	-13106
▁mounting	-13107
▁assumption	-13108
▁optimization	-13109
tz	-13110
▁Map	-13111
▁oven	-13112
itement	-13113
ropolis	-13114
▁college	-13115
▁interfere	-13116
▁breakthrough	-13117
sq	-13118
▁Kim	-13119
▁Tob	-13120
▁chains	-13121
▁triple	-13122
▁somehow	-13123
▁treating	-13124
iago	-13125
apsed	-13126
▁Lanz	-13127
▁Arctic	-13128
▁copper	-13129
▁fitting	-13130
▁magical	-13131
▁shipment	-13132
▁animation	-13133
▁totalitarian	-13134
▁beneficiaries	-13135
fire	-13136
▁Kel	-13137
▁vor	-13138
▁Princ	-13139
▁suits	-13140
▁commem	-13141
▁participant	-13142
umns	-13143
pered	-13144
▁kick	-13145
▁embra	-13146
▁merit	-13147
▁yacht	-13148
▁picked	-13149
▁thrown	-13150
▁enforced	-13151
illo	-13152
▁9001	-13153
▁Prior	-13154
▁Andreas	-13155
▁mankind	-13156
geb	-13157
pool	-13158
▁cant	-13159
▁tune	-13160
▁rentals	-13161
▁exceeded	-13162
▁severely	-13163
▁demonstrating	-13164
▁dw	-13165
omer	-13166
▁Bart	-13167
▁pity	-13168
▁destruct	-13169
▁exported	-13170
▁monument	-13171
▁Directors	-13172
TE	-13173
▁Gift	-13174
▁snack	-13175
▁simpler	-13176
▁criticised	-13177
sile	-13178
▁Send	-13179
ulative	-13180
▁Naples	-13181
▁buffer	-13182
▁devastating	-13183
▁Adam	-13184
▁Darf	-13185
▁Eure	-13186
▁cher	-13187
▁lays	-13188
imming	-13189
▁bikes	-13190
▁remun	-13191
▁varies	-13192
▁renovation	-13193
▁documentary	-13194
▁74	-13195
▁1979	-13196
▁Matt	-13197
ologists	-13198
▁Nowadays	-13199
▁corrected	-13200
▁postponed	-13201
ele	-13202
▁Nu	-13203
iang	-13204
▁Multi	-13205
▁denom	-13206
umption	-13207
▁phases	-13208
▁tender	-13209
▁seating	-13210
▁Malaysia	-13211
alm	-13212
erer	-13213
inson	-13214
▁Stef	-13215
▁sehr	-13216
schaft	-13217
▁laptop	-13218
▁Olympus	-13219
▁awaiting	-13220
▁ink	-13221
▁vous	-13222
▁Pract	-13223
▁crack	-13224
▁Police	-13225
▁scenic	-13226
31	-13227
74	-13228
üh	-13229
bled	-13230
▁Bib	-13231
▁Gro	-13232
itary	-13233
▁generates	-13234
▁recordings	-13235
mod	-13236
ogy	-13237
arov	-13238
▁rit	-13239
▁Built	-13240
▁Darfur	-13241
▁devote	-13242
▁expects	-13243
astically	-13244
▁lifetime	-13245
▁Scientific	-13246
inz	-13247
ratt	-13248
ulsion	-13249
▁Perfect	-13250
▁liquidity	-13251
▁Ell	-13252
onder	-13253
▁flower	-13254
▁critics	-13255
▁abstract	-13256
▁licenses	-13257
▁subsidiaries	-13258
tre	-13259
▁realization	-13260
▁shield	-13261
▁likewise	-13262
▁Available	-13263
▁occurring	-13264
▁nationality	-13265
ITY	-13266
phan	-13267
▁Fat	-13268
▁Sien	-13269
▁testim	-13270
▁Beautiful	-13271
▁illegally	-13272
gr	-13273
▁Tat	-13274
▁spin	-13275
▁inaug	-13276
▁composer	-13277
▁expecting	-13278
▁Initiative	-13279
▁democratisation	-13280
AF	-13281
QU	-13282
enos	-13283
▁450	-13284
▁shed	-13285
▁Klingon	-13286
▁definite	-13287
▁Particular	-13288
▁pesticides	-13289
lon	-13290
▁Equip	-13291
▁overs	-13292
▁additives	-13293
▁precedent	-13294
▁recommends	-13295
oro	-13296
▁Et	-13297
ivoc	-13298
onde	-13299
▁Mug	-13300
▁Pod	-13301
▁forecasts	-13302
▁submission	-13303
▁SY	-13304
▁punish	-13305
▁Caucasus	-13306
▁confused	-13307
▁gratitude	-13308
▁indicating	-13309
▁rises	-13310
iciencies	-13311
GP	-13312
▁89	-13313
▁esp	-13314
▁molec	-13315
▁sunsh	-13316
▁lawyer	-13317
▁licensing	-13318
▁Application	-13319
▁consciousness	-13320
▁Respon	-13321
▁memorable	-13322
▁Hann	-13323
atable	-13324
▁Copyright	-13325
▁bei	-13326
▁Ship	-13327
alysis	-13328
▁rhythm	-13329
▁surfing	-13330
▁Venezuela	-13331
▁peninsula	-13332
▁Hab	-13333
boards	-13334
▁inval	-13335
▁bargain	-13336
▁connects	-13337
▁submitting	-13338
▁enthusiasts	-13339
IO	-13340
nut	-13341
chell	-13342
▁tall	-13343
▁erect	-13344
▁Confed	-13345
KA	-13346
ahl	-13347
▁Dyn	-13348
uerte	-13349
▁boys	-13350
▁veto	-13351
▁Purch	-13352
▁Victor	-13353
▁reorgan	-13354
▁inserted	-13355
▁placement	-13356
▁ble	-13357
▁Barb	-13358
▁clip	-13359
▁Wales	-13360
▁translators	-13361
▁civilisation	-13362
unal	-13363
▁API	-13364
▁demo	-13365
▁juice	-13366
▁Russians	-13367
▁vel	-13368
ercial	-13369
▁absent	-13370
▁gladly	-13371
▁robots	-13372
▁tastes	-13373
▁incoming	-13374
▁conversation	-13375
▁liberalization	-13376
eu	-13377
▁incap	-13378
▁pending	-13379
▁biofuels	-13380
▁failures	-13381
pg	-13382
▁ov	-13383
iciary	-13384
▁auster	-13385
▁prizes	-13386
▁assumes	-13387
▁harmonise	-13388
▁radioactive	-13389
▁reconstruct	-13390
▁recruitment	-13391
▁authoritarian	-13392
yt	-13393
▁69	-13394
code	-13395
nier	-13396
▁Tas	-13397
▁chaos	-13398
▁judged	-13399
▁violated	-13400
▁interoper	-13401
▁objection	-13402
▁deterioration	-13403
wig	-13404
quer	-13405
▁Cos	-13406
▁tent	-13407
lusive	-13408
▁fairs	-13409
▁binary	-13410
▁anybody	-13411
▁Panasonic	-13412
▁advocates	-13413
▁foreigners	-13414
▁discriminatory	-13415
▁Sz	-13416
▁mead	-13417
▁Sarkozy	-13418
unctional	-13419
▁friendship	-13420
▁accountable	-13421
arma	-13422
oren	-13423
▁GUE	-13424
iants	-13425
▁reposit	-13426
▁austerity	-13427
▁Accordingly	-13428
▁contamination	-13429
ivir	-13430
▁chest	-13431
▁rival	-13432
▁appalling	-13433
▁distortion	-13434
asma	-13435
▁Less	-13436
▁gifts	-13437
▁smugg	-13438
▁Milose	-13439
▁static	-13440
▁Banquet	-13441
▁caution	-13442
▁transposition	-13443
▁bact	-13444
atical	-13445
▁Provence	-13446
▁wholeheartedly	-13447
NET	-13448
ols	-13449
▁likes	-13450
ilitary	-13451
▁Taking	-13452
▁mixing	-13453
▁expresses	-13454
▁BO	-13455
▁ET	-13456
wear	-13457
▁1984	-13458
▁Exam	-13459
▁Fifth	-13460
▁appearing	-13461
HS	-13462
▁Ens	-13463
▁gig	-13464
▁aggreg	-13465
▁Harbour	-13466
▁passive	-13467
▁Santiago	-13468
▁coloured	-13469
100	-13470
▁Vil	-13471
▁coex	-13472
▁cozy	-13473
▁Upper	-13474
forward	-13475
▁Milosevic	-13476
▁misleading	-13477
▁reflecting	-13478
▁therapeutic	-13479
▁ly	-13480
dorf	-13481
ashes	-13482
▁Dial	-13483
▁Pool	-13484
▁dirty	-13485
▁Prices	-13486
▁proprietary	-13487
▁Sor	-13488
▁Publ	-13489
▁oils	-13490
▁assass	-13491
▁mutually	-13492
▁Orchestra	-13493
▁exhibitors	-13494
nst	-13495
▁ho	-13496
▁Audio	-13497
▁dense	-13498
▁stack	-13499
▁Studies	-13500
▁idyllic	-13501
▁dictator	-13502
▁disappointment	-13503
dy	-13504
aki	-13505
hesive	-13506
▁urged	-13507
▁Albert	-13508
▁Pension	-13509
▁manages	-13510
▁Ori	-13511
▁Amaz	-13512
mentioned	-13513
▁appropriately	-13514
▁77	-13515
rency	-13516
▁Cape	-13517
▁seller	-13518
▁Brazilian	-13519
22	-13520
adm	-13521
▁Ep	-13522
▁Cin	-13523
▁DIN	-13524
▁junior	-13525
▁entails	-13526
▁trigger	-13527
▁abortion	-13528
▁viewpoint	-13529
▁Cant	-13530
▁Jacques	-13531
▁console	-13532
▁Material	-13533
▁donations	-13534
▁understands	-13535
ften	-13536
yssen	-13537
▁aren	-13538
▁linear	-13539
▁accessing	-13540
writ	-13541
▁zum	-13542
piece	-13543
▁Keep	-13544
▁cellar	-13545
▁uncont	-13546
▁Various	-13547
▁adapting	-13548
▁optimize	-13549
▁beginners	-13550
▁ecommerce	-13551
▁Installation	-13552
▁Airconditioning	-13553
▁nest	-13554
▁embark	-13555
▁generic	-13556
▁internally	-13557
▁professionalism	-13558
▁Gir	-13559
▁Jar	-13560
▁SMS	-13561
▁Solar	-13562
▁icons	-13563
▁Throughout	-13564
▁stimulating	-13565
IVE	-13566
▁TNG	-13567
illon	-13568
▁Cuban	-13569
▁Steel	-13570
▁yours	-13571
▁discont	-13572
▁irresponsible	-13573
▁drain	-13574
▁Montre	-13575
▁electro	-13576
▁notable	-13577
▁conceived	-13578
▁fashionable	-13579
▁intermediate	-13580
ismo	-13581
▁Cala	-13582
▁haul	-13583
▁Lanzar	-13584
▁champion	-13585
▁chapters	-13586
▁persistent	-13587
aba	-13588
bas	-13589
▁Cart	-13590
▁como	-13591
▁appar	-13592
attered	-13593
itology	-13594
▁parish	-13595
▁onwards	-13596
▁Interest	-13597
▁upgraded	-13598
▁childhood	-13599
▁Ci	-13600
▁Pf	-13601
▁Bot	-13602
▁enact	-13603
▁lacks	-13604
▁Apache	-13605
▁traces	-13606
▁Antonio	-13607
▁infected	-13608
▁emphasises	-13609
▁Kit	-13610
gered	-13611
▁Franz	-13612
▁sciences	-13613
iat	-13614
▁shr	-13615
▁Mars	-13616
▁Volks	-13617
▁powder	-13618
▁Premium	-13619
▁encouragement	-13620
▁Vul	-13621
▁Days	-13622
▁digit	-13623
▁Jacuzzi	-13624
▁Liberties	-13625
▁enthusiastic	-13626
UB	-13627
abul	-13628
▁Alpha	-13629
▁Baden	-13630
▁fauna	-13631
▁unclear	-13632
▁counting	-13633
▁applicants	-13634
▁disability	-13635
▁Alc	-13636
world	-13637
▁drew	-13638
▁pumps	-13639
▁adhere	-13640
▁Fourthly	-13641
▁nationalism	-13642
▁Mé	-13643
sson	-13644
wick	-13645
▁Bio	-13646
▁Meg	-13647
▁sie	-13648
▁poses	-13649
▁Thyssen	-13650
▁disrupt	-13651
▁suspend	-13652
ellschaft	-13653
▁judiciary	-13654
▁concluding	-13655
▁CV	-13656
▁ze	-13657
▁Mol	-13658
▁1967	-13659
▁incl	-13660
opolit	-13661
▁uncon	-13662
▁columns	-13663
▁shaping	-13664
▁celebrations	-13665
alin	-13666
bahn	-13667
ussy	-13668
▁Ron	-13669
▁Prec	-13670
rolled	-13671
▁corrupt	-13672
▁Complete	-13673
▁assisted	-13674
▁monopolies	-13675
FS	-13676
▁1.3	-13677
▁Gab	-13678
▁Juan	-13679
ilings	-13680
▁fluct	-13681
chester	-13682
col	-13683
,500	-13684
▁awaits	-13685
▁charging	-13686
▁engineer	-13687
lass	-13688
▁Lot	-13689
▁coup	-13690
▁fool	-13691
▁Tuscan	-13692
▁trucks	-13693
▁optimistic	-13694
Fi	-13695
▁fon	-13696
▁cosmetic	-13697
▁sacrifice	-13698
▁Kam	-13699
▁José	-13700
enberg	-13701
▁delic	-13702
▁horny	-13703
proofed	-13704
▁deposits	-13705
▁sentences	-13706
▁travelers	-13707
etz	-13708
▁Self	-13709
▁Wine	-13710
ername	-13711
isible	-13712
▁literary	-13713
▁Ist	-13714
▁Produ	-13715
▁servants	-13716
▁condemnation	-13717
▁NT	-13718
▁2.2	-13719
ected	-13720
▁Prix	-13721
▁Rent	-13722
▁Angeles	-13723
▁seasons	-13724
▁showers	-13725
▁opposing	-13726
▁smoothly	-13727
▁methodology	-13728
▁straightforward	-13729
ometer	-13730
▁Lanzarote	-13731
will	-13732
▁GBP	-13733
▁erg	-13734
erson	-13735
▁unav	-13736
ospace	-13737
ictionary	-13738
▁compress	-13739
▁anonymous	-13740
▁comprising	-13741
▁influential	-13742
▁tournaments	-13743
▁archaeological	-13744
acon	-13745
▁1.4	-13746
▁verd	-13747
ursion	-13748
▁slave	-13749
▁Customs	-13750
▁Palacio	-13751
▁stadium	-13752
▁Democrat	-13753
▁Likewise	-13754
▁Particip	-13755
▁unequivoc	-13756
▁approaching	-13757
▁kitchenette	-13758
▁calculations	-13759
▁informations	-13760
ILL	-13761
▁67	-13762
hill	-13763
post	-13764
▁dan	-13765
▁march	-13766
▁locals	-13767
▁volcan	-13768
▁footing	-13769
▁theater	-13770
▁confined	-13771
▁reformed	-13772
▁infection	-13773
vin	-13774
▁Abu	-13775
▁populated	-13776
ACK	-13777
rane	-13778
▁Cla	-13779
▁Hat	-13780
▁lav	-13781
istically	-13782
▁Victoria	-13783
▁1978	-13784
▁cafes	-13785
▁tastefully	-13786
osh	-13787
uba	-13788
assy	-13789
▁Crist	-13790
▁priced	-13791
▁Israelis	-13792
▁scenarios	-13793
▁requesting	-13794
lez	-13795
after	-13796
isers	-13797
▁injust	-13798
▁suicide	-13799
▁Whenever	-13800
▁suppress	-13801
▁hydraulic	-13802
▁restoring	-13803
▁Sof	-13804
▁learnt	-13805
▁lengthy	-13806
▁brochure	-13807
▁unexpected	-13808
SM	-13809
iberal	-13810
▁reset	-13811
▁singing	-13812
rehensible	-13813
▁creatures	-13814
▁disparities	-13815
39	-13816
asi	-13817
▁AKVIS	-13818
▁remit	-13819
▁favoured	-13820
▁comitology	-13821
▁explanatory	-13822
▁multiannual	-13823
OUR	-13824
▁laugh	-13825
▁Jackson	-13826
▁Limited	-13827
▁castles	-13828
▁murdered	-13829
obs	-13830
gers	-13831
▁Anna	-13832
▁Dream	-13833
▁Tools	-13834
▁Currency	-13835
▁exemplary	-13836
erk	-13837
▁MID	-13838
▁seeds	-13839
▁somebody	-13840
aca	-13841
iert	-13842
▁Chern	-13843
▁Medic	-13844
▁cofin	-13845
strasse	-13846
▁pupils	-13847
▁ceramic	-13848
▁underpin	-13849
host	-13850
▁Fly	-13851
attan	-13852
itherto	-13853
▁Cubase	-13854
▁ALL	-13855
▁dock	-13856
▁excav	-13857
atility	-13858
▁motors	-13859
▁Parking	-13860
▁ceilings	-13861
▁deprived	-13862
▁Slovenian	-13863
▁traveling	-13864
▁disappointing	-13865
cha	-13866
▁LD	-13867
fish	-13868
▁palm	-13869
▁minors	-13870
▁cocktails	-13871
▁supplying	-13872
▁continents	-13873
HT	-13874
▁nerv	-13875
▁petrol	-13876
▁thrust	-13877
▁touched	-13878
▁synthetic	-13879
▁thickness	-13880
▁Collection	-13881
▁ow	-13882
▁0.5	-13883
▁pam	-13884
▁render	-13885
▁desires	-13886
▁mentioning	-13887
▁investigated	-13888
LY	-13889
razy	-13890
▁2.4	-13891
▁Fall	-13892
▁Trust	-13893
▁fifty	-13894
▁allerg	-13895
▁mature	-13896
▁virtue	-13897
▁offences	-13898
▁sectoral	-13899
▁Australian	-13900
▁consultancy	-13901
ITH	-13902
▁Fal	-13903
izard	-13904
▁lying	-13905
▁Visual	-13906
▁restart	-13907
▁beverages	-13908
▁draftsman	-13909
▁nominated	-13910
▁predecessor	-13911
amo	-13912
▁Len	-13913
▁jac	-13914
▁Haus	-13915
venient	-13916
▁empire	-13917
▁salaries	-13918
run	-13919
anto	-13920
▁Din	-13921
▁qui	-13922
▁1975	-13923
▁Merced	-13924
▁insult	-13925
▁resume	-13926
▁ritual	-13927
▁steady	-13928
ceptions	-13929
▁forcing	-13930
▁remembered	-13931
▁conditional	-13932
▁71	-13933
▁ALE	-13934
ogene	-13935
▁Dark	-13936
▁dece	-13937
▁medi	-13938
▁Basque	-13939
▁cataly	-13940
▁ethics	-13941
▁Supreme	-13942
▁inability	-13943
▁ineffective	-13944
▁reproductive	-13945
df	-13946
ysi	-13947
▁Je	-13948
▁jam	-13949
ronze	-13950
▁grace	-13951
▁jewel	-13952
▁attributes	-13953
var	-13954
▁Buch	-13955
▁Soft	-13956
▁towers	-13957
▁Already	-13958
▁obligatory	-13959
▁administrations	-13960
▁Graz	-13961
▁Magic	-13962
▁Avenue	-13963
▁Individ	-13964
▁brothers	-13965
rez	-13966
born	-13967
▁Rim	-13968
▁fuck	-13969
▁Goals	-13970
▁capita	-13971
building	-13972
▁inventory	-13973
▁xenophobia	-13974
▁commodities	-13975
▁Sn	-13976
▁biking	-13977
▁metall	-13978
▁circles	-13979
IE	-13980
rada	-13981
▁Gib	-13982
iscipl	-13983
▁deport	-13984
▁emails	-13985
▁harass	-13986
▁balconies	-13987
MB	-13988
bank	-13989
▁ICT	-13990
▁refresh	-13991
▁volcano	-13992
▁indicator	-13993
▁determines	-13994
▁Ko	-13995
▁diam	-13996
▁pist	-13997
covery	-13998
▁guess	-13999
▁robot	-14000
▁county	-14001
▁coupled	-14002
▁enjoyment	-14003
▁FC	-14004
avan	-14005
▁Sus	-14006
esign	-14007
▁Burn	-14008
▁Snow	-14009
▁font	-14010
▁hell	-14011
▁reop	-14012
teness	-14013
▁Fuerte	-14014
▁marvell	-14015
▁harmonious	-14016
▁moratorium	-14017
▁ot	-14018
▁unh	-14019
chest	-14020
▁fleets	-14021
▁pocket	-14022
▁casting	-14023
▁Baroness	-14024
▁protocols	-14025
▁accomplish	-14026
38	-14027
300	-14028
alet	-14029
▁CPU	-14030
▁Veg	-14031
▁Born	-14032
▁Quad	-14033
▁jury	-14034
▁Basic	-14035
▁differing	-14036
▁dimensional	-14037
▁q	-14038
wart	-14039
▁Manh	-14040
▁Oslo	-14041
▁beam	-14042
▁Table	-14043
▁drama	-14044
▁Chicago	-14045
▁patented	-14046
tar	-14047
▁matt	-14048
▁warmth	-14049
▁Consulting	-14050
▁prostitution	-14051
▁86	-14052
▁BL	-14053
ulators	-14054
▁copied	-14055
▁claiming	-14056
37	-14057
▁Pi	-14058
▁Schn	-14059
▁Type	-14060
▁pubs	-14061
▁interc	-14062
▁Mexican	-14063
▁abolish	-14064
▁Bavarian	-14065
▁Property	-14066
▁weekends	-14067
▁transferring	-14068
zed	-14069
▁ré	-14070
▁Gru	-14071
▁CFSP	-14072
▁Cort	-14073
lining	-14074
▁dying	-14075
▁switching	-14076
▁rap	-14077
▁drum	-14078
▁Klaus	-14079
▁debut	-14080
▁Temple	-14081
▁hereby	-14082
▁subway	-14083
▁letting	-14084
▁destabil	-14085
▁breakdown	-14086
▁snowboard	-14087
▁contradictory	-14088
▁ft	-14089
space	-14090
▁Arabia	-14091
▁eleven	-14092
▁employer	-14093
▁expressions	-14094
▁positioning	-14095
elo	-14096
akis	-14097
▁poison	-14098
▁dancing	-14099
▁nutrition	-14100
▁attributed	-14101
▁combinations	-14102
We	-14103
▁UC	-14104
wald	-14105
ennis	-14106
▁unite	-14107
▁templates	-14108
▁stipulated	-14109
▁supposedly	-14110
▁Dar	-14111
▁Prin	-14112
▁Analy	-14113
▁facto	-14114
▁readily	-14115
▁mistaken	-14116
▁Architect	-14117
▁realisation	-14118
hess	-14119
▁dot	-14120
azione	-14121
▁slope	-14122
▁emotion	-14123
▁Learning	-14124
▁Remember	-14125
▁volunteers	-14126
▁Date	-14127
aneous	-14128
▁Henry	-14129
▁10,000	-14130
▁grapes	-14131
▁poster	-14132
▁flavour	-14133
▁Leonardo	-14134
▁appealing	-14135
▁NO	-14136
ipel	-14137
▁Aires	-14138
▁Euroc	-14139
▁cooperating	-14140
▁py	-14141
▁Occ	-14142
▁Awards	-14143
▁Mercedes	-14144
▁contempl	-14145
▁Customers	-14146
adi	-14147
▁Wa	-14148
.2010	-14149
berry	-14150
racle	-14151
▁Ball	-14152
▁dare	-14153
▁pixels	-14154
▁salary	-14155
▁Albanian	-14156
▁massages	-14157
▁Neighbour	-14158
▁128	-14159
▁Rab	-14160
▁Tol	-14161
▁Marb	-14162
▁bund	-14163
▁fing	-14164
▁chick	-14165
▁crowd	-14166
nergies	-14167
▁Pierre	-14168
▁Emperor	-14169
▁pressed	-14170
▁plastics	-14171
pol	-14172
▁84	-14173
▁Seb	-14174
agger	-14175
▁handy	-14176
▁norms	-14177
▁realm	-14178
alistic	-14179
manship	-14180
▁Buenos	-14181
▁merits	-14182
▁rooted	-14183
▁outlook	-14184
▁portray	-14185
▁publicity	-14186
▁institutes	-14187
ouch	-14188
▁Vinc	-14189
▁bets	-14190
▁arisen	-14191
▁Ironing	-14192
▁frankly	-14193
▁Province	-14194
▁NH	-14195
agan	-14196
▁rip	-14197
▁Philip	-14198
▁ancest	-14199
▁dozens	-14200
▁Granada	-14201
▁Machine	-14202
▁swiftly	-14203
▁professor	-14204
▁relatives	-14205
▁strengths	-14206
adel	-14207
▁Aer	-14208
▁CAM	-14209
▁Nam	-14210
▁Pow	-14211
▁yea	-14212
plant	-14213
▁Lido	-14214
▁grows	-14215
▁Editor	-14216
▁fertil	-14217
▁Brother	-14218
▁altered	-14219
▁curious	-14220
obb	-14221
▁IR	-14222
atri	-14223
▁pav	-14224
▁fiction	-14225
▁disgrace	-14226
▁Companies	-14227
▁conception	-14228
▁teen	-14229
▁Guant	-14230
▁Easter	-14231
▁writes	-14232
idencies	-14233
▁subsidy	-14234
▁economists	-14235
▁94	-14236
▁Hun	-14237
master	-14238
▁Algar	-14239
▁logos	-14240
▁Clinton	-14241
▁highlighting	-14242
gs	-14243
▁Rol	-14244
▁Benj	-14245
▁rounds	-14246
▁surveys	-14247
▁astronom	-14248
▁Alternatively	-14249
anni	-14250
oned	-14251
▁NGL	-14252
▁SIM	-14253
▁Peru	-14254
▁afore	-14255
▁Commerce	-14256
▁entirety	-14257
▁manipulation	-14258
▁Hof	-14259
▁Rog	-14260
athon	-14261
▁1920	-14262
▁REACH	-14263
aciones	-14264
▁multif	-14265
▁prejudice	-14266
▁undermining	-14267
▁deregulation	-14268
asa	-14269
pre	-14270
▁rug	-14271
iller	-14272
ollah	-14273
▁café	-14274
▁rows	-14275
▁patio	-14276
▁fusion	-14277
outheast	-14278
▁traders	-14279
▁lectures	-14280
▁refusing	-14281
ér	-14282
oves	-14283
eding	-14284
▁Rand	-14285
erness	-14286
▁loads	-14287
▁confer	-14288
▁volcanic	-14289
▁Delta	-14290
ete	-14291
▁1982	-14292
▁succ	-14293
thodox	-14294
▁sacred	-14295
▁threatens	-14296
Gu	-14297
▁Verts	-14298
bey	-14299
▁Km	-14300
▁Ask	-14301
liche	-14302
▁Beauty	-14303
▁Sciences	-14304
▁editorial	-14305
▁redundant	-14306
▁incompatible	-14307
▁76	-14308
▁COD	-14309
▁loop	-14310
▁hatred	-14311
▁Channel	-14312
▁Majorca	-14313
▁bananas	-14314
▁exercised	-14315
21	-14316
▁gang	-14317
▁unse	-14318
parable	-14319
▁Course	-14320
ensively	-14321
▁tasting	-14322
▁receiver	-14323
▁dedication	-14324
▁iz	-14325
▁dess	-14326
▁Collect	-14327
▁extensions	-14328
icia	-14329
▁Kinn	-14330
▁lady	-14331
ivable	-14332
▁Ideal	-14333
▁senses	-14334
▁corners	-14335
▁stopping	-14336
▁sunshine	-14337
ORD	-14338
jek	-14339
▁None	-14340
▁guys	-14341
▁INTER	-14342
▁Mozart	-14343
▁weaker	-14344
▁Benjamin	-14345
▁Monitoring	-14346
eno	-14347
uite	-14348
▁1968	-14349
▁bind	-14350
▁Kunst	-14351
▁moist	-14352
▁browse	-14353
▁cycles	-14354
▁invalid	-14355
▁ratings	-14356
▁welding	-14357
▁invented	-14358
▁offensive	-14359
▁prevailing	-14360
EST	-14361
abeth	-14362
backs	-14363
▁1976	-14364
▁Viol	-14365
urfing	-14366
▁filed	-14367
▁gorge	-14368
▁reads	-14369
thernet	-14370
▁investor	-14371
▁terminals	-14372
▁marvellous	-14373
▁precarious	-14374
▁contracting	-14375
len	-14376
aired	-14377
izers	-14378
▁Bear	-14379
▁Palm	-14380
▁Pope	-14381
▁Ring	-14382
▁metre	-14383
▁tends	-14384
▁weaken	-14385
▁Eurostat	-14386
▁Marbella	-14387
▁dynamics	-14388
▁opponent	-14389
▁patience	-14390
▁accelerate	-14391
▁interviews	-14392
airo	-14393
▁arc	-14394
▁Qual	-14395
▁qualify	-14396
▁Cambodia	-14397
▁Rein	-14398
▁Venetian	-14399
▁Manhattan	-14400
▁earmarked	-14401
▁electorate	-14402
gone	-14403
oved	-14404
▁hath	-14405
berger	-14406
▁pitch	-14407
▁Create	-14408
▁discovering	-14409
▁specialties	-14410
▁traceability	-14411
▁fi	-14412
anne	-14413
ellen	-14414
▁Often	-14415
tainment	-14416
▁politician	-14417
conf	-14418
comes	-14419
▁Carm	-14420
▁alle	-14421
▁basin	-14422
▁rejecting	-14423
▁Electronic	-14424
▁simplifying	-14425
78	-14426
▁DM	-14427
▁entre	-14428
▁compan	-14429
▁extrad	-14430
▁Kinnock	-14431
▁copying	-14432
▁insofar	-14433
▁insisted	-14434
CA	-14435
lia	-14436
▁UV	-14437
▁Ross	-14438
▁yard	-14439
▁Prest	-14440
▁Siena	-14441
▁unamb	-14442
▁Histor	-14443
▁Premier	-14444
▁calculate	-14445
▁destructive	-14446
▁Ax	-14447
ergy	-14448
▁Kol	-14449
▁nos	-14450
unches	-14451
▁beta	-14452
▁biom	-14453
▁HOTEL	-14454
▁brush	-14455
▁lucky	-14456
taining	-14457
▁Virtual	-14458
▁unchanged	-14459
▁millennium	-14460
▁simplicity	-14461
▁recognising	-14462
GA	-14463
▁Run	-14464
▁wir	-14465
▁3000	-14466
▁Char	-14467
▁gene	-14468
urances	-14469
▁Living	-14470
▁Imperial	-14471
▁mentions	-14472
▁explaining	-14473
▁aux	-14474
▁muy	-14475
▁tie	-14476
▁alqu	-14477
▁legs	-14478
▁Algarve	-14479
yb	-14480
▁Fred	-14481
▁cookie	-14482
▁exceeds	-14483
▁Managing	-14484
▁criticise	-14485
▁unwilling	-14486
▁PE	-14487
amics	-14488
osity	-14489
ungle	-14490
▁Ages	-14491
▁mask	-14492
▁span	-14493
▁multip	-14494
▁loyalty	-14495
▁touches	-14496
▁fruitful	-14497
▁suspicion	-14498
▁completeness	-14499
▁Deb	-14500
▁pecul	-14501
▁twent	-14502
▁recipes	-14503
▁consuming	-14504
▁reimburse	-14505
▁multinationals	-14506
kh	-14507
▁220	-14508
▁Prop	-14509
▁odds	-14510
▁flats	-14511
▁Schmid	-14512
▁bitter	-14513
▁domains	-14514
▁spatial	-14515
▁incorporating	-14516
▁Ri	-14517
▁Alf	-14518
▁ske	-14519
etooth	-14520
▁Lower	-14521
▁homose	-14522
otherapy	-14523
▁religions	-14524
▁mi	-14525
▁175	-14526
▁cro	-14527
▁True	-14528
levard	-14529
▁Money	-14530
▁Therm	-14531
▁loung	-14532
▁sadly	-14533
▁performs	-14534
▁suspected	-14535
▁insecurity	-14536
zi	-14537
▁MT	-14538
rolean	-14539
▁Magaz	-14540
▁Mugabe	-14541
▁disorders	-14542
▁illustrate	-14543
▁professions	-14544
HA	-14545
▁SSL	-14546
▁chrom	-14547
▁poorly	-14548
▁banning	-14549
▁beliefs	-14550
▁betting	-14551
ATE	-14552
▁Ost	-14553
charg	-14554
▁hits	-14555
▁pipe	-14556
▁Gross	-14557
▁multic	-14558
▁cloning	-14559
▁fathers	-14560
▁undergo	-14561
▁hitherto	-14562
▁imprisoned	-14563
ivo	-14564
▁Ug	-14565
▁Beh	-14566
▁Pur	-14567
▁bull	-14568
▁shoe	-14569
▁Surely	-14570
▁cluster	-14571
▁invention	-14572
▁historically	-14573
▁Luk	-14574
▁Doctor	-14575
▁slides	-14576
▁recital	-14577
▁interiors	-14578
▁sentenced	-14579
ASE	-14580
änd	-14581
▁61	-14582
atem	-14583
oise	-14584
being	-14585
chair	-14586
▁cruise	-14587
▁theatres	-14588
▁underway	-14589
▁Paragraph	-14590
▁evaluating	-14591
▁prosperous	-14592
▁undermined	-14593
As	-14594
eken	-14595
▁Jim	-14596
▁Vor	-14597
ebook	-14598
▁regain	-14599
▁Chapter	-14600
▁nowhere	-14601
▁worship	-14602
▁assuming	-14603
▁excursion	-14604
▁Neighbourhood	-14605
öl	-14606
ilm	-14607
▁Seven	-14608
ritical	-14609
▁accred	-14610
▁Regions	-14611
▁interven	-14612
▁happiness	-14613
isciplinary	-14614
▁deliberate	-14615
▁dependency	-14616
▁depression	-14617
▁reunification	-14618
▁nu	-14619
▁owe	-14620
achts	-14621
▁Sher	-14622
▁diab	-14623
▁holy	-14624
▁warn	-14625
▁lesser	-14626
▁marina	-14627
▁therap	-14628
▁warned	-14629
▁employs	-14630
▁DNA	-14631
▁pad	-14632
tably	-14633
▁Name	-14634
▁dwell	-14635
▁lamps	-14636
▁lifted	-14637
▁unders	-14638
▁refrain	-14639
▁resolute	-14640
▁celebrating	-14641
▁collectively	-14642
was	-14643
▁mes	-14644
lette	-14645
▁recourse	-14646
▁extraction	-14647
▁FL	-14648
▁Sta	-14649
▁lip	-14650
▁Others	-14651
▁buyers	-14652
▁durable	-14653
▁advocated	-14654
dle	-14655
ifi	-14656
▁gel	-14657
[...]
